<pad>	0
<unk>	0
<s>	0
</s>	0
<협박>	0
<갈취>	0
<직장내 괴롭힘>	0
<기타 괴롭힘>	0
<일반>	0
▁그	-0
▁아	-1
▁이	-2
▁내	-3
▁너	-4
▁나	-5
▁대	-6
니다	-7
▁하	-8
▁어	-9
▁안	-10
▁대화	-11
▁다	-12
▁말	-13
▁아니	-14
▁사	-15
▁있	-16
▁가	-17
▁내가	-18
▁없	-19
▁제	-20
▁알	-21
▁왜	-22
는데	-23
▁네	-24
▁저	-25
▁지	-26
▁거	-27
▁뭐	-28
▁해	-29
니까	-30
▁괴	-31
▁괴롭	-32
세요	-33
▁괴롭힘	-34
습니다	-35
▁진	-36
▁좀	-37
▁오	-38
▁그래	-39
▁돈	-40
▁일	-41
죄송	-42
▁보	-43
▁못	-44
▁죄송	-45
▁잘	-46
▁좋	-47
잖아	-48
합니다	-49
▁한	-50
▁진짜	-51
라고	-52
▁1	-53
▁무	-54
▁같	-55
▁니	-56
▁부	-57
▁죽	-58
는거	-59
▁우	-60
다고	-61
!!	-62
▁자	-63
▁3	-64
▁정	-65
▁지금	-66
▁그러	-67
▁죄송합니다	-68
렇게	-69
▁주	-70
이야	-71
▁2	-72
▁시	-73
어요	-74
▁여	-75
▁야	-76
한테	-77
▁우리	-78
▁그럼	-79
▁생	-80
으면	-81
▁수	-82
▁무슨	-83
▁미	-84
으로	-85
▁그냥	-86
기타	-87
겠습니다	-88
직장	-89
▁기	-90
▁응	-91
▁고	-92
▁할	-93
협박	-94
▁마	-95
갈취	-96
▁.	-97
▁그런	-98
▁살	-99
까지	-100
▁당	-101
▁더	-102
▁4	-103
에서	-104
▁맞	-105
거야	-106
▁사람	-107
▁제가	-108
▁먹	-109
▁것	-110
▁너무	-111
▁오늘	-112
▁제발	-113
장님	-114
▁신	-115
▁들	-116
▁이거	-117
▁나도	-118
▁있어	-119
일반	-120
하고	-121
▁되	-122
??	-123
▁얼	-124
▁없어	-125
▁바	-126
▁했	-127
▁만	-128
지마	-129
친구	-130
▁모	-131
▁싶	-132
▁누	-133
▁때	-134
▁회	-135
▁않	-136
▁그렇게	-137
▁싫	-138
▁어디	-139
▁여기	-140
▁어떻	-141
▁전	-142
▁소	-143
▁많	-144
▁애	-145
▁어떻게	-146
주세요	-147
▁조	-148
▁집	-149
▁생각	-150
새끼	-151
겠다	-152
▁알아	-153
▁좋아	-154
▁봐	-155
하는	-156
▁빨	-157
해서	-158
▁장	-159
▁빌	-160
▁그만	-161
▁니가	-162
▁미안	-163
▁줄	-164
에요	-165
▁남	-166
▁아니야	-167
▁입	-168
야지	-169
겠어	-170
▁빨리	-171
하면	-172
▁정말	-173
▁이번	-174
하게	-175
▁건	-176
하지	-177
▁안돼	-178
인데	-179
▁회사	-180
이라	-181
는거야	-182
▁인	-183
▁와	-184
▁손	-185
리고	-186
▁불	-187
.?	-188
▁엄	-189
▁친구	-190
▁빌려	-191
▁받	-192
▁같이	-193
▁얘	-194
▁이렇게	-195
▁그게	-196
▁그건	-197
ᄏᄏ	-198
▁ᄏᄏ	-199
▁예	-200
▁하나	-201
▁상	-202
▁선	-203
▁근	-204
0,	-205
5,	-206
6,	-207
7,	-208
8,	-209
9,	-210
1,	-211
2,	-212
3,	-213
4,	-214
▁난	-215
▁비	-216
▁넌	-217
대로	-218
▁도	-219
았어	-220
해요	-221
▁너가	-222
▁재	-223
만원	-224
요즘	-225
▁이런	-226
▁잘못	-227
들이	-228
▁들어	-229
▁뭘	-230
▁이제	-231
▁계	-232
▁시간	-233
▁이러	-234
▁학	-235
▁돌	-236
▁차	-237
▁엄마	-238
▁한번	-239
▁게	-240
▁따	-241
▁나는	-242
▁가져	-243
부터	-244
00	-245
게요	-246
▁그거	-247
▁돼	-248
▁하고	-249
▁다른	-250
▁안되	-251
은데	-252
▁앞	-253
대리	-254
▁드	-255
▁내일	-256
▁말이	-257
▁힘	-258
▁근데	-259
어서	-260
▁다시	-261
▁쓰	-262
▁김	-263
..	-264
시면	-265
▁나한테	-266
▁같아	-267
▁새끼	-268
▁그래도	-269
▁거야	-270
▁갈	-271
▁눈	-272
▁말씀	-273
▁신고	-274
,"	-275
▁얼마	-276
▁하지	-277
▁날	-278
▁돈이	-279
▁개	-280
▁동	-281
▁완	-282
▁아닌	-283
려고	-284
지고	-285
▁걸	-286
▁구	-287
▁연	-288
▁배	-289
▁모르	-290
▁언	-291
▁줘	-292
▁이게	-293
▁됐	-294
▁참	-295
▁당장	-296
▁하는	-297
▁아닙	-298
▁아직	-299
▁5	-300
▁다음	-301
▁피	-302
▁몰	-303
잖아요	-304
▁머	-305
▁살려	-306
들어	-307
▁원	-308
▁번	-309
▁내놔	-310
▁달	-311
▁뭔	-312
▁물	-313
▁뒤	-314
▁죽여	-315
▁없어요	-316
▁보내	-317
▁있는	-318
▁?	-319
▁끝	-320
▁소리	-321
▁알았어	-322
▁중	-323
그래	-324
하다	-325
▁놀	-326
▁올	-327
▁누구	-328
▁당신	-329
▁자네	-330
▁그렇	-331
▁많이	-332
▁보고	-333
▁공	-334
▁또	-335
▁좋은	-336
▁부탁	-337
▁잠	-338
▁아니라	-339
▁하면	-340
▁미안해	-341
▁아닙니다	-342
▁괜	-343
가요	-344
아서	-345
했어	-346
▁경	-347
것도	-348
▁감	-349
▁문	-350
▁일이	-351
▁노	-352
라도	-353
▁아무	-354
▁똑	-355
줄게	-356
버릴	-357
▁너는	-358
▁나오	-359
▁아이	-360
▁열	-361
▁약	-362
▁정신	-363
밖에	-364
▁저희	-365
었어	-366
▁부장님	-367
▁뭐야	-368
▁알겠습니다	-369
▁과	-370
▁꼭	-371
▁맞아	-372
▁몇	-373
▁부모	-374
▁형	-375
▁완전	-376
▁치	-377
는데요	-378
▁필	-379
아니	-380
▁다니	-381
▁기분	-382
겠네	-383
▁고마	-384
▁그래서	-385
▁두	-386
이지	-387
▁너네	-388
▁조금	-389
건데	-390
▁싫어	-391
▁요즘	-392
▁얘기	-393
▁심	-394
▁서	-395
나요	-396
는게	-397
하네	-398
▁아니고	-399
▁남자	-400
▁너도	-401
▁장난	-402
▁준	-403
▁10	-404
▁처	-405
▁반	-406
▁휴	-407
▁괜찮	-408
▁누가	-409
▁얼굴	-410
하세요	-411
▁목	-412
▁세	-413
▁옷	-414
▁확	-415
▁고마워	-416
▁딸	-417
▁언제	-418
▁저번	-419
▁맛	-420
하시	-421
▁가족	-422
▁필요	-423
▁뭐가	-424
▁어때	-425
문에	-426
▁어제	-427
▁커	-428
으니까	-429
▁돌려	-430
▁이건	-431
▁유	-432
까요	-433
자기	-434
▁갑	-435
▁화	-436
▁그만해	-437
▁꺼	-438
▁말고	-439
▁매	-440
▁애들	-441
▁성	-442
▁거기	-443
▁영	-444
혹시	-445
▁웃	-446
▁봤	-447
머니	-448
▁어디서	-449
▁나가	-450
▁집에	-451
생님	-452
▁음	-453
▁데	-454
▁업	-455
▁분	-456
▁써	-457
▁알겠어	-458
▁병	-459
이랑	-460
▁쳐	-461
보다	-462
▁방	-463
▁혹시	-464
▁될	-465
▁말이야	-466
▁몰라	-467
▁벌	-468
▁새	-469
▁가서	-470
▁편	-471
▁환	-472
고싶	-473
그러	-474
!!!	-475
이라도	-476
▁그리고	-477
하겠습니다	-478
▁밥	-479
▁적	-480
리가	-481
있어	-482
면서	-483
▁사람이	-484
한거	-485
."	-486
▁결	-487
이나	-488
▁부모님	-489
▁에	-490
▁점	-491
시간	-492
▁길	-493
▁칼	-494
▁갑자기	-495
▁담	-496
같은	-497
이고	-498
▁바로	-499
▁죽어	-500
▁경찰	-501
▁갚	-502
말고	-503
네요	-504
오늘	-505
▁없는	-506
▁그러니까	-507
말에	-508
▁말을	-509
▁앞으로	-510
헤어	-511
▁기다	-512
▁다녀	-513
▁있을	-514
▁자꾸	-515
▁혼	-516
더라	-517
▁말해	-518
입니다	-519
▁얼마나	-520
▁제대로	-521
▁찾	-522
▁이번에	-523
▁최	-524
소리	-525
▁버	-526
▁실	-527
▁알고	-528
구나	-529
던데	-530
▁가자	-531
▁따라	-532
▁아주	-533
야겠다	-534
하는데	-535
▁재밌	-536
▁없어서	-537
냄새	-538
▁손님	-539
▁커피	-540
▁학교	-541
▁저번에	-542
▁그러면	-543
▁몸	-544
▁같은	-545
▁고객	-546
▁저도	-547
▁죄송해요	-548
▁팀	-549
▁그걸	-550
▁힘들	-551
▁하지마	-552
거든	-553
▁업무	-554
▁전에	-555
...	-556
▁만나	-557
▁발	-558
▁스	-559
주면	-560
하냐	-561
▁문제	-562
▁헤어	-563
다는	-564
▁사진	-565
▁그럴	-566
겠지	-567
▁싶어	-568
▁위	-569
시죠	-570
▁이리	-571
▁휴가	-572
이다	-573
▁여자	-574
▁선생님	-575
▁직	-576
▁헐	-577
▁간	-578
▁교	-579
!!!!	-580
▁카	-581
▁퇴	-582
▁마음	-583
▁이상	-584
테니까	-585
▁알지	-586
▁씨	-587
▁운	-588
▁딱	-589
▁빠	-590
▁저는	-591
▁살려주세요	-592
▁별	-593
▁작	-594
하나	-595
▁준비	-596
다니까	-597
바로	-598
하기	-599
▁냄새	-600
▁믿	-601
▁절	-602
▁30	-603
▁싸	-604
해야	-605
▁계속	-606
▁것도	-607
▁그러게	-608
▁먼	-609
▁나랑	-610
▁없는데	-611
▁6	-612
▁잡	-613
리는	-614
한데	-615
▁약속	-616
▁저기	-617
▁한번만	-618
구요	-619
다니	-620
사람	-621
해주	-622
▁가만	-623
▁도와	-624
▁먹고	-625
▁잠깐	-626
▁아니요	-627
▁넘	-628
▁타	-629
일이	-630
▁해야	-631
▁했어	-632
▁뭐라고	-633
▁왜이	-634
▁하겠습니다	-635
▁듣	-636
▁용	-637
는지	-638
예요	-639
▁있는데	-640
들은	-641
보고	-642
아가	-643
▁내려	-644
▁시키	-645
▁오빠	-646
▁가지고	-647
▁쉬	-648
▁그치	-649
▁주세요	-650
▁7	-651
▁추	-652
심히	-653
이네	-654
▁20	-655
▁사과	-656
▁있어서	-657
겠어요	-658
▁고객님	-659
▁과장님	-660
▁왜그래	-661
▁관	-662
▁찍	-663
.!	-664
▁꼬	-665
▁짜	-666
▁조용	-667
▁알아서	-668
▁미쳤	-669
▁어쩌	-670
▁맨	-671
▁거지	-672
▁때문에	-673
▁똑바로	-674
▁12	-675
▁어떤	-676
▁혼자	-677
▁여기서	-678
▁8	-679
▁거짓	-680
▁네가	-681
▁환불	-682
▁말씀이	-683
▁우리가	-684
▁금	-685
▁요	-686
▁출	-687
▁허	-688
놓고	-689
▁그랬	-690
▁보자	-691
▁아냐	-692
▁잘못했	-693
▁하는데	-694
▁민	-695
▁머리	-696
▁퇴근	-697
▁안돼요	-698
▁막	-699
리지	-700
전에	-701
▁같은데	-702
▁팔	-703
▁이래	-704
▁일을	-705
이라고	-706
다가	-707
▁알려	-708
▁자식	-709
▁거짓말	-710
▁아니면	-711
저기	-712
▁너랑	-713
▁돈을	-714
▁말대	-715
▁맛있	-716
▁먼저	-717
▁있지	-718
▁장애	-719
▁열심히	-720
▁박	-721
▁의	-722
▁책	-723
같이	-724
라면	-725
▁아빠	-726
▁전화	-727
식으로	-728
▁산	-729
냐고	-730
▁맨날	-731
생활	-732
와서	-733
지도	-734
▁대리	-735
보자	-736
한다	-737
십니까	-738
▁놈	-739
리면	-740
▁해서	-741
하지마	-742
▁9	-743
▁월	-744
▁어쩔	-745
▁얼른	-746
▁점심	-747
습니까	-748
▁아닌데	-749
라는	-750
할게	-751
▁사장님	-752
▁생각해	-753
▁주말에	-754
▁볼	-755
던가	-756
이면	-757
▁자기	-758
▁급	-759
▁이따	-760
▁진정	-761
▁싫으면	-762
▁조용히	-763
▁본	-764
드릴	-765
셔서	-766
주라	-767
하자	-768
▁11	-769
▁당연	-770
▁말아	-771
▁안될	-772
▁연락	-773
▁이미	-774
▁하루	-775
더니	-776
▁같습니다	-777
▁파	-778
시고	-779
▁않아	-780
▁그런데	-781
버릴거야	-782
▁없습니다	-783
▁왔	-784
린다	-785
▁15	-786
▁가방	-787
▁돼지	-788
▁먹어	-789
▁키	-790
▁풀	-791
어이	-792
으니	-793
▁됐고	-794
▁저녁	-795
하는거	-796
▁!	-797
▁늦	-798
져서	-799
▁마세요	-800
▁강	-801
▁귀	-802
▁뽑	-803
▁큰	-804
하신	-805
▁그때	-806
▁어떡	-807
▁아니에요	-808
▁온	-809
▁평	-810
텐데	-811
▁너희	-812
▁협박	-813
▁100	-814
▁그니까	-815
▁빌려줘	-816
▁왜그러	-817
▁단	-818
▁둘	-819
이가	-820
중에	-821
처럼	-822
▁말로	-823
▁보여	-824
▁지나	-825
▁그렇지	-826
▁후	-827
려서	-828
시는	-829
▁해야지	-830
도록	-831
▁못생	-832
▁뭔데	-833
▁해봐	-834
▁승	-835
▁현	-836
정도	-837
▁24	-838
▁받아	-839
▁아파	-840
▁죽을	-841
▁엄마가	-842
▁취	-843
내가	-844
▁45	-845
▁드릴	-846
▁많아	-847
▁못해	-848
으라고	-849
▁조금만	-850
▁남자친구	-851
▁망	-852
가서	-853
▁18	-854
▁꺼져	-855
▁김대리	-856
▁설	-857
▁쟤	-858
을까	-859
▁공부	-860
▁동생	-861
▁아들	-862
▁이걸	-863
▁이것	-864
▁조심	-865
▁중요	-866
▁갔	-867
▁임	-868
▁토	-869
▁행	-870
없어	-871
▁14	-872
▁16	-873
▁17	-874
▁19	-875
▁25	-876
▁결혼	-877
▁밖에	-878
▁소문	-879
▁에이	-880
▁그런거	-881
▁기다려	-882
▁있어요	-883
▁했는데	-884
▁술	-885
▁13	-886
▁22	-887
▁노력	-888
▁살아	-889
▁어머	-890
▁절대	-891
▁정도	-892
러워	-893
은거	-894
▁32	-895
▁35	-896
▁니네	-897
▁안녕	-898
▁인정	-899
▁좋지	-900
▁나오면	-901
▁널	-902
▁역	-903
저씨	-904
지막	-905
▁23	-906
▁28	-907
▁29	-908
▁31	-909
▁34	-910
▁일단	-911
▁짜증	-912
▁있습니다	-913
정이	-914
▁21	-915
▁26	-916
▁27	-917
▁33	-918
▁36	-919
▁37	-920
▁38	-921
▁39	-922
▁41	-923
▁42	-924
▁43	-925
▁44	-926
▁46	-927
▁미친	-928
▁예쁘	-929
▁확인	-930
▁너한테	-931
▁만들어	-932
▁새끼야	-933
▁글	-934
▁감사	-935
▁아까	-936
▁어려	-937
했는데	-938
▁내일까지	-939
버리	-940
▁40	-941
▁무서	-942
▁병원	-943
▁시끄	-944
▁어딨	-945
▁이야	-946
만원만	-947
이에요	-948
▁마지막	-949
▁신고할	-950
▁이새끼	-951
▁꼴	-952
▁외	-953
▁대신	-954
▁물어	-955
▁새로	-956
▁줄게	-957
하니까	-958
▁장애인	-959
▁빼	-960
▁샀	-961
▁찐	-962
???	-963
▁아침	-964
▁웃기	-965
▁겁	-966
에게	-967
▁시간을	-968
▁된	-969
▁챙	-970
▁크	-971
줘야	-972
▁불편	-973
아니야	-974
▁괜찮아	-975
▁까	-976
가지	-977
▁길동	-978
▁원래	-979
▁찾아	-980
▁오늘은	-981
▁떨	-982
▁명	-983
나봐	-984
▁알바	-985
▁지갑	-986
▁짜증나	-987
다며	-988
다면	-989
▁속	-990
▁상관	-991
▁상사	-992
▁찐따	-993
▁하네	-994
▁학원	-995
▁해주	-996
▁말대꾸	-997
▁팀장님	-998
▁으	-999
▁천	-1000
기가	-1001
꺼야	-1002
인가	-1003
▁들고	-1004
▁하자	-1005
는거지	-1006
▁사람들	-1007
▁없으면	-1008
▁맘	-1009
▁짓	-1010
드리	-1011
십시	-1012
알아	-1013
이냐	-1014
▁왜요	-1015
▁이쁘	-1016
▁주면	-1017
▁직원	-1018
▁아저씨	-1019
▁죽고싶	-1020
▁존	-1021
오면	-1022
해봐	-1023
▁사실	-1024
▁선배	-1025
▁처음	-1026
가지고	-1027
▁갖	-1028
▁욕	-1029
▁통	-1030
는건	-1031
씨가	-1032
에는	-1033
▁다리	-1034
▁담배	-1035
▁생겼	-1036
▁재미	-1037
▁걱	-1038
▁느	-1039
테니	-1040
▁사랑	-1041
▁없네	-1042
하잖아	-1043
▁나중에	-1044
▁순	-1045
끼리	-1046
이번	-1047
▁목숨	-1048
▁선물	-1049
▁곧	-1050
줄까	-1051
줌마	-1052
▁눈치	-1053
▁부르	-1054
▁없고	-1055
▁월급	-1056
▁자리	-1057
▁정리	-1058
▁화장	-1059
▁그러지	-1060
▁있으면	-1061
▁있잖아	-1062
▁집에서	-1063
▁그러세요	-1064
▁쓸	-1065
사원	-1066
▁내놓	-1067
▁없지	-1068
▁이유	-1069
▁죽는	-1070
▁해줘	-1071
하는거야	-1072
▁찌	-1073
▁코	-1074
▁프	-1075
기는	-1076
들아	-1077
▁대학	-1078
▁안좋	-1079
▁알았	-1080
때문에	-1081
보세요	-1082
?!	-1083
▁밤	-1084
▁잔	-1085
같아	-1086
셔야	-1087
에도	-1088
요일	-1089
인지	-1090
▁걱정	-1091
▁사와	-1092
▁싶다	-1093
▁일로	-1094
▁말도	-1095
었는데	-1096
▁했잖아	-1097
▁헤어지	-1098
해주세요	-1099
해줘	-1100
▁나와	-1101
▁벌써	-1102
▁실수	-1103
▁넣	-1104
버지	-1105
치고	-1106
▁건들	-1107
▁떨어	-1108
▁세상	-1109
▁와서	-1110
▁일도	-1111
하는게	-1112
▁이야기	-1113
▁저한테	-1114
▁곳	-1115
만은	-1116
▁승진	-1117
▁입고	-1118
거에요	-1119
▁아직도	-1120
▁있는거	-1121
▁하세요	-1122
▁힘들어	-1123
▁양	-1124
▁청	-1125
▁태	-1126
볼까	-1127
지만	-1128
▁맞고	-1129
▁수가	-1130
▁입금	-1131
▁죽고	-1132
달라고	-1133
▁같아요	-1134
▁좋겠다	-1135
▁하라고	-1136
▁증	-1137
▁갈까	-1138
▁건데	-1139
▁누군	-1140
▁시작	-1141
▁가만히	-1142
▁소리야	-1143
▁옆	-1144
구만	-1145
해라	-1146
▁있나	-1147
▁빵	-1148
▁나왔	-1149
▁남편	-1150
▁신경	-1151
▁어울	-1152
▁있냐	-1153
▁줘봐	-1154
하라고	-1155
▁경찰에	-1156
▁그래요	-1157
▁쓰고	-1158
▁음식	-1159
▁처리	-1160
적으로	-1161
▁새끼가	-1162
가락	-1163
▁병신	-1164
▁오해	-1165
▁용돈	-1166
▁운동	-1167
▁인생	-1168
▁챙겨	-1169
저기요	-1170
▁가져와	-1171
!"	-1172
마다	-1173
인거	-1174
주고	-1175
차피	-1176
▁구해	-1177
▁나를	-1178
▁말할	-1179
▁무시	-1180
▁안된	-1181
▁저요	-1182
▁좋게	-1183
▁좋을	-1184
▁죽일	-1185
됩니다	-1186
십시오	-1187
한다고	-1188
▁아줌마	-1189
▁어머니	-1190
▁어차피	-1191
▁그러지마	-1192
▁닥	-1193
기도	-1194
▁물건	-1195
▁별로	-1196
▁상황	-1197
▁아는	-1198
▁안해	-1199
▁엄청	-1200
▁직장	-1201
▁해도	-1202
▁답	-1203
기로	-1204
님이	-1205
▁대박	-1206
▁매일	-1207
▁보면	-1208
▁학생	-1209
버린다	-1210
▁되잖아	-1211
▁보고서	-1212
▁맡	-1213
▁초	-1214
던지	-1215
핸드	-1216
▁나이	-1217
▁아프	-1218
▁않으면	-1219
▁하는거	-1220
죄송합니다	-1221
▁궁	-1222
▁친	-1223
을게	-1224
▁기억	-1225
▁끝내	-1226
▁대체	-1227
▁번만	-1228
▁안보	-1229
하다고	-1230
▁당신이	-1231
▁정신차	-1232
▁빌려주라	-1233
▁각	-1234
▁쪽	-1235
니깐	-1236
지는	-1237
▁개인	-1238
▁뭐라	-1239
▁신입	-1240
▁줄래	-1241
▁회식	-1242
겁니다	-1243
▁감사합니다	-1244
▁골	-1245
▁메	-1246
▁줬	-1247
▁합	-1248
대체	-1249
수가	-1250
▁가게	-1251
▁끝나	-1252
▁나쁘	-1253
▁나온	-1254
▁없이	-1255
▁이름	-1256
▁장기	-1257
들이랑	-1258
핸드폰	-1259
▁너같은	-1260
▁자네가	-1261
간다	-1262
겠냐	-1263
봤어	-1264
어나	-1265
엄마	-1266
▁만원	-1267
▁보기	-1268
▁추천	-1269
▁카드	-1270
김대리	-1271
▁가져가	-1272
▁그런가	-1273
▁시키는	-1274
▁저번에도	-1275
▁등	-1276
▁착	-1277
께요	-1278
랜만	-1279
와봐	-1280
우리	-1281
을래	-1282
이거	-1283
자고	-1284
적인	-1285
지가	-1286
▁가야	-1287
▁다들	-1288
▁돈은	-1289
▁불러	-1290
▁사회	-1291
▁인사	-1292
▁제일	-1293
▁주제	-1294
겠다고	-1295
립니다	-1296
▁돌려줘	-1297
▁앞에서	-1298
▁제발요	-1299
▁회사에	-1300
▁아니잖아	-1301
▁죽여버릴거야	-1302
▁죄	-1303
이요	-1304
해도	-1305
▁바람	-1306
▁불쌍	-1307
▁쓰레	-1308
▁아가	-1309
▁없다	-1310
말이야	-1311
▁붙	-1312
▁뿐	-1313
▁함	-1314
가는	-1315
워서	-1316
했다	-1317
▁궁금	-1318
▁생일	-1319
▁영상	-1320
▁있었	-1321
▁프로	-1322
하지만	-1323
▁시간이	-1324
▁식	-1325
볼게	-1326
주는	-1327
주일	-1328
하니	-1329
▁갖고	-1330
▁생긴	-1331
▁좋다	-1332
▁증거	-1333
▁해요	-1334
셨어요	-1335
▁다음에	-1336
▁없다고	-1337
▁놓	-1338
났어	-1339
동안	-1340
위로	-1341
▁47	-1342
▁게임	-1343
▁되지	-1344
▁두고	-1345
▁만들	-1346
▁있으	-1347
▁놔	-1348
▁티	-1349
버려	-1350
시에	-1351
학교	-1352
▁기회	-1353
▁대로	-1354
▁되는	-1355
▁풀어	-1356
▁피해	-1357
▁하시	-1358
▁해결	-1359
▁했지	-1360
▁행동	-1361
▁하지만	-1362
▁드릴게요	-1363
▁아무것도	-1364
▁호	-1365
드려	-1366
들도	-1367
럽게	-1368
이는	-1369
지금	-1370
▁보는	-1371
▁봤어	-1372
▁부족	-1373
▁싶지	-1374
▁아뇨	-1375
▁와봐	-1376
▁잠시	-1377
▁장사	-1378
▁주말	-1379
▁해보	-1380
▁국	-1381
▁척	-1382
▁털	-1383
▁틀	-1384
리를	-1385
봐야	-1386
인다	-1387
▁달라	-1388
▁돈도	-1389
▁됐어	-1390
▁안나	-1391
▁야근	-1392
▁연차	-1393
▁존나	-1394
거니까	-1395
인데요	-1396
▁그러고	-1397
▁있다고	-1398
▁하나도	-1399
▁멀	-1400
▁앉	-1401
▁총	-1402
걸로	-1403
능력	-1404
씨는	-1405
▁가진	-1406
▁고생	-1407
▁기대	-1408
▁어린	-1409
▁완벽	-1410
▁칼로	-1411
▁하기	-1412
▁뒤져서	-1413
▁일주일	-1414
▁핸드폰	-1415
▁오늘까지	-1416
▁왜이렇게	-1417
▁깨	-1418
▁뛰	-1419
▁뻔	-1420
▁숨	-1421
▁울	-1422
▁창	-1423
려면	-1424
서요	-1425
줄래	-1426
▁걸어	-1427
▁까지	-1428
▁너만	-1429
▁대답	-1430
▁배우	-1431
▁사고	-1432
▁사이	-1433
▁수도	-1434
▁책임	-1435
▁피곤	-1436
소리야	-1437
오라고	-1438
▁이러지마	-1439
▁밀	-1440
▁솔	-1441
▁폭	-1442
거지	-1443
건가	-1444
아야	-1445
▁때려	-1446
▁못하	-1447
▁샀어	-1448
▁신발	-1449
▁않았	-1450
▁애가	-1451
▁영화	-1452
▁이자	-1453
▁출근	-1454
▁하하	-1455
라니까	-1456
▁그것도	-1457
▁대리님	-1458
▁손가락	-1459
▁쓰레기	-1460
▁없잖아	-1461
▁이러지	-1462
▁누구세요	-1463
▁멋	-1464
▁백	-1465
▁복	-1466
▁축	-1467
▁표	-1468
번호	-1469
보면	-1470
시다	-1471
왔어	-1472
▁서로	-1473
▁앞에	-1474
▁청소	-1475
▁현금	-1476
겠는데	-1477
이잖아	-1478
▁들어가	-1479
▁오랜만	-1480
▁주시면	-1481
▁하는거야	-1482
▁쓴	-1483
겨서	-1484
진짜	-1485
▁갔다	-1486
▁방법	-1487
▁어렵	-1488
▁기분이	-1489
▁도대체	-1490
▁아니지	-1491
▁아무도	-1492
▁아이고	-1493
▁이래서	-1494
▁한다고	-1495
▁안녕하세요	-1496
드리겠습니다	-1497
?.	-1498
▁걔	-1499
▁굴	-1500
▁독	-1501
▁억	-1502
▁질	-1503
▁패	-1504
는다	-1505
신지	-1506
젝트	-1507
했지	-1508
▁날씨	-1509
▁넘어	-1510
▁능력	-1511
▁없을	-1512
▁지난	-1513
▁다음주	-1514
▁말하면	-1515
▁싶어서	-1516
▁깔	-1517
▁뚱	-1518
▁뿌	-1519
▁잃	-1520
▁종	-1521
▁찔	-1522
거면	-1523
대한	-1524
레스	-1525
으러	-1526
제발	-1527
▁가면	-1528
▁너를	-1529
▁돌아	-1530
▁바꿔	-1531
▁일은	-1532
▁카페	-1533
▁회의	-1534
▁완벽해	-1535
께서	-1536
안해	-1537
장이	-1538
▁오래	-1539
▁일찍	-1540
▁주문	-1541
▁쳐맞	-1542
▁한대	-1543
었어요	-1544
으세요	-1545
▁마음에	-1546
▁못하면	-1547
▁얘들아	-1548
▁할게요	-1549
▁'	-1550
▁뜨	-1551
▁멍	-1552
▁채	-1553
▁항	-1554
라서	-1555
안녕	-1556
해보	-1557
▁갈래	-1558
▁걸로	-1559
▁교육	-1560
▁만만	-1561
▁믿어	-1562
▁비싸	-1563
▁뽑아	-1564
▁지켜	-1565
▁평생	-1566
십니다	-1567
으면서	-1568
해야지	-1569
▁당연히	-1570
▁무슨일	-1571
▁아닌가	-1572
▁아침에	-1573
▁주머니	-1574
▁프로젝트	-1575
▁벗	-1576
길래	-1577
어야	-1578
여기	-1579
졌어	-1580
할때	-1581
▁다야	-1582
▁데려	-1583
▁바쁜	-1584
▁비싼	-1585
▁안들	-1586
▁이럴	-1587
▁하냐	-1588
신가요	-1589
▁그런게	-1590
▁말하는	-1591
▁어딨어	-1592
▁최대한	-1593
▁회사가	-1594
▁무슨일이	-1595
▁이러세요	-1596
▁회사에서	-1597
▁삼	-1598
▁폰	-1599
따라	-1600
없는	-1601
▁다행	-1602
▁답답	-1603
▁돈좀	-1604
▁마무	-1605
▁바빠	-1606
▁분명	-1607
▁사정	-1608
▁시켜	-1609
▁시험	-1610
▁역시	-1611
▁올려	-1612
기전에	-1613
들한테	-1614
주말에	-1615
▁괴롭히	-1616
▁싫은데	-1617
▁싶으면	-1618
▁아버지	-1619
▁우리집	-1620
▁이러면	-1621
▁이번엔	-1622
▁합니다	-1623
▁당연하지	-1624
▁범	-1625
▁젊	-1626
나보	-1627
니가	-1628
드렸	-1629
비가	-1630
시켜	-1631
아냐	-1632
자나	-1633
▁다닐	-1634
▁비밀	-1635
▁스트	-1636
▁요새	-1637
▁운전	-1638
▁있고	-1639
▁주고	-1640
▁할게	-1641
▁할때	-1642
▁말라고	-1643
▁모르는	-1644
▁못생겼	-1645
▁안되는	-1646
▁저기요	-1647
▁저희가	-1648
▁주제에	-1649
▁중요한	-1650
었습니다	-1651
했습니다	-1652
▁없는데요	-1653
▁여자친구	-1654
▁면	-1655
▁씻	-1656
▁헛	-1657
기만	-1658
지게	-1659
지않	-1660
▁금방	-1661
▁놀러	-1662
▁되게	-1663
▁몰랐	-1664
▁배달	-1665
▁생활	-1666
▁솔직	-1667
▁이딴	-1668
▁적당	-1669
▁하셨	-1670
▁형이	-1671
선생님	-1672
할게요	-1673
▁데리고	-1674
▁먹으면	-1675
▁무서워	-1676
▁미쳤어	-1677
▁봤는데	-1678
▁살려줘	-1679
▁싶은데	-1680
▁아무리	-1681
▁예쁘다	-1682
▁알겠어요	-1683
▁꾸	-1684
▁끊	-1685
▁끼	-1686
▁떠	-1687
▁싹	-1688
▁왕	-1689
▁포	-1690
기를	-1691
다녀	-1692
봐라	-1693
수도	-1694
인이	-1695
▁가는	-1696
▁나쁜	-1697
▁맘에	-1698
▁뭐냐	-1699
▁버스	-1700
▁수정	-1701
리지마	-1702
있어요	-1703
주시면	-1704
했잖아	-1705
▁보니까	-1706
▁사람을	-1707
▁어디로	-1708
▁저녁에	-1709
▁좋은말	-1710
드릴게요	-1711
드립니다	-1712
▁죄송하면	-1713
▁죽여버릴	-1714
오겠습니다	-1715
▁리	-1716
▁쉽	-1717
▁졸	-1718
느라	-1719
먹고	-1720
있는	-1721
자네	-1722
제가	-1723
▁각오	-1724
▁계좌	-1725
▁그것	-1726
▁멍청	-1727
▁받은	-1728
▁서류	-1729
▁어이	-1730
▁임마	-1731
▁죽이	-1732
▁항상	-1733
하시면	-1734
▁냄새나	-1735
▁먹을까	-1736
▁못알아	-1737
▁어떡해	-1738
ᅲᅲ	-1739
▁넵	-1740
▁떼	-1741
▁며	-1742
▁법	-1743
▁변	-1744
▁엉	-1745
▁은	-1746
▁읽	-1747
▁체	-1748
가져	-1749
신거	-1750
어봐	-1751
어제	-1752
지를	-1753
하셨	-1754
▁00	-1755
▁ᅲᅲ	-1756
▁나올	-1757
▁노래	-1758
▁몸이	-1759
▁부분	-1760
▁사는	-1761
▁사주	-1762
▁있다	-1763
▁돌아가	-1764
▁애들아	-1765
▁친구가	-1766
▁할머니	-1767
▁스트레스	-1768
!?	-1769
▁곤	-1770
▁흑	-1771
과장	-1772
적이	-1773
한게	-1774
▁가지	-1775
▁관심	-1776
▁네네	-1777
▁말야	-1778
▁미리	-1779
▁직접	-1780
▁쳐다	-1781
새끼야	-1782
이니까	-1783
지말고	-1784
할거야	-1785
▁누구야	-1786
▁달라고	-1787
▁맛있는	-1788
▁사정이	-1789
▁싫다고	-1790
▁아빠가	-1791
▁좋아해	-1792
▁해주세요	-1793
▁늘	-1794
▁묻	-1795
▁판	-1796
겠니	-1797
나가	-1798
든가	-1799
봐요	-1800
부러	-1801
었다	-1802
이상	-1803
이프	-1804
▁건가	-1805
▁나갈	-1806
▁도움	-1807
▁사용	-1808
▁수업	-1809
▁어휴	-1810
▁인터	-1811
▁젊은	-1812
▁해라	-1813
시간에	-1814
▁거에요	-1815
▁건들지	-1816
▁다시는	-1817
▁말아줘	-1818
▁솔직히	-1819
▁싫어요	-1820
▁이번주	-1821
▁재밌어	-1822
▁죽이고	-1823
▁하니까	-1824
▁화장실	-1825
▁엄마한테	-1826
▁특	-1827
너는	-1828
럽다	-1829
부로	-1830
시키	-1831
초에	-1832
▁갚을	-1833
▁고민	-1834
▁그쪽	-1835
▁근처	-1836
▁매번	-1837
▁받고	-1838
▁사라	-1839
▁사장	-1840
▁옷이	-1841
▁이해	-1842
▁집안	-1843
▁하여	-1844
▁해줄	-1845
했어요	-1846
▁똑같이	-1847
▁마무리	-1848
▁상사가	-1849
▁생각이	-1850
▁애들이	-1851
▁잠시만	-1852
▁편하게	-1853
▁봐주세요	-1854
▁안됩니다	-1855
▁잘못했어	-1856
▁이런식으로	-1857
▁걷	-1858
▁군	-1859
▁썼	-1860
동생	-1861
라니	-1862
새로	-1863
수야	-1864
스타	-1865
할거	-1866
10,	-1867
11,	-1868
12,	-1869
13,	-1870
14,	-1871
15,	-1872
16,	-1873
17,	-1874
18,	-1875
19,	-1876
20,	-1877
21,	-1878
22,	-1879
23,	-1880
24,	-1881
25,	-1882
26,	-1883
27,	-1884
28,	-1885
29,	-1886
30,	-1887
31,	-1888
32,	-1889
33,	-1890
34,	-1891
35,	-1892
36,	-1893
37,	-1894
38,	-1895
39,	-1896
40,	-1897
41,	-1898
42,	-1899
43,	-1900
44,	-1901
45,	-1902
46,	-1903
47,	-1904
48,	-1905
49,	-1906
80,	-1907
81,	-1908
82,	-1909
83,	-1910
84,	-1911
85,	-1912
86,	-1913
87,	-1914
88,	-1915
89,	-1916
90,	-1917
91,	-1918
92,	-1919
93,	-1920
94,	-1921
95,	-1922
96,	-1923
97,	-1924
98,	-1925
99,	-1926
▁고소	-1927
▁곤란	-1928
▁꺼내	-1929
▁말귀	-1930
▁맞지	-1931
▁범죄	-1932
▁봐라	-1933
▁싶냐	-1934
▁여행	-1935
▁우린	-1936
▁자료	-1937
▁작성	-1938
▁지워	-1939
▁한테	-1940
했다고	-1941
▁같아서	-1942
▁문제가	-1943
▁있을까	-1944
▁장난해	-1945
▁적당히	-1946
▁토요일	-1947
▁그러는데	-1948
▁사람이야	-1949
▁안될까요	-1950
▁검	-1951
▁겨	-1952
▁잊	-1953
거리	-1954
리게	-1955
스크	-1956
의점	-1957
하하	-1958
50,	-1959
51,	-1960
52,	-1961
53,	-1962
54,	-1963
55,	-1964
56,	-1965
57,	-1966
58,	-1967
59,	-1968
60,	-1969
61,	-1970
62,	-1971
63,	-1972
64,	-1973
65,	-1974
66,	-1975
67,	-1976
68,	-1977
69,	-1978
70,	-1979
71,	-1980
72,	-1981
73,	-1982
74,	-1983
75,	-1984
76,	-1985
77,	-1986
78,	-1987
79,	-1988
▁괜히	-1989
▁대가	-1990
▁뚱뚱	-1991
▁말한	-1992
▁무섭	-1993
▁방금	-1994
▁분위	-1995
▁시계	-1996
▁어서	-1997
▁여보	-1998
▁지내	-1999
는다고	-2000
인가요	-2001
하시는	-2002
▁그랬어	-2003
▁못생긴	-2004
▁왜이래	-2005
▁이유가	-2006
▁하라는	-2007
▁학원비	-2008
▁안되는데	-2009
▁하지말고	-2010
러운	-2011
르고	-2012
만큼	-2013
말이	-2014
생각	-2015
여서	-2016
움직	-2017
▁글쎄	-2018
▁꼬라	-2019
▁따뜻	-2020
▁바꾸	-2021
▁언니	-2022
▁있네	-2023
▁잡아	-2024
▁재수	-2025
▁진작	-2026
었잖아	-2027
한거야	-2028
▁그정도	-2029
▁될까요	-2030
▁많아서	-2031
▁맞아야	-2032
▁왜이러	-2033
▁이런거	-2034
▁저렇게	-2035
▁편의점	-2036
▁하루만	-2037
▁할거야	-2038
▁아니라고	-2039
▁어쩌라고	-2040
▁말아주세요	-2041
▁년	-2042
▁농	-2043
▁철	-2044
것같	-2045
길동	-2046
름이	-2047
말을	-2048
먹어	-2049
이트	-2050
정신	-2051
케이	-2052
했네	-2053
▁먹을	-2054
▁며칠	-2055
▁모든	-2056
▁못할	-2057
▁바보	-2058
▁비켜	-2059
▁안내	-2060
▁어른	-2061
▁여러	-2062
▁예약	-2063
▁정보	-2064
▁지랄	-2065
▁키우	-2066
▁형님	-2067
▁후회	-2068
그러면	-2069
버리고	-2070
하려고	-2071
▁300	-2072
▁가져다	-2073
▁누군지	-2074
▁빌려주	-2075
▁빌려줄	-2076
▁아니긴	-2077
▁안하고	-2078
▁얼굴이	-2079
▁이번달	-2080
▁이상한	-2081
▁사람들이	-2082
▁아닌가요	-2083
▁지금까지	-2084
▁왜그러세요	-2085
▁깜	-2086
▁뒷	-2087
▁땡	-2088
▁뺏	-2089
▁숙	-2090
▁터	-2091
▁퍼	-2092
거나	-2093
든지	-2094
아빠	-2095
이니	-2096
인줄	-2097
00,	-2098
01,	-2099
02,	-2100
03,	-2101
04,	-2102
05,	-2103
06,	-2104
07,	-2105
08,	-2106
09,	-2107
▁고맙	-2108
▁남의	-2109
▁눈에	-2110
▁대단	-2111
▁듣고	-2112
▁봐봐	-2113
▁부러	-2114
▁부서	-2115
▁사원	-2116
▁시킨	-2117
▁싶은	-2118
▁않은	-2119
▁않을	-2120
▁옆에	-2121
▁우와	-2122
▁죽자	-2123
거든요	-2124
새끼가	-2125
있는데	-2126
▁그래야	-2127
▁다니는	-2128
▁되는거	-2129
▁말대답	-2130
▁못하는	-2131
▁안될까	-2132
▁애초에	-2133
▁어머님	-2134
하시네요	-2135
▁사회생활	-2136
▁언제까지	-2137
▁친구끼리	-2138
▁돌려주세요	-2139
▁마지막이야	-2140
▁낳	-2141
▁로	-2142
▁악	-2143
▁쯧	-2144
▁핑	-2145
▁훔	-2146
라마	-2147
리기	-2148
무실	-2149
없이	-2150
▁계산	-2151
▁나만	-2152
▁내꺼	-2153
▁모른	-2154
▁살고	-2155
▁소개	-2156
▁어딜	-2157
▁올라	-2158
▁잘해	-2159
▁할까	-2160
거라고	-2161
더라고	-2162
▁그동안	-2163
▁시간에	-2164
▁어이가	-2165
▁좋은데	-2166
▁추천해	-2167
▁부모님이	-2168
▁죄송한데	-2169
▁내놓으라고	-2170
▁멈	-2171
▁충	-2172
되면	-2173
말씀	-2174
줘요	-2175
▁가끔	-2176
▁가봐	-2177
▁건강	-2178
▁고통	-2179
▁드리	-2180
▁많은	-2181
▁빠져	-2182
▁설마	-2183
▁수술	-2184
▁스타	-2185
▁안그	-2186
▁안에	-2187
▁저런	-2188
▁제출	-2189
▁기분나	-2190
▁못하고	-2191
▁안하면	-2192
▁원하는	-2193
▁이대리	-2194
▁인터넷	-2195
▁잠깐만	-2196
▁하려고	-2197
▁부탁이야	-2198
▁아닙니까	-2199
▁죄송하지만	-2200
▁레	-2201
▁쥐	-2202
▁푹	-2203
구로	-2204
달라	-2205
수씨	-2206
시지	-2207
야해	-2208
인턴	-2209
▁감히	-2210
▁갚아	-2211
▁동네	-2212
▁동안	-2213
▁무사	-2214
▁번호	-2215
▁사다	-2216
▁아님	-2217
▁아휴	-2218
▁왕따	-2219
▁용서	-2220
▁우습	-2221
▁웃긴	-2222
▁가세요	-2223
▁그러냐	-2224
▁끝까지	-2225
▁머리가	-2226
▁와이프	-2227
▁이것도	-2228
▁일부러	-2229
▁있나요	-2230
▁지나치	-2231
▁친구야	-2232
는거에요	-2233
▁있어서요	-2234
▁덜	-2235
▁윗	-2236
▁쪼	-2237
▁튀	-2238
격이	-2239
데요	-2240
모님	-2241
무슨	-2242
식이	-2243
안돼	-2244
어머	-2245
와라	-2246
자가	-2247
주임	-2248
▁가고	-2249
▁가능	-2250
▁관리	-2251
▁나대	-2252
▁늦게	-2253
▁맞자	-2254
▁뭔가	-2255
▁뻔뻔	-2256
▁선택	-2257
▁손에	-2258
▁위험	-2259
▁일처	-2260
▁저리	-2261
▁전부	-2262
▁주변	-2263
▁참나	-2264
▁축하	-2265
▁한다	-2266
▁할래	-2267
때까지	-2268
말라고	-2269
▁가족들	-2270
▁나와서	-2271
▁냄새가	-2272
▁닥치고	-2273
▁생겨서	-2274
▁아가씨	-2275
▁안그래	-2276
▁안들어	-2277
▁애들은	-2278
▁제정신	-2279
▁죽고싶어	-2280
▁짜증나게	-2281
▁낮	-2282
▁짧	-2283
▁찢	-2284
▁홍	-2285
▁흐	-2286
나게	-2287
나서	-2288
따박	-2289
없네	-2290
오빠	-2291
지면	-2292
할까	-2293
▁그따	-2294
▁급한	-2295
▁나빠	-2296
▁뒤질	-2297
▁따박	-2298
▁만드	-2299
▁몇번	-2300
▁모두	-2301
▁보이	-2302
▁소중	-2303
▁아내	-2304
▁않고	-2305
▁한거	-2306
겠지만	-2307
다고요	-2308
해서요	-2309
▁500	-2310
▁더러워	-2311
▁똑같은	-2312
▁몰라서	-2313
▁시끄럽	-2314
▁싸가지	-2315
▁이걸로	-2316
▁준비해	-2317
▁지금은	-2318
▁하는게	-2319
▁함부로	-2320
▁다음부터	-2321
▁따박따박	-2322
▁처음부터	-2323
▁죽여버린다	-2324
▁부탁드립니다	-2325
▁색	-2326
▁썩	-2327
▁옮	-2328
기고	-2329
는가	-2330
되는	-2331
빨리	-2332
어도	-2333
올게	-2334
있지	-2335
준다	-2336
▁거래	-2337
▁기사	-2338
▁남친	-2339
▁도망	-2340
▁딸이	-2341
▁마련	-2342
▁말은	-2343
▁목걸	-2344
▁믿고	-2345
▁받았	-2346
▁부당	-2347
▁쉽게	-2348
▁씨발	-2349
▁알면	-2350
▁없나	-2351
▁예민	-2352
▁예쁜	-2353
▁이사	-2354
▁인간	-2355
▁입사	-2356
▁자주	-2357
▁찔러	-2358
▁최선	-2359
▁한달	-2360
등학교	-2361
미안해	-2362
아버지	-2363
????	-2364
▁거잖아	-2365
▁그치만	-2366
▁끝나고	-2367
▁내놔라	-2368
▁너네집	-2369
▁부탁해	-2370
▁알아요	-2371
▁어려운	-2372
▁일이야	-2373
▁죽는다	-2374
▁하여튼	-2375
▁헤어져	-2376
오늘따라	-2377
▁그렇다고	-2378
▁돌려줄게	-2379
▁미안한데	-2380
▁이러시면	-2381
▁회사생활	-2382
▁그러는거야	-2383
▁말씀이신지	-2384
▁무슨소리야	-2385
▁신고할거야	-2386
▁아니라니까	-2387
▁높	-2388
▁덕	-2389
▁든	-2390
▁딴	-2391
▁밖	-2392
▁밝	-2393
▁콜	-2394
가봐	-2395
년이	-2396
라리	-2397
보니	-2398
봐도	-2399
우면	-2400
이게	-2401
이팅	-2402
일은	-2403
하긴	-2404
학생	-2405
한번	-2406
▁건드	-2407
▁그딴	-2408
▁너의	-2409
▁놓고	-2410
▁다신	-2411
▁듣기	-2412
▁들었	-2413
▁뛰어	-2414
▁말만	-2415
▁모를	-2416
▁바쁘	-2417
▁사기	-2418
▁사오	-2419
▁어쨌	-2420
▁왔어	-2421
▁이젠	-2422
▁잘됐	-2423
▁취소	-2424
▁핑계	-2425
사장님	-2426
없어요	-2427
준다고	-2428
▁200	-2429
▁되는데	-2430
▁말하지	-2431
▁목소리	-2432
▁부럽다	-2433
▁약속이	-2434
▁어디가	-2435
▁일로와	-2436
▁좋아서	-2437
▁차라리	-2438
▁마음대로	-2439
▁사람한테	-2440
▁어떻게든	-2441
▁퇴근하고	-2442
▁잘못했어요	-2443
▁권	-2444
▁땐	-2445
▁라	-2446
▁짤	-2447
▁컴	-2448
래요	-2449
렸어	-2450
였어	-2451
으시	-2452
이터	-2453
주지	-2454
질러	-2455
하실	-2456
할래	-2457
했냐	-2458
▁그지	-2459
▁깨끗	-2460
▁내용	-2461
▁닥쳐	-2462
▁도둑	-2463
▁똑같	-2464
▁밤에	-2465
▁싫다	-2466
▁얘가	-2467
▁오후	-2468
▁이혼	-2469
▁입을	-2470
▁잔말	-2471
▁전달	-2472
▁주는	-2473
▁죽기	-2474
▁쪽팔	-2475
▁찍어	-2476
▁한국	-2477
건데요	-2478
것같아	-2479
겠다는	-2480
린다고	-2481
하시고	-2482
▁건가요	-2483
▁그러시	-2484
▁눈치가	-2485
▁들어오	-2486
▁들어온	-2487
▁맞잖아	-2488
▁먹으러	-2489
▁분위기	-2490
▁사무실	-2491
▁아는데	-2492
▁어디야	-2493
▁여기가	-2494
▁웃기네	-2495
▁이번만	-2496
▁제가요	-2497
▁했다고	-2498
▁1000	-2499
알겠습니다	-2500
▁녹	-2501
▁닮	-2502
▁땅	-2503
▁베	-2504
그런	-2505
들고	-2506
말야	-2507
머리	-2508
볼래	-2509
빌려	-2510
아아	-2511
째야	-2512
하러	-2513
.!!	-2514
▁가까	-2515
▁꺼지	-2516
▁남았	-2517
▁둘이	-2518
▁맞는	-2519
▁먹는	-2520
▁뭐래	-2521
▁배가	-2522
▁배고	-2523
▁빌리	-2524
▁사귀	-2525
▁써야	-2526
▁아나	-2527
▁알어	-2528
▁없냐	-2529
▁에휴	-2530
▁열받	-2531
▁웃겨	-2532
▁임신	-2533
▁치마	-2534
▁팔아	-2535
▁휴대	-2536
겠네요	-2537
어야지	-2538
을거야	-2539
입니까	-2540
줬더니	-2541
줬잖아	-2542
▁가져오	-2543
▁거예요	-2544
▁겁니다	-2545
▁그러는	-2546
▁기회를	-2547
▁더이상	-2548
▁따라와	-2549
▁먹었어	-2550
▁뭐하는	-2551
▁받아서	-2552
▁오늘도	-2553
▁오빠가	-2554
▁일어나	-2555
▁재밌게	-2556
▁친구들	-2557
▁안되겠다	-2558
▁이따위로	-2559
▁주머니에	-2560
▁죽여버리	-2561
▁남자친구랑	-2562
▁시키는대로	-2563
▁규	-2564
▁낼	-2565
▁탈	-2566
거같	-2567
된다	-2568
디어	-2569
때는	-2570
리야	-2571
말아	-2572
살려	-2573
선생	-2574
스트	-2575
있냐	-2576
천원	-2577
쳐서	-2578
카락	-2579
▁.?	-2580
▁가라	-2581
▁간다	-2582
▁결정	-2583
▁깔끔	-2584
▁나서	-2585
▁되면	-2586
▁뒤져	-2587
▁맞춰	-2588
▁보러	-2589
▁봐도	-2590
▁생기	-2591
▁손목	-2592
▁쓰면	-2593
▁오면	-2594
▁움직	-2595
▁이기	-2596
▁자신	-2597
▁찢어	-2598
▁착각	-2599
▁추가	-2600
▁힘든	-2601
보라고	-2602
부장님	-2603
하면서	-2604
▁가는데	-2605
▁그러니	-2606
▁근처에	-2607
▁나가서	-2608
▁내려놔	-2609
▁드라마	-2610
▁못하게	-2611
▁생각을	-2612
▁선배님	-2613
▁어려워	-2614
▁이리와	-2615
▁해줄게	-2616
▁휴가를	-2617
▁말대꾸야	-2618
▁안그러면	-2619
▁이리와봐	-2620
▁좋은말로	-2621
▁진정하세요	-2622
▁꽤	-2623
▁늙	-2624
▁디	-2625
▁밑	-2626
갈게	-2627
거기	-2628
그만	-2629
나는	-2630
려나	-2631
성이	-2632
신데	-2633
아지	-2634
일을	-2635
자는	-2636
지야	-2637
진다	-2638
튜브	-2639
평가	-2640
▁50	-2641
▁가난	-2642
▁가르	-2643
▁거의	-2644
▁계약	-2645
▁계획	-2646
▁구매	-2647
▁근무	-2648
▁놀아	-2649
▁다닌	-2650
▁되나	-2651
▁뒤에	-2652
▁마시	-2653
▁맞다	-2654
▁모양	-2655
▁뭐해	-2656
▁밥먹	-2657
▁봐주	-2658
▁사야	-2659
▁신기	-2660
▁야야	-2661
▁어쩐	-2662
▁어쭈	-2663
▁억울	-2664
▁여친	-2665
▁이쁜	-2666
▁작업	-2667
▁잘라	-2668
▁줘야	-2669
▁틀린	-2670
▁해고	-2671
▁힘내	-2672
나보네	-2673
보인다	-2674
사람이	-2675
이라서	-2676
하다는	-2677
▁갚을게	-2678
▁거기서	-2679
▁다름이	-2680
▁데이트	-2681
▁들었어	-2682
▁맞을래	-2683
▁모르고	-2684
▁무서운	-2685
▁미친놈	-2686
▁받아야	-2687
▁빌려간	-2688
▁사람은	-2689
▁아들이	-2690
▁여기요	-2691
▁정신을	-2692
▁조심해	-2693
▁찾아가	-2694
▁하라면	-2695
▁하시면	-2696
▁해보자	-2697
▁힘들게	-2698
있습니다	-2699
하지말고	-2700
▁같은데요	-2701
▁머리카락	-2702
▁생각해서	-2703
▁시끄러워	-2704
▁아닌데요	-2705
▁않습니까	-2706
▁어쩔건데	-2707
▁오랜만에	-2708
▁좋아하는	-2709
▁학교에서	-2710
▁했습니다	-2711
▁그만하세요	-2712
▁낸	-2713
▁슬	-2714
▁십	-2715
▁암	-2716
▁효	-2717
▁흥	-2718
가면	-2719
갔다	-2720
그게	-2721
대가	-2722
렸네	-2723
쇼핑	-2724
원이	-2725
준거	-2726
▁같네	-2727
▁겨우	-2728
▁구라	-2729
▁내말	-2730
▁넣어	-2731
▁농담	-2732
▁누나	-2733
▁다르	-2734
▁덕분	-2735
▁멀쩡	-2736
▁멈춰	-2737
▁못차	-2738
▁비슷	-2739
▁여긴	-2740
▁진심	-2741
▁짓을	-2742
▁차가	-2743
▁한잔	-2744
▁합의	-2745
건가요	-2746
셔야죠	-2747
친구야	-2748
하겠어	-2749
▁그런건	-2750
▁돈으로	-2751
▁되겠네	-2752
▁마스크	-2753
▁목걸이	-2754
▁보이지	-2755
▁부르셨	-2756
▁아파트	-2757
▁안되지	-2758
▁안좋아	-2759
▁엄마는	-2760
▁업무가	-2761
▁이러는	-2762
▁이쁘다	-2763
▁자식이	-2764
▁잘못한	-2765
▁중이야	-2766
▁지난번	-2767
▁필요해	-2768
▁하셔서	-2769
▁하잖아	-2770
줄테니까	-2771
▁가져간다	-2772
▁내일부터	-2773
▁다행이다	-2774
▁안되겠네	-2775
▁있으니까	-2776
▁걍	-2777
▁닦	-2778
▁던	-2779
▁향	-2780
기네	-2781
나면	-2782
들을	-2783
부름	-2784
비스	-2785
었지	-2786
전히	-2787
정말	-2788
▁귀찮	-2789
▁기어	-2790
▁내고	-2791
▁놀리	-2792
▁따로	-2793
▁딸은	-2794
▁때는	-2795
▁만날	-2796
▁많네	-2797
▁모자	-2798
▁보지	-2799
▁시비	-2800
▁시정	-2801
▁씻고	-2802
▁아네	-2803
▁아픈	-2804
▁앉아	-2805
▁엉망	-2806
▁오는	-2807
▁자랑	-2808
▁주차	-2809
▁창피	-2810
▁최고	-2811
▁출발	-2812
▁평소	-2813
▁허락	-2814
버릴까	-2815
으려고	-2816
으시면	-2817
이라는	-2818
이라니	-2819
하겠다	-2820
▁것이지	-2821
▁급하게	-2822
▁뒤질래	-2823
▁맞아요	-2824
▁문제야	-2825
▁얼굴도	-2826
▁우리도	-2827
▁저리가	-2828
▁저희는	-2829
▁하시는	-2830
▁한거야	-2831
▁휴대폰	-2832
여보세요	-2833
하십니까	-2834
▁너때문에	-2835
▁보내줄게	-2836
▁생각하고	-2837
▁시끄럽고	-2838
▁안된다고	-2839
▁있을까요	-2840
▁보내주세요	-2841
▁잘못했습니다	-2842
▁끌	-2843
▁낫	-2844
▁떡	-2845
▁쏴	-2846
▁택	-2847
▁팩	-2848
가고	-2849
개월	-2850
겠나	-2851
당신	-2852
도가	-2853
리카	-2854
받고	-2855
봤자	-2856
아닌	-2857
안에	-2858
쳤어	-2859
치는	-2860
▁갈게	-2861
▁그날	-2862
▁기본	-2863
▁김치	-2864
▁너나	-2865
▁놈이	-2866
▁될까	-2867
▁마셔	-2868
▁방해	-2869
▁배워	-2870
▁보낼	-2871
▁시에	-2872
▁아닐	-2873
▁안갚	-2874
▁안드	-2875
▁오지	-2876
▁올리	-2877
▁잃어	-2878
▁입어	-2879
▁좋고	-2880
▁주에	-2881
▁진행	-2882
▁쯧쯧	-2883
▁차려	-2884
▁치킨	-2885
▁특별	-2886
▁하니	-2887
까지는	-2888
나봐요	-2889
봤는데	-2890
하신거	-2891
▁김사원	-2892
▁대가리	-2893
▁말씀을	-2894
▁말이지	-2895
▁미쳤나	-2896
▁배우고	-2897
▁보내줘	-2898
▁선배가	-2899
▁아니냐	-2900
▁아이가	-2901
▁어려울	-2902
▁유튜브	-2903
▁이번이	-2904
▁이정도	-2905
▁일이나	-2906
▁입니다	-2907
▁잘하는	-2908
▁좋겠어	-2909
▁죽으면	-2910
▁진정해	-2911
▁최선을	-2912
▁환불해	-2913
▁회사를	-2914
▁그래그래	-2915
▁신고하기	-2916
▁싫으니까	-2917
▁없다니까	-2918
▁없으니까	-2919
▁죽고싶냐	-2920
▁죽일거야	-2921
보겠습니다	-2922
안녕하세요	-2923
▁빌려달라고	-2924
▁삭	-2925
▁윤	-2926
던거	-2927
뜨려	-2928
라야	-2929
받아	-2930
부턴	-2931
셨어	-2932
없고	-2933
영상	-2934
오냐	-2935
오는	-2936
원에	-2937
웠어	-2938
을때	-2939
이어	-2940
이에	-2941
일로	-2942
한지	-2943
희씨	-2944
▁가슴	-2945
▁꼬박	-2946
▁나면	-2947
▁넘겨	-2948
▁눈이	-2949
▁다녔	-2950
▁만든	-2951
▁만큼	-2952
▁먹었	-2953
▁먹자	-2954
▁먹지	-2955
▁무엇	-2956
▁보니	-2957
▁봐야	-2958
▁불만	-2959
▁상대	-2960
▁쉬어	-2961
▁시발	-2962
▁쓰는	-2963
▁아깝	-2964
▁아끼	-2965
▁어느	-2966
▁어딘	-2967
▁예뻐	-2968
▁우유	-2969
▁의심	-2970
▁이뻐	-2971
▁제품	-2972
▁좋았	-2973
▁찌질	-2974
▁치료	-2975
▁흑흑	-2976
드려요	-2977
라고요	-2978
왔는데	-2979
▁가족은	-2980
▁각오해	-2981
▁내놔봐	-2982
▁다같이	-2983
▁다녀와	-2984
▁다니지	-2985
▁때마다	-2986
▁마음이	-2987
▁병원비	-2988
▁사과해	-2989
▁사라져	-2990
▁사생활	-2991
▁시끄러	-2992
▁심하다	-2993
▁아니다	-2994
▁안보여	-2995
▁안주면	-2996
▁않아요	-2997
▁알겠지	-2998
▁알아듣	-2999
▁우리는	-3000
▁일하는	-3001
▁정신이	-3002
▁차장님	-3003
▁하고싶	-3004
!!!!!	-3005
▁빌려주면	-3006
▁좋을거야	-3007
▁줄테니까	-3008
▁꿀	-3009
▁둬	-3010
▁잤	-3011
▁침	-3012
▁테	-3013
건지	-3014
그럼	-3015
난다	-3016
달에	-3017
두고	-3018
라구	-3019
려요	-3020
보게	-3021
보지	-3022
사가	-3023
줄께	-3024
줄수	-3025
트북	-3026
퓨터	-3027
하죠	-3028
▁가정	-3029
▁거울	-3030
▁거절	-3031
▁겁나	-3032
▁결제	-3033
▁고졸	-3034
▁고치	-3035
▁꼬리	-3036
▁담당	-3037
▁대충	-3038
▁동기	-3039
▁동료	-3040
▁만났	-3041
▁말했	-3042
▁망치	-3043
▁뭔지	-3044
▁발표	-3045
▁봐서	-3046
▁불렀	-3047
▁불법	-3048
▁불쾌	-3049
▁살게	-3050
▁설명	-3051
▁쇼핑	-3052
▁시켰	-3053
▁어어	-3054
▁역겨	-3055
▁으악	-3056
▁의견	-3057
▁일만	-3058
▁일정	-3059
▁주라	-3060
▁지옥	-3061
▁지키	-3062
▁쪼잔	-3063
▁참석	-3064
▁천원	-3065
▁체육	-3066
▁큰일	-3067
▁피부	-3068
리카노	-3069
릴거야	-3070
말씀이	-3071
없는데	-3072
▁가만안	-3073
▁그만둬	-3074
▁나쁘게	-3075
▁되나요	-3076
▁때까지	-3077
▁마시고	-3078
▁만나서	-3079
▁몰라요	-3080
▁살려주	-3081
▁상황이	-3082
▁서비스	-3083
▁소리를	-3084
▁아무튼	-3085
▁아세요	-3086
▁안되죠	-3087
▁애들도	-3088
▁여기에	-3089
▁오케이	-3090
▁자기가	-3091
▁진짜야	-3092
▁친구랑	-3093
▁파이팅	-3094
▁하나만	-3095
▁헛소리	-3096
메리카노	-3097
셨잖아요	-3098
▁그렇구나	-3099
▁말씀해주	-3100
▁부모님은	-3101
▁생각하지	-3102
▁잘못한거	-3103
▁할아버지	-3104
▁도와주세요	-3105
▁말씀이세요	-3106
▁아니잖아요	-3107
▁어렵습니다	-3108
▁잘못했는데	-3109
!!!!!!!!	-3110
▁값	-3111
▁긴	-3112
▁납	-3113
▁똥	-3114
▁뜯	-3115
▁뜻	-3116
▁빡	-3117
▁센	-3118
▁앗	-3119
▁옥	-3120
▁육	-3121
▁접	-3122
그건	-3123
내일	-3124
녀석	-3125
당무	-3126
라인	-3127
랬지	-3128
력이	-3129
르면	-3130
른다	-3131
만에	-3132
물이	-3133
보여	-3134
보이	-3135
시락	-3136
아이	-3137
야야	-3138
었네	-3139
이래	-3140
있다	-3141
장을	-3142
조건	-3143
줬어	-3144
▁거슬	-3145
▁기간	-3146
▁나눠	-3147
▁내리	-3148
▁돈만	-3149
▁뒤지	-3150
▁리뷰	-3151
▁마실	-3152
▁매점	-3153
▁못가	-3154
▁무릎	-3155
▁벌어	-3156
▁보게	-3157
▁보냈	-3158
▁볼까	-3159
▁비행	-3160
▁산책	-3161
▁생신	-3162
▁성적	-3163
▁순간	-3164
▁신상	-3165
▁아껴	-3166
▁아시	-3167
▁아아	-3168
▁아유	-3169
▁안통	-3170
▁않냐	-3171
▁유명	-3172
▁음료	-3173
▁이틀	-3174
▁점수	-3175
▁좋네	-3176
▁참아	-3177
▁책상	-3178
▁치고	-3179
▁텐데	-3180
▁편해	-3181
▁한데	-3182
▁허튼	-3183
▁확실	-3184
▁환자	-3185
고싶어	-3186
그렇게	-3187
기라도	-3188
닙니다	-3189
다니깐	-3190
되는데	-3191
줄알아	-3192
▁가진거	-3193
▁결혼식	-3194
▁그런지	-3195
▁기다리	-3196
▁꼬라지	-3197
▁나보고	-3198
▁돼지야	-3199
▁된다고	-3200
▁됩니다	-3201
▁만나자	-3202
▁맛있게	-3203
▁맛있어	-3204
▁모르게	-3205
▁무조건	-3206
▁바빠서	-3207
▁박대리	-3208
▁보고싶	-3209
▁사람도	-3210
▁식으로	-3211
▁아니니	-3212
▁알려주	-3213
▁알려줘	-3214
▁얘기를	-3215
▁있어야	-3216
▁좋더라	-3217
▁좋은거	-3218
▁죄송할	-3219
▁죽을래	-3220
▁지나가	-3221
▁집으로	-3222
▁쳐맞고	-3223
▁컴퓨터	-3224
▁학교에	-3225
▁홍당무	-3226
봐야겠다	-3227
▁그것만은	-3228
▁그렇지만	-3229
▁기다리고	-3230
▁꺼지라고	-3231
▁무슨소리	-3232
▁신고하면	-3233
▁애들한테	-3234
▁장난하냐	-3235
▁헤어지면	-3236
▁힘들어요	-3237
▁괜찮습니다	-3238
▁그만하라고	-3239
▁무슨말이야	-3240
▁이딴식으로	-3241
▁기다려주세요	-3242
▁드리겠습니다	-3243
▁신고할거에요	-3244
▁해보겠습니다	-3245
▁시정하겠습니다	-3246
▁띄	-3247
▁링	-3248
▁엥	-3249
▁옛	-3250
▁푸	-3251
갔어	-3252
나고	-3253
내고	-3254
되지	-3255
둥이	-3256
로나	-3257
먹을	-3258
병신	-3259
야돼	-3260
어날	-3261
으셨	-3262
으신	-3263
을거	-3264
있나	-3265
정보	-3266
죄로	-3267
체가	-3268
치게	-3269
.??	-3270
▁!!	-3271
▁공짜	-3272
▁금액	-3273
▁대해	-3274
▁독약	-3275
▁됐지	-3276
▁된다	-3277
▁두번	-3278
▁들리	-3279
▁링크	-3280
▁맞기	-3281
▁몰래	-3282
▁무리	-3283
▁밥도	-3284
▁보다	-3285
▁부터	-3286
▁빌린	-3287
▁사업	-3288
▁숙제	-3289
▁쉬고	-3290
▁시원	-3291
▁열어	-3292
▁옛날	-3293
▁오냐	-3294
▁외국	-3295
▁있던	-3296
▁있죠	-3297
▁잠을	-3298
▁치워	-3299
▁친한	-3300
▁카톡	-3301
▁키워	-3302
▁털어	-3303
▁판단	-3304
▁포기	-3305
▁표정	-3306
▁하게	-3307
▁하긴	-3308
▁하늘	-3309
▁할거	-3310
▁할수	-3311
▁효과	-3312
겁니까	-3313
보니까	-3314
볼게요	-3315
았는데	-3316
었으면	-3317
하네요	-3318
해볼게	-3319
▁겁니까	-3320
▁계좌로	-3321
▁그대로	-3322
▁그러다	-3323
▁넘어가	-3324
▁노트북	-3325
▁대학교	-3326
▁돈없어	-3327
▁동영상	-3328
▁됐어요	-3329
▁들어왔	-3330
▁목숨은	-3331
▁물어보	-3332
▁사진을	-3333
▁생겼어	-3334
▁세상에	-3335
▁심부름	-3336
▁아닌거	-3337
▁알잖아	-3338
▁어울리	-3339
▁온라인	-3340
▁웃긴다	-3341
▁위해서	-3342
▁좋잖아	-3343
▁지금도	-3344
▁진짜로	-3345
▁표정이	-3346
▁합니까	-3347
▁그런데요	-3348
▁다른사람	-3349
▁맞습니다	-3350
▁부장님이	-3351
▁불쌍하다	-3352
▁여보세요	-3353
▁원하는게	-3354
▁일로와봐	-3355
▁잠시만요	-3356
▁점심시간	-3357
▁정신차려	-3358
▁정신차리	-3359
▁죽는거야	-3360
▁필요해서	-3361
▁했잖아요	-3362
▁그런식으로	-3363
▁아메리카노	-3364
▁왜이러세요	-3365
▁노력하겠습니다	-3366
▁논	-3367
▁님	-3368
▁듯	-3369
▁블	-3370
▁송	-3371
▁얌	-3372
▁쫄	-3373
▁클	-3374
▁탓	-3375
가야	-3376
교육	-3377
까봐	-3378
나도	-3379
내로	-3380
드린	-3381
라이	-3382
뭐야	-3383
미안	-3384
보기	-3385
분이	-3386
사진	-3387
순히	-3388
싫어	-3389
애가	-3390
어울	-3391
없다	-3392
주에	-3393
▁??	-3394
▁가시	-3395
▁결과	-3396
▁고개	-3397
▁골라	-3398
▁구경	-3399
▁군대	-3400
▁그땐	-3401
▁그리	-3402
▁들려	-3403
▁때문	-3404
▁반지	-3405
▁받는	-3406
▁보상	-3407
▁복사	-3408
▁서울	-3409
▁수준	-3410
▁심한	-3411
▁심해	-3412
▁않나	-3413
▁어땠	-3414
▁어릴	-3415
▁없애	-3416
▁연습	-3417
▁오백	-3418
▁올린	-3419
▁위해	-3420
▁은행	-3421
▁좀만	-3422
▁주신	-3423
▁주의	-3424
▁죽은	-3425
▁지가	-3426
▁집이	-3427
▁차리	-3428
▁해와	-3429
▁했냐	-3430
▁했다	-3431
고싶냐	-3432
과장님	-3433
났는데	-3434
스러워	-3435
시는거	-3436
았다고	-3437
이대리	-3438
▁경찰서	-3439
▁괴롭혀	-3440
▁그거야	-3441
▁더럽게	-3442
▁도시락	-3443
▁만원만	-3444
▁말해봐	-3445
▁맘대로	-3446
▁먹을래	-3447
▁멍청한	-3448
▁미쳤냐	-3449
▁보세요	-3450
▁비싸게	-3451
▁아니죠	-3452
▁아파서	-3453
▁안가져	-3454
▁안되요	-3455
▁없으니	-3456
▁예쁘게	-3457
▁이러고	-3458
▁파스타	-3459
▁하면서	-3460
▁했어요	-3461
▁했으면	-3462
겠습니까	-3463
다니까요	-3464
아닙니다	-3465
▁건들지마	-3466
▁놀리지마	-3467
▁대단하다	-3468
▁말이에요	-3469
▁말하는데	-3470
▁미안해요	-3471
▁아침부터	-3472
▁이번에도	-3473
▁이새끼야	-3474
▁부르셨습니까	-3475
▁환불해주세요	-3476
▁굳	-3477
▁낙	-3478
▁냈	-3479
▁셔	-3480
▁씹	-3481
▁얻	-3482
▁워	-3483
▁징	-3484
▁쫓	-3485
▁쳤	-3486
▁투	-3487
꼬박	-3488
너가	-3489
년아	-3490
렸다	-3491
르네	-3492
마디	-3493
만한	-3494
미씨	-3495
받은	-3496
선물	-3497
십쇼	-3498
았나	-3499
어디	-3500
여행	-3501
연씨	-3502
오지	-3503
우야	-3504
이란	-3505
이봐	-3506
졌다	-3507
치지	-3508
친다	-3509
회사	-3510
▁간단	-3511
▁같지	-3512
▁거라	-3513
▁것만	-3514
▁경고	-3515
▁골프	-3516
▁공개	-3517
▁과장	-3518
▁귀엽	-3519
▁내돈	-3520
▁눈깔	-3521
▁눈을	-3522
▁느껴	-3523
▁됐다	-3524
▁라면	-3525
▁말자	-3526
▁맛집	-3527
▁맡겨	-3528
▁먹은	-3529
▁멋지	-3530
▁메뉴	-3531
▁미루	-3532
▁벌레	-3533
▁분이	-3534
▁불어	-3535
▁사서	-3536
▁성격	-3537
▁성공	-3538
▁세탁	-3539
▁수고	-3540
▁수행	-3541
▁식당	-3542
▁써서	-3543
▁씨는	-3544
▁아드	-3545
▁안맞	-3546
▁안쓰	-3547
▁않는	-3548
▁애인	-3549
▁어찌	-3550
▁예의	-3551
▁예전	-3552
▁와라	-3553
▁우선	-3554
▁위치	-3555
▁유전	-3556
▁인턴	-3557
▁자격	-3558
▁저러	-3559
▁정해	-3560
▁주소	-3561
▁주지	-3562
▁준다	-3563
▁지은	-3564
▁참고	-3565
▁출장	-3566
▁타고	-3567
▁행복	-3568
것이지	-3569
만원이	-3570
었다고	-3571
에서는	-3572
오세요	-3573
이라며	-3574
줄거야	-3575
줘야해	-3576
팀장님	-3577
하도록	-3578
해줄게	-3579
▁가봐야	-3580
▁가족이	-3581
▁고맙다	-3582
▁그러네	-3583
▁그런말	-3584
▁그만두	-3585
▁나가자	-3586
▁나오는	-3587
▁다른데	-3588
▁되는지	-3589
▁때리지	-3590
▁말인데	-3591
▁머라고	-3592
▁뭐하냐	-3593
▁바쁜데	-3594
▁받은거	-3595
▁병원에	-3596
▁보내면	-3597
▁사실을	-3598
▁사줄게	-3599
▁살려만	-3600
▁생각만	-3601
▁소리가	-3602
▁신입이	-3603
▁없는거	-3604
▁없었어	-3605
▁우리랑	-3606
▁이것좀	-3607
▁있겠어	-3608
▁있는지	-3609
▁있었어	-3610
▁있으니	-3611
▁자식아	-3612
▁좋아요	-3613
▁중요해	-3614
▁줘야지	-3615
▁진작에	-3616
▁코로나	-3617
▁화나게	-3618
▁휴가는	-3619
왔습니다	-3620
했는데요	-3621
▁거지새끼	-3622
▁건드리지	-3623
▁그래야지	-3624
▁그러고도	-3625
▁그러시죠	-3626
▁꼬박꼬박	-3627
▁맞는데요	-3628
▁모르겠어	-3629
▁못생긴게	-3630
▁뭐라고요	-3631
▁뭐라구요	-3632
▁미안하네	-3633
▁미안하다	-3634
▁부모님도	-3635
▁비밀번호	-3636
▁사정이고	-3637
▁상관이야	-3638
▁선생님이	-3639
▁이러니까	-3640
▁이새끼가	-3641
▁인터넷에	-3642
▁조심해라	-3643
▁주십시오	-3644
▁필요없어	-3645
▁그러십니까	-3646
▁곱	-3647
▁냅	-3648
▁빈	-3649
▁샤	-3650
▁쌍	-3651
▁짐	-3652
▁퍽	-3653
▁폐	-3654
▁흘	-3655
거라	-3656
고객	-3657
기나	-3658
기에	-3659
내놔	-3660
너무	-3661
네가	-3662
사장	-3663
소문	-3664
수증	-3665
스로	-3666
심해	-3667
았네	-3668
영씨	-3669
오고	-3670
이러	-3671
잘못	-3672
장애	-3673
지지	-3674
직원	-3675
집에	-3676
찌개	-3677
치네	-3678
할수	-3679
▁같다	-3680
▁걸레	-3681
▁것이	-3682
▁관계	-3683
▁굳이	-3684
▁끝날	-3685
▁나야	-3686
▁넘기	-3687
▁누굴	-3688
▁더럽	-3689
▁동의	-3690
▁돼요	-3691
▁되어	-3692
▁드렸	-3693
▁등록	-3694
▁등산	-3695
▁떡볶	-3696
▁만약	-3697
▁만족	-3698
▁말든	-3699
▁뭐요	-3700
▁믿을	-3701
▁발로	-3702
▁배신	-3703
▁버려	-3704
▁봐줘	-3705
▁살지	-3706
▁속이	-3707
▁손을	-3708
▁손이	-3709
▁안됐	-3710
▁알겠	-3711
▁어깨	-3712
▁여유	-3713
▁옥상	-3714
▁옷을	-3715
▁유포	-3716
▁자살	-3717
▁잘난	-3718
▁잡고	-3719
▁장소	-3720
▁저를	-3721
▁적이	-3722
▁졸업	-3723
▁죽게	-3724
▁취미	-3725
▁하던	-3726
같으면	-3727
그래도	-3728
는데도	-3729
시간이	-3730
시까지	-3731
시네요	-3732
아니라	-3733
야겠어	-3734
우니까	-3735
이번에	-3736
있어서	-3737
하던데	-3738
하시죠	-3739
한테도	-3740
▁가까이	-3741
▁가야지	-3742
▁강아지	-3743
▁거니까	-3744
▁공부도	-3745
▁금요일	-3746
▁너보다	-3747
▁다니면	-3748
▁두고봐	-3749
▁많은데	-3750
▁많잖아	-3751
▁말귀를	-3752
▁말로만	-3753
▁먹어서	-3754
▁보이냐	-3755
▁뿐이야	-3756
▁사모님	-3757
▁성적이	-3758
▁아시죠	-3759
▁안된다	-3760
▁안했어	-3761
▁않겠어	-3762
▁않았어	-3763
▁않을까	-3764
▁약속을	-3765
▁어땠어	-3766
▁어울려	-3767
▁어쩌피	-3768
▁오라고	-3769
▁이거는	-3770
▁잃어버	-3771
▁자네는	-3772
▁자리에	-3773
▁잘됐다	-3774
▁좋다고	-3775
▁직원들	-3776
▁필요한	-3777
▁하나씩	-3778
▁하시고	-3779
▁한마디	-3780
▁확인해	-3781
하십니다	-3782
▁그따위로	-3783
▁그만해라	-3784
▁기분나빠	-3785
▁되는거지	-3786
▁때리지마	-3787
▁생각해봐	-3788
▁아줌마가	-3789
▁오늘부터	-3790
▁이번에는	-3791
▁있는거야	-3792
▁잘못이야	-3793
▁재밌겠다	-3794
▁짜증나네	-3795
▁팀장님이	-3796
▁가겠습니다	-3797
▁그딴식으로	-3798
▁오겠습니다	-3799
▁죽여버리고	-3800
▁하지말라고	-3801
▁돕	-3802
▁뚫	-3803
▁탕	-3804
▁헉	-3805
▁협	-3806
▁훨	-3807
▁휠	-3808
▁희	-3809
거고	-3810
게나	-3811
그냥	-3812
기야	-3813
나오	-3814
러드	-3815
벌써	-3816
사고	-3817
았다	-3818
었나	-3819
으려	-3820
있을	-3821
자리	-3822
쟁이	-3823
제로	-3824
졌네	-3825
체어	-3826
칭찬	-3827
파서	-3828
픈데	-3829
하라	-3830
화점	-3831
▁가격	-3832
▁각서	-3833
▁갖다	-3834
▁건물	-3835
▁구역	-3836
▁국밥	-3837
▁귀여	-3838
▁기획	-3839
▁꼴에	-3840
▁나갔	-3841
▁날은	-3842
▁내로	-3843
▁녀석	-3844
▁녹음	-3845
▁느끼	-3846
▁담아	-3847
▁뒷담	-3848
▁똑똑	-3849
▁레벨	-3850
▁맞죠	-3851
▁미팅	-3852
▁바뀌	-3853
▁받을	-3854
▁보낸	-3855
▁부끄	-3856
▁부담	-3857
▁불가	-3858
▁살이	-3859
▁새꺄	-3860
▁소설	-3861
▁쉬는	-3862
▁싫은	-3863
▁씨가	-3864
▁안할	-3865
▁알죠	-3866
▁애는	-3867
▁애를	-3868
▁얼만	-3869
▁우스	-3870
▁응응	-3871
▁의미	-3872
▁이를	-3873
▁이만	-3874
▁입은	-3875
▁자세	-3876
▁전혀	-3877
▁정상	-3878
▁지우	-3879
▁지원	-3880
▁충분	-3881
▁취급	-3882
▁크게	-3883
▁팩트	-3884
▁하실	-3885
▁한참	-3886
▁했나	-3887
▁했던	-3888
▁허허	-3889
▁화가	-3890
거예요	-3891
긴한데	-3892
만원은	-3893
면서요	-3894
샐러드	-3895
소리가	-3896
십시요	-3897
알겠어	-3898
았잖아	-3899
없어서	-3900
있는거	-3901
있으면	-3902
진다고	-3903
하거든	-3904
하더라	-3905
합니까	-3906
했으면	-3907
▁가려고	-3908
▁가방에	-3909
▁가볼까	-3910
▁거기로	-3911
▁그걸로	-3912
▁그렇고	-3913
▁꼴보기	-3914
▁끝났어	-3915
▁나때는	-3916
▁나이가	-3917
▁남아서	-3918
▁너네가	-3919
▁덕분에	-3920
▁도움이	-3921
▁돈이나	-3922
▁뒤에서	-3923
▁떨어져	-3924
▁멋지다	-3925
▁몸으로	-3926
▁받으면	-3927
▁백화점	-3928
▁버리고	-3929
▁병신아	-3930
▁분명히	-3931
▁소중한	-3932
▁손님이	-3933
▁시간은	-3934
▁안보내	-3935
▁얌전히	-3936
▁어쩐지	-3937
▁어쩔수	-3938
▁열받게	-3939
▁월요일	-3940
▁입금해	-3941
▁잘하고	-3942
▁재밌는	-3943
▁정도는	-3944
▁죽겠네	-3945
▁준다고	-3946
▁지갑에	-3947
▁태어나	-3948
▁편이야	-3949
▁휠체어	-3950
라는거야	-3951
▁그러시면	-3952
▁그만하자	-3953
▁너무한거	-3954
▁누구시죠	-3955
▁다음부턴	-3956
▁되잖아요	-3957
▁말씀드렸	-3958
▁말씀하신	-3959
▁시끄럽게	-3960
▁심하잖아	-3961
▁아니예요	-3962
▁아니지만	-3963
▁아직인데	-3964
▁알았어요	-3965
▁앞으로도	-3966
▁어디있어	-3967
▁없으면서	-3968
▁이제와서	-3969
▁장애인이	-3970
▁찾아가서	-3971
▁토요일에	-3972
▁힘들어서	-3973
▁뭐하는거야	-3974
▁선생님한테	-3975
▁모르겠습니다	-3976
▁신고하겠습니다	-3977
▁꽉	-3978
▁끓	-3979
▁땀	-3980
▁묶	-3981
▁쑤	-3982
▁앱	-3983
▁찬	-3984
▁첫	-3985
▁험	-3986
▁헬	-3987
▁혀	-3988
그렇	-3989
금이	-3990
놈이	-3991
다음	-3992
돌려	-3993
리냐	-3994
릴래	-3995
물어	-3996
바닥	-3997
부탁	-3998
비서	-3999
생겼	-4000
센터	-4001
셔도	-4002
수를	-4003
시네	-4004
아요	-4005
아파	-4006
았냐	-4007
업체	-4008
었고	-4009
운데	-4010
일도	-4011
좋게	-4012
죽고	-4013
줘봐	-4014
하려	-4015
현씨	-4016
희롱	-4017
▁검사	-4018
▁것은	-4019
▁곱게	-4020
▁교통	-4021
▁꾸미	-4022
▁나타	-4023
▁남겨	-4024
▁남은	-4025
▁내야	-4026
▁니꺼	-4027
▁니들	-4028
▁달려	-4029
▁달에	-4030
▁되고	-4031
▁둘다	-4032
▁드려	-4033
▁드린	-4034
▁들을	-4035
▁마감	-4036
▁막내	-4037
▁맞으	-4038
▁명령	-4039
▁명품	-4040
▁모임	-4041
▁못들	-4042
▁뭐든	-4043
▁번도	-4044
▁변명	-4045
▁보네	-4046
▁본인	-4047
▁사준	-4048
▁삭제	-4049
▁살기	-4050
▁삼백	-4051
▁상태	-4052
▁상품	-4053
▁손해	-4054
▁수학	-4055
▁쓸게	-4056
▁아오	-4057
▁않게	-4058
▁어허	-4059
▁억지	-4060
▁언젠	-4061
▁올해	-4062
▁요구	-4063
▁이빨	-4064
▁있니	-4065
▁자르	-4066
▁작은	-4067
▁저거	-4068
▁저랑	-4069
▁줘라	-4070
▁지각	-4071
▁지하	-4072
▁찌르	-4073
▁차를	-4074
▁칭찬	-4075
▁통장	-4076
▁통화	-4077
▁할지	-4078
▁함께	-4079
▁현실	-4080
겠구만	-4081
고객님	-4082
는거냐	-4083
때마다	-4084
릅니다	-4085
사이에	-4086
스러운	-4087
시나요	-4088
어머니	-4089
을텐데	-4090
장에서	-4091
줬는데	-4092
줬으면	-4093
하느라	-4094
하는건	-4095
해놓고	-4096
▁가라고	-4097
▁거래처	-4098
▁것들은	-4099
▁나보다	-4100
▁남자가	-4101
▁남편이	-4102
▁내동생	-4103
▁너말고	-4104
▁다리가	-4105
▁다에요	-4106
▁도와주	-4107
▁도와줄	-4108
▁동생은	-4109
▁말하기	-4110
▁맞으면	-4111
▁머리는	-4112
▁머리도	-4113
▁모르겠	-4114
▁문제집	-4115
▁배고프	-4116
▁보이는	-4117
▁성희롱	-4118
▁소문내	-4119
▁순순히	-4120
▁얘기가	-4121
▁어디에	-4122
▁어딘지	-4123
▁엄마도	-4124
▁여기는	-4125
▁여기로	-4126
▁영수증	-4127
▁이상해	-4128
▁이자식	-4129
▁이제는	-4130
▁이제야	-4131
▁저희도	-4132
▁점심은	-4133
▁정도면	-4134
▁주변에	-4135
▁죽는거	-4136
▁찐따야	-4137
▁최대리	-4138
▁팔아서	-4139
▁피곤해	-4140
▁하나요	-4141
▁해줄까	-4142
▁헤어질	-4143
는거잖아	-4144
▁고등학교	-4145
▁그만해줘	-4146
▁다음주에	-4147
▁말하지마	-4148
▁미쳤구나	-4149
▁부탁할게	-4150
▁빨리빨리	-4151
▁사장님이	-4152
▁않습니다	-4153
▁없잖아요	-4154
▁오냐오냐	-4155
▁일처리를	-4156
▁재미있어	-4157
▁정말이야	-4158
▁직원들이	-4159
▁하시네요	-4160
▁헤어지자	-4161
▁가져오라고	-4162
▁남자친구가	-4163
▁따라하지마	-4164
▁말대답이야	-4165
▁모르겠지만	-4166
▁무슨말씀이	-4167
▁정신차리지	-4168
▁친구들이랑	-4169
▁편의점에서	-4170
▁왜그러는거야	-4171
▁해오겠습니다	-4172
▁굶	-4173
▁깡	-4174
▁꿈	-4175
▁났	-4176
▁벼	-4177
▁샌	-4178
▁섞	-4179
▁쌀	-4180
▁쏘	-4181
▁윽	-4182
▁짬	-4183
▁칠	-4184
▁콩	-4185
▁헤	-4186
가게	-4187
근데	-4188
냈어	-4189
됐어	-4190
르게	-4191
릴라	-4192
부장	-4193
비실	-4194
사와	-4195
상관	-4196
세상	-4197
수님	-4198
신고	-4199
았지	-4200
업무	-4201
없지	-4202
원님	-4203
일에	-4204
자식	-4205
장난	-4206
장도	-4207
전이	-4208
주도	-4209
주야	-4210
죽어	-4211
했나	-4212
히고	-4213
▁가요	-4214
▁감당	-4215
▁같고	-4216
▁게이	-4217
▁고쳐	-4218
▁기절	-4219
▁까불	-4220
▁끊어	-4221
▁났어	-4222
▁내년	-4223
▁다해	-4224
▁당당	-4225
▁됐네	-4226
▁딸을	-4227
▁먹게	-4228
▁먹여	-4229
▁몇개	-4230
▁못먹	-4231
▁민폐	-4232
▁바닥	-4233
▁반말	-4234
▁발라	-4235
▁보태	-4236
▁봐요	-4237
▁부딪	-4238
▁빼고	-4239
▁사소	-4240
▁삼촌	-4241
▁생겨	-4242
▁서운	-4243
▁수진	-4244
▁신장	-4245
▁아마	-4246
▁어째	-4247
▁여름	-4248
▁유난	-4249
▁유치	-4250
▁이병	-4251
▁이봐	-4252
▁이용	-4253
▁잖아	-4254
▁존재	-4255
▁중국	-4256
▁중에	-4257
▁진지	-4258
▁집중	-4259
▁차비	-4260
▁참여	-4261
▁파악	-4262
▁퍼뜨	-4263
▁피자	-4264
▁하다	-4265
▁한명	-4266
▁한숨	-4267
▁해준	-4268
▁훨씬	-4269
갈거야	-4270
나보지	-4271
다니냐	-4272
드리고	-4273
렸잖아	-4274
먹으면	-4275
버리기	-4276
셨으면	-4277
스럽게	-4278
아니고	-4279
였으면	-4280
올게요	-4281
으로도	-4282
인거야	-4283
전까지	-4284
졌다고	-4285
하지도	-4286
한테는	-4287
▁가기로	-4288
▁갔다와	-4289
▁걱정마	-4290
▁고릴라	-4291
▁괜찮은	-4292
▁교육을	-4293
▁그런적	-4294
▁그렇죠	-4295
▁그만좀	-4296
▁급해서	-4297
▁김선생	-4298
▁내려놓	-4299
▁내버려	-4300
▁냄새도	-4301
▁노래방	-4302
▁다니냐	-4303
▁다리를	-4304
▁다했어	-4305
▁답답해	-4306
▁당하고	-4307
▁뒤지고	-4308
▁들어서	-4309
▁들으면	-4310
▁말해야	-4311
▁못해서	-4312
▁못해요	-4313
▁무엇을	-4314
▁물건을	-4315
▁뭐하나	-4316
▁박사원	-4317
▁받아가	-4318
▁방법은	-4319
▁사와라	-4320
▁샀는데	-4321
▁소개팅	-4322
▁스타일	-4323
▁실수로	-4324
▁심하게	-4325
▁싶어요	-4326
▁아그래	-4327
▁아이씨	-4328
▁얘기해	-4329
▁얼굴에	-4330
▁여자가	-4331
▁오해가	-4332
▁인스타	-4333
▁일하고	-4334
▁있거든	-4335
▁자기야	-4336
▁자네도	-4337
▁자리로	-4338
▁잘못을	-4339
▁전까지	-4340
▁조금씩	-4341
▁죽인다	-4342
▁줬잖아	-4343
▁지갑을	-4344
▁축하해	-4345
▁커피도	-4346
▁하던가	-4347
▁해볼까	-4348
▁회사는	-4349
▁회장님	-4350
것같은데	-4351
드릴까요	-4352
▁개인적인	-4353
▁그러니깐	-4354
▁그런거지	-4355
▁그만하고	-4356
▁기대된다	-4357
▁깔끔하게	-4358
▁맛있겠다	-4359
▁목숨만은	-4360
▁부러뜨려	-4361
▁빌려줘라	-4362
▁상사한테	-4363
▁생각보다	-4364
▁생일선물	-4365
▁세상에서	-4366
▁우리엄마	-4367
▁우리한테	-4368
▁이따구로	-4369
▁이상하게	-4370
▁일이시죠	-4371
▁잔말말고	-4372
▁죽여줄게	-4373
▁친구잖아	-4374
▁피곤해서	-4375
▁필요한데	-4376
▁하셨어요	-4377
▁해달라고	-4378
▁협박죄로	-4379
▁환불해줘	-4380
살려주세요	-4381
▁곤란합니다	-4382
▁그러지말고	-4383
▁다음주까지	-4384
▁미안하다고	-4385
▁안된다니까	-4386
▁않겠습니다	-4387
▁잘못했다고	-4388
▁무슨일이세요	-4389
▁깍	-4390
▁끄	-4391
▁둔	-4392
▁뭣	-4393
▁쌤	-4394
▁압	-4395
▁째	-4396
▁춤	-4397
▁팬	-4398
▁흠	-4399
같지	-4400
거려	-4401
내는	-4402
내서	-4403
너네	-4404
놨어	-4405
누구	-4406
는것	-4407
다리	-4408
답게	-4409
되서	-4410
되어	-4411
떨어	-4412
래도	-4413
마자	-4414
목이	-4415
배로	-4416
본데	-4417
사는	-4418
사야	-4419
상이	-4420
서야	-4421
수는	-4422
양이	-4423
어가	-4424
었냐	-4425
여보	-4426
왔냐	-4427
우가	-4428
우고	-4429
우는	-4430
일만	-4431
있게	-4432
있고	-4433
있네	-4434
주시	-4435
지나	-4436
질이	-4437
처리	-4438
천히	-4439
촬영	-4440
치기	-4441
카드	-4442
퇴근	-4443
학년	-4444
해와	-4445
했던	-4446
호야	-4447
▁가기	-4448
▁가려	-4449
▁간식	-4450
▁갈아	-4451
▁같냐	-4452
▁개웃	-4453
▁굴어	-4454
▁그림	-4455
▁그야	-4456
▁기한	-4457
▁깜빡	-4458
▁나름	-4459
▁나아	-4460
▁놀고	-4461
▁놀다	-4462
▁놀려	-4463
▁닦아	-4464
▁따위	-4465
▁딸도	-4466
▁때리	-4467
▁마찬	-4468
▁말에	-4469
▁맛이	-4470
▁몇년	-4471
▁못쓰	-4472
▁문열	-4473
▁문자	-4474
▁바꿨	-4475
▁배려	-4476
▁별거	-4477
▁부를	-4478
▁부자	-4479
▁붙여	-4480
▁비상	-4481
▁빌릴	-4482
▁뿌려	-4483
▁사면	-4484
▁살인	-4485
▁상담	-4486
▁소름	-4487
▁신어	-4488
▁신체	-4489
▁싶나	-4490
▁아씨	-4491
▁안끝	-4492
▁애도	-4493
▁양보	-4494
▁없게	-4495
▁연애	-4496
▁유출	-4497
▁있게	-4498
▁잘났	-4499
▁잡종	-4500
▁저만	-4501
▁전시	-4502
▁정색	-4503
▁정확	-4504
▁조언	-4505
▁주민	-4506
▁쥐도	-4507
▁지겹	-4508
▁지방	-4509
▁차별	-4510
▁처신	-4511
▁칼을	-4512
▁케이	-4513
▁태어	-4514
▁하려	-4515
▁하신	-4516
▁할말	-4517
▁했을	-4518
▁환장	-4519
▁흥분	-4520
거같아	-4521
거잖아	-4522
다는데	-4523
다니고	-4524
셨는데	-4525
싫으면	-4526
아저씨	-4527
집에서	-4528
하다가	-4529
하려면	-4530
▁거라고	-4531
▁것들이	-4532
▁계세요	-4533
▁끝내자	-4534
▁끝이야	-4535
▁내려가	-4536
▁내일은	-4537
▁너밖에	-4538
▁누구랑	-4539
▁누군데	-4540
▁다니게	-4541
▁더러운	-4542
▁뒤지게	-4543
▁들어간	-4544
▁들어갈	-4545
▁따뜻한	-4546
▁때리고	-4547
▁떡볶이	-4548
▁맞는다	-4549
▁맞는데	-4550
▁모르지	-4551
▁못하나	-4552
▁물어봐	-4553
▁뭐에요	-4554
▁밖에서	-4555
▁부당한	-4556
▁빌리자	-4557
▁사는데	-4558
▁사랑해	-4559
▁사이에	-4560
▁사적인	-4561
▁살리고	-4562
▁새로운	-4563
▁생각은	-4564
▁생각할	-4565
▁아까워	-4566
▁안으로	-4567
▁알겠다	-4568
▁얼굴을	-4569
▁없어도	-4570
▁우리딸	-4571
▁있을거	-4572
▁죽어도	-4573
▁짓이야	-4574
▁차비가	-4575
▁천천히	-4576
▁쳐다봐	-4577
▁총으로	-4578
▁충분히	-4579
▁테니까	-4580
▁피부가	-4581
▁피해를	-4582
▁하도록	-4583
▁하신거	-4584
▁해주면	-4585
▁혼자서	-4586
드릴께요	-4587
아니에요	-4588
이라니까	-4589
지마세요	-4590
▁개인정보	-4591
▁그랬잖아	-4592
▁그러시는	-4593
▁그런거야	-4594
▁그렇다면	-4595
▁그정도는	-4596
▁너무하다	-4597
▁누구한테	-4598
▁마찬가지	-4599
▁말할거야	-4600
▁못하는게	-4601
▁무서워서	-4602
▁미친놈아	-4603
▁살아야지	-4604
▁생겼는데	-4605
▁소리세요	-4606
▁신고해봐	-4607
▁안좋아서	-4608
▁알아들어	-4609
▁어딨어요	-4610
▁어떡하냐	-4611
▁어이없네	-4612
▁엄마아빠	-4613
▁없어서요	-4614
▁여기까지	-4615
▁왜그러냐	-4616
▁이거밖에	-4617
▁이것밖에	-4618
▁이야기를	-4619
▁일주일만	-4620
▁있잖아요	-4621
▁장난이야	-4622
▁지금부터	-4623
▁지난번에	-4624
▁쪼잔하게	-4625
▁해야겠다	-4626
▁갚겠습니다	-4627
▁생각합니다	-4628
▁조금이라도	-4629
▁죄송하다는	-4630
▁헤어지자고	-4631
▁왜그러십니까	-4632
▁이러지마세요	-4633
▁죽어버릴거야	-4634
▁긁	-4635
▁뇌	-4636
▁닫	-4637
▁댁	-4638
▁봉	-4639
▁뵈	-4640
▁뺐	-4641
▁익	-4642
▁즐	-4643
▁짖	-4644
▁쫌	-4645
▁쫙	-4646
▁캐	-4647
▁컸	-4648
▁핫	-4649
▁흉	-4650
간에	-4651
규직	-4652
기다	-4653
껀데	-4654
남자	-4655
다닐	-4656
다시	-4657
대요	-4658
돈을	-4659
되나	-4660
등급	-4661
떻게	-4662
랐어	-4663
랬어	-4664
말로	-4665
말자	-4666
맛이	-4667
모가	-4668
모양	-4669
받을	-4670
방에	-4671
보네	-4672
볶음	-4673
사님	-4674
석에	-4675
스럽	-4676
시기	-4677
쓸게	-4678
아노	-4679
아휴	-4680
없게	-4681
우와	-4682
잠깐	-4683
전거	-4684
점심	-4685
정상	-4686
주제	-4687
죽여	-4688
지네	-4689
차림	-4690
철아	-4691
치면	-4692
커피	-4693
하던	-4694
한잔	-4695
해지	-4696
훼손	-4697
▁가도	-4698
▁감옥	-4699
▁감정	-4700
▁강남	-4701
▁거리	-4702
▁겨울	-4703
▁계정	-4704
▁고기	-4705
▁고작	-4706
▁공간	-4707
▁구네	-4708
▁기운	-4709
▁꿀꿀	-4710
▁나라	-4711
▁나무	-4712
▁남아	-4713
▁냅둬	-4714
▁너야	-4715
▁느낌	-4716
▁대표	-4717
▁듣는	-4718
▁따님	-4719
▁땡땡	-4720
▁뜨거	-4721
▁마라	-4722
▁마침	-4723
▁말투	-4724
▁맞을	-4725
▁머래	-4726
▁면상	-4727
▁몸매	-4728
▁몸에	-4729
▁못한	-4730
▁뭐고	-4731
▁바꿀	-4732
▁박스	-4733
▁반반	-4734
▁반응	-4735
▁벗어	-4736
▁부장	-4737
▁살자	-4738
▁새벽	-4739
▁색깔	-4740
▁샌드	-4741
▁수는	-4742
▁신랑	-4743
▁실력	-4744
▁싸게	-4745
▁아예	-4746
▁안전	-4747
▁애랑	-4748
▁양심	-4749
▁업체	-4750
▁영업	-4751
▁예정	-4752
▁올릴	-4753
▁옷도	-4754
▁우울	-4755
▁위에	-4756
▁이어	-4757
▁인질	-4758
▁일러	-4759
▁읽고	-4760
▁작작	-4761
▁점장	-4762
▁좋냐	-4763
▁주임	-4764
▁죽인	-4765
▁줄께	-4766
▁지시	-4767
▁집어	-4768
▁찍은	-4769
▁창고	-4770
▁취업	-4771
▁카메	-4772
▁태도	-4773
▁퇴사	-4774
▁평가	-4775
▁하라	-4776
▁하아	-4777
▁하죠	-4778
▁한가	-4779
▁후배	-4780
▁힘드	-4781
같은데	-4782
길동씨	-4783
끝나고	-4784
나보다	-4785
만원에	-4786
버리는	-4787
버리면	-4788
보다는	-4789
시는데	-4790
아줌마	-4791
알았어	-4792
어떻게	-4793
왔어요	-4794
테니깐	-4795
하겠네	-4796
하다면	-4797
하셔서	-4798
할까요	-4799
▁000	-4800
▁가자고	-4801
▁가져간	-4802
▁갈게요	-4803
▁곳으로	-4804
▁궁금해	-4805
▁그거는	-4806
▁그거랑	-4807
▁그럴까	-4808
▁그쪽이	-4809
▁기어오	-4810
▁끝내고	-4811
▁나가고	-4812
▁나오고	-4813
▁나오지	-4814
▁눈치도	-4815
▁대화로	-4816
▁데려다	-4817
▁도와줘	-4818
▁드디어	-4819
▁따라해	-4820
▁따위로	-4821
▁뛰어내	-4822
▁만나면	-4823
▁만드네	-4824
▁만만해	-4825
▁말던가	-4826
▁말하고	-4827
▁말할때	-4828
▁말해도	-4829
▁모른척	-4830
▁벌어서	-4831
▁병신이	-4832
▁보인다	-4833
▁봐야지	-4834
▁사과는	-4835
▁사과를	-4836
▁사랑이	-4837
▁사주신	-4838
▁생일이	-4839
▁선물로	-4840
▁스스로	-4841
▁시간도	-4842
▁시작해	-4843
▁시키면	-4844
▁쓴다고	-4845
▁아드님	-4846
▁아이스	-4847
▁아파요	-4848
▁안그럼	-4849
▁알아야	-4850
▁어디있	-4851
▁어딨냐	-4852
▁어울릴	-4853
▁여러분	-4854
▁우스워	-4855
▁우습냐	-4856
▁웃기고	-4857
▁이거지	-4858
▁잘됐네	-4859
▁잘리고	-4860
▁장난감	-4861
▁장난도	-4862
▁좋겠네	-4863
▁죽었다	-4864
▁친구도	-4865
▁한다는	-4866
▁해고야	-4867
▁해놓고	-4868
▁헤어졌	-4869
▁확실히	-4870
▁힘든데	-4871
하시는거	-4872
▁개새끼야	-4873
▁괜찮은데	-4874
▁괴롭히는	-4875
▁기대할게	-4876
▁기분나쁘	-4877
▁말하는거	-4878
▁먹으라고	-4879
▁목소리가	-4880
▁못하겠어	-4881
▁못하면서	-4882
▁뭔소리야	-4883
▁벌써부터	-4884
▁부족해서	-4885
▁빌려줄게	-4886
▁사람들은	-4887
▁사주셨어	-4888
▁살려줄게	-4889
▁신입사원	-4890
▁알려줄게	-4891
▁앞으로는	-4892
▁없는거야	-4893
▁이름으로	-4894
▁이번주에	-4895
▁이제부터	-4896
▁일로와바	-4897
▁있는데요	-4898
▁있습니까	-4899
▁있으면서	-4900
!!!!!!	-4901
▁그렇습니다	-4902
▁다음부터는	-4903
▁모르겠는데	-4904
▁모르겠어요	-4905
▁좋아보인다	-4906
▁하셨잖아요	-4907
▁신고하기전에	-4908
▁잘하겠습니다	-4909
▁수정하겠습니다	-4910
~"	-4911
▁견	-4912
▁굼	-4913
▁극	-4914
▁깝	-4915
▁눌	-4916
▁루	-4917
▁봄	-4918
▁봅	-4919
▁빚	-4920
▁섭	-4921
▁습	-4922
▁쐬	-4923
▁엿	-4924
▁융	-4925
▁짝	-4926
▁쿠	-4927
▁쿵	-4928
▁트	-4929
▁힐	-4930
구멍	-4931
군요	-4932
나씨	-4933
낸다	-4934
능이	-4935
돈이	-4936
돼서	-4937
되고	-4938
로그	-4939
리러	-4940
리어	-4941
릿세	-4942
만간	-4943
말도	-4944
민씨	-4945
받았	-4946
벤트	-4947
보내	-4948
부를	-4949
사실	-4950
사에	-4951
상태	-4952
손님	-4953
시게	-4954
쓰면	-4955
야죠	-4956
왔지	-4957
이제	-4958
이죠	-4959
자꾸	-4960
주씨	-4961
짓을	-4962
콜릿	-4963
플레	-4964
하래	-4965
하산	-4966
한건	-4967
했고	-4968
혀서	-4969
혜야	-4970
호사	-4971
▁감기	-4972
▁개그	-4973
▁거죠	-4974
▁걸린	-4975
▁고장	-4976
▁공원	-4977
▁교환	-4978
▁그저	-4979
▁깡패	-4980
▁끝난	-4981
▁나간	-4982
▁나좀	-4983
▁난다	-4984
▁내눈	-4985
▁내는	-4986
▁내면	-4987
▁단정	-4988
▁던져	-4989
▁돕고	-4990
▁동물	-4991
▁두개	-4992
▁듣지	-4993
▁들은	-4994
▁뜨고	-4995
▁마약	-4996
▁마주	-4997
▁만난	-4998
▁망가	-4999
▁모습	-5000
▁모욕	-5001
▁못믿	-5002
▁못봤	-5003
▁물론	-5004
▁밀어	-5005
▁밑에	-5006
▁번에	-5007
▁봤지	-5008
▁비번	-5009
▁빠듯	-5010
▁사먹	-5011
▁산다	-5012
▁살면	-5013
▁설치	-5014
▁세금	-5015
▁센스	-5016
▁술을	-5017
▁시킬	-5018
▁신청	-5019
▁싶네	-5020
▁아래	-5021
▁안타	-5022
▁약간	-5023
▁어떨	-5024
▁어처	-5025
▁없던	-5026
▁여깄	-5027
▁연예	-5028
▁오른	-5029
▁오타	-5030
▁옷은	-5031
▁요번	-5032
▁웃어	-5033
▁이쪽	-5034
▁일병	-5035
▁읽어	-5036
▁입만	-5037
▁재산	-5038
▁쟤는	-5039
▁적게	-5040
▁정당	-5041
▁조져	-5042
▁줘서	-5043
▁질문	-5044
▁쫓아	-5045
▁체크	-5046
▁초대	-5047
▁촬영	-5048
▁크크	-5049
▁타와	-5050
▁팀원	-5051
▁폭력	-5052
▁하란	-5053
▁한두	-5054
▁해달	-5055
▁해킹	-5056
▁허구	-5057
갑자기	-5058
갔잖아	-5059
거리는	-5060
단말야	-5061
대리님	-5062
드리는	-5063
등학생	-5064
라구요	-5065
렸는데	-5066
렸다고	-5067
렸어요	-5068
리는데	-5069
부모님	-5070
신다고	-5071
애들이	-5072
얘들아	-5073
으니깐	-5074
이었어	-5075
질거야	-5076
하는지	-5077
하시지	-5078
한건데	-5079
한다는	-5080
해주고	-5081
▁400	-5082
▁가져올	-5083
▁갑시다	-5084
▁거기에	-5085
▁걱정해	-5086
▁건드리	-5087
▁고양이	-5088
▁교수님	-5089
▁구해와	-5090
▁그때는	-5091
▁그럴게	-5092
▁그만큼	-5093
▁깨끗이	-5094
▁꺼져라	-5095
▁나왔어	-5096
▁난리야	-5097
▁날씨가	-5098
▁내라고	-5099
▁너무해	-5100
▁눈으로	-5101
▁늦으면	-5102
▁다녀오	-5103
▁다니고	-5104
▁다음달	-5105
▁다음엔	-5106
▁달라는	-5107
▁돌려주	-5108
▁되겠다	-5109
▁되겠어	-5110
▁되어서	-5111
▁들어와	-5112
▁말한다	-5113
▁머리를	-5114
▁모르나	-5115
▁모르냐	-5116
▁몰랐어	-5117
▁못하네	-5118
▁무사할	-5119
▁물건이	-5120
▁미친것	-5121
▁받았어	-5122
▁범죄야	-5123
▁별말을	-5124
▁보내고	-5125
▁보는데	-5126
▁보려고	-5127
▁부끄럽	-5128
▁부모가	-5129
▁부족해	-5130
▁분질러	-5131
▁불가능	-5132
▁살아서	-5133
▁샐러드	-5134
▁생기면	-5135
▁신경써	-5136
▁싫어서	-5137
▁아가리	-5138
▁안녕히	-5139
▁안되서	-5140
▁않았나	-5141
▁않은데	-5142
▁알면서	-5143
▁알아라	-5144
▁압니다	-5145
▁어때서	-5146
▁어제도	-5147
▁어쨌든	-5148
▁업무를	-5149
▁역겨워	-5150
▁연락처	-5151
▁오빠랑	-5152
▁오해야	-5153
▁용돈이	-5154
▁웃기는	-5155
▁위험해	-5156
▁유치원	-5157
▁음료수	-5158
▁이거야	-5159
▁이대로	-5160
▁이런걸	-5161
▁이름이	-5162
▁이리로	-5163
▁이쁘게	-5164
▁이쁘네	-5165
▁일어날	-5166
▁일처리	-5167
▁있는건	-5168
▁있던데	-5169
▁있으신	-5170
▁자릿세	-5171
▁자식을	-5172
▁잘생각	-5173
▁잘쓸게	-5174
▁적어도	-5175
▁정신병	-5176
▁제주도	-5177
▁조만간	-5178
▁죽겠어	-5179
▁죽어야	-5180
▁죽이지	-5181
▁지하철	-5182
▁짤리고	-5183
▁찍어서	-5184
▁찐따가	-5185
▁찾아봐	-5186
▁찾아서	-5187
▁찾아오	-5188
▁처음엔	-5189
▁천만에	-5190
▁천만원	-5191
▁초콜릿	-5192
▁친구는	-5193
▁카메라	-5194
▁키우고	-5195
▁태도가	-5196
▁특별히	-5197
▁풀어줘	-5198
▁하기로	-5199
▁한대씩	-5200
▁한번에	-5201
▁해줘요	-5202
▁형한테	-5203
▁힘내자	-5204
겠다는데	-5205
단말이야	-5206
지않으면	-5207
하잖아요	-5208
▁가야겠다	-5209
▁가져갈게	-5210
▁가족들도	-5211
▁같으니까	-5212
▁갚는다고	-5213
▁계좌번호	-5214
▁김치찌개	-5215
▁내버려둬	-5216
▁다니는거	-5217
▁들어가서	-5218
▁들어와서	-5219
▁따뜻하게	-5220
▁만들어줘	-5221
▁못생겨서	-5222
▁못생겼다	-5223
▁못하니까	-5224
▁뭐하시는	-5225
▁미안하면	-5226
▁신고한다	-5227
▁싶습니다	-5228
▁아무래도	-5229
▁아이디어	-5230
▁안그래도	-5231
▁어쨌다고	-5232
▁있었는데	-5233
▁전화번호	-5234
▁중요하지	-5235
▁지나가는	-5236
▁친구한테	-5237
▁하나하나	-5238
▁하는건데	-5239
▁하는데요	-5240
▁할테니까	-5241
▁했어야지	-5242
버릴까보다	-5243
▁그래야겠다	-5244
▁말하는거야	-5245
▁무슨일이야	-5246
▁부모님한테	-5247
▁심하시네요	-5248
▁여자친구랑	-5249
▁잘못했는지	-5250
▁제정신이야	-5251
▁죄송하다고	-5252
▁하지마세요	-5253
▁해봐야겠다	-5254
해보겠습니다	-5255
▁너무하시네요	-5256
▁무슨일이시죠	-5257
▁해드리겠습니다	-5258
?"	-5259
▁0	-5260
▁광	-5261
▁귓	-5262
▁꽂	-5263
▁냉	-5264
▁립	-5265
▁몽	-5266
▁뼈	-5267
▁삐	-5268
▁쏠	-5269
▁액	-5270
▁엘	-5271
▁염	-5272
▁쪄	-5273
▁촉	-5274
▁펜	-5275
▁풉	-5276
▁홀	-5277
▁휘	-5278
▁히	-5279
거냐	-5280
관리	-5281
구려	-5282
꺼내	-5283
녀를	-5284
놈의	-5285
니저	-5286
당장	-5287
데가	-5288
리네	-5289
마야	-5290
모르	-5291
몰라	-5292
배고	-5293
보는	-5294
불러	-5295
사정	-5296
시킬	-5297
싶어	-5298
알지	-5299
애들	-5300
었던	-5301
이를	-5302
일세	-5303
잖니	-5304
좋은	-5305
준비	-5306
친거	-5307
통에	-5308
팀장	-5309
한가	-5310
한텐	-5311
▁가던	-5312
▁같애	-5313
▁개판	-5314
▁걔가	-5315
▁걔네	-5316
▁거고	-5317
▁거다	-5318
▁것을	-5319
▁고발	-5320
▁공유	-5321
▁과연	-5322
▁과자	-5323
▁기스	-5324
▁꼴도	-5325
▁날짜	-5326
▁납치	-5327
▁낫지	-5328
▁내맘	-5329
▁놈아	-5330
▁느려	-5331
▁늦은	-5332
▁다가	-5333
▁단가	-5334
▁대기	-5335
▁대드	-5336
▁대한	-5337
▁더는	-5338
▁되냐	-5339
▁되니	-5340
▁될지	-5341
▁뒤로	-5342
▁따돌	-5343
▁딱히	-5344
▁만화	-5345
▁많고	-5346
▁몇살	-5347
▁모아	-5348
▁못사	-5349
▁못줘	-5350
▁못참	-5351
▁무식	-5352
▁미스	-5353
▁반성	-5354
▁반차	-5355
▁버리	-5356
▁버티	-5357
▁벌점	-5358
▁보험	-5359
▁보호	-5360
▁부셔	-5361
▁비워	-5362
▁비키	-5363
▁빠른	-5364
▁빵좀	-5365
▁뺏어	-5366
▁사냐	-5367
▁살살	-5368
▁성과	-5369
▁성의	-5370
▁셔틀	-5371
▁숨겨	-5372
▁스토	-5373
▁식사	-5374
▁실망	-5375
▁썼어	-5376
▁쓰자	-5377
▁안가	-5378
▁안둘	-5379
▁어떠	-5380
▁어림	-5381
▁언론	-5382
▁얻어	-5383
▁연구	-5384
▁올게	-5385
▁옮겨	-5386
▁외모	-5387
▁요리	-5388
▁융통	-5389
▁인기	-5390
▁인수	-5391
▁일에	-5392
▁입는	-5393
▁자는	-5394
▁작년	-5395
▁졸라	-5396
▁줄까	-5397
▁질러	-5398
▁집구	-5399
▁집은	-5400
▁짧은	-5401
▁찍고	-5402
▁차단	-5403
▁차에	-5404
▁코가	-5405
▁팀장	-5406
▁파티	-5407
▁하든	-5408
▁한강	-5409
▁한쪽	-5410
▁했니	-5411
▁형씨	-5412
▁혼나	-5413
▁후에	-5414
▁힐링	-5415
같아서	-5416
그만해	-5417
는거니	-5418
대가리	-5419
돈으로	-5420
되니까	-5421
됩니까	-5422
드리면	-5423
리니까	-5424
발이고	-5425
새로운	-5426
스크림	-5427
시키고	-5428
아가씨	-5429
아닌데	-5430
안하고	-5431
엄마가	-5432
없으면	-5433
였는데	-5434
였잖아	-5435
오랜만	-5436
주는데	-5437
주려고	-5438
주제에	-5439
지않아	-5440
하거나	-5441
하나요	-5442
하냐고	-5443
할머니	-5444
▁가르쳐	-5445
▁가족도	-5446
▁가족을	-5447
▁갈거야	-5448
▁같으면	-5449
▁개새끼	-5450
▁기억이	-5451
▁길동씨	-5452
▁나와야	-5453
▁낙하산	-5454
▁날씨도	-5455
▁내일도	-5456
▁너에게	-5457
▁능력이	-5458
▁늦었어	-5459
▁다니기	-5460
▁다른거	-5461
▁다이어	-5462
▁당신은	-5463
▁당장은	-5464
▁대들어	-5465
▁대학은	-5466
▁데려와	-5467
▁데리러	-5468
▁데이터	-5469
▁돈이야	-5470
▁돼지가	-5471
▁뒤지기	-5472
▁때부터	-5473
▁마시면	-5474
▁만나고	-5475
▁말해라	-5476
▁먹는거	-5477
▁목숨이	-5478
▁못한다	-5479
▁미쳤네	-5480
▁바꾸고	-5481
▁바꿨어	-5482
▁방법이	-5483
▁보이네	-5484
▁본인이	-5485
▁부분이	-5486
▁비슷해	-5487
▁뿐인데	-5488
▁생겼냐	-5489
▁소문이	-5490
▁신경쓰	-5491
▁심한거	-5492
▁십만원	-5493
▁싶다고	-5494
▁싶었어	-5495
▁안그러	-5496
▁안그럴	-5497
▁안빌려	-5498
▁앉아서	-5499
▁알았지	-5500
▁야근을	-5501
▁얘기는	-5502
▁어디다	-5503
▁어쩌나	-5504
▁얼굴만	-5505
▁없도록	-5506
▁연예인	-5507
▁연차를	-5508
▁예전에	-5509
▁오후에	-5510
▁왔는데	-5511
▁왔어요	-5512
▁우리팀	-5513
▁월급을	-5514
▁윗사람	-5515
▁유명한	-5516
▁이기적	-5517
▁이따가	-5518
▁이래라	-5519
▁이런건	-5520
▁이자가	-5521
▁이해가	-5522
▁인생이	-5523
▁일일이	-5524
▁있나봐	-5525
▁자전거	-5526
▁잘어울	-5527
▁잘하면	-5528
▁재수가	-5529
▁정리해	-5530
▁주둥이	-5531
▁주라고	-5532
▁죽여줘	-5533
▁집안에	-5534
▁커피가	-5535
▁커피를	-5536
▁케이크	-5537
▁탕비실	-5538
▁피아노	-5539
▁하고는	-5540
▁하나는	-5541
▁할일이	-5542
▁해야할	-5543
▁환불은	-5544
▁환불이	-5545
▁휴가가	-5546
고싶으면	-5547
란말이야	-5548
해야겠다	-5549
해야겠어	-5550
해주시면	-5551
▁가져가면	-5552
▁그러다가	-5553
▁그럴리가	-5554
▁놓으세요	-5555
▁다니면서	-5556
▁다음달에	-5557
▁더러워서	-5558
▁되는거야	-5559
▁들었는데	-5560
▁들었어요	-5561
▁맛있는거	-5562
▁맛있었어	-5563
▁무사하지	-5564
▁무시하는	-5565
▁봐야겠다	-5566
▁불쌍해서	-5567
▁빌려달라	-5568
▁뻔뻔하게	-5569
▁생각이야	-5570
▁생각하는	-5571
▁생일인데	-5572
▁서비스가	-5573
▁소개시켜	-5574
▁수행평가	-5575
▁스타일이	-5576
▁아가씨가	-5577
▁아까부터	-5578
▁아까워서	-5579
▁아니거든	-5580
▁아저씨가	-5581
▁아주머니	-5582
▁아직까지	-5583
▁안되겠어	-5584
▁않을까요	-5585
▁어떡해요	-5586
▁어른한테	-5587
▁어쩌려고	-5588
▁언제부터	-5589
▁우리끼리	-5590
▁웃기지마	-5591
▁이쁘다고	-5592
▁인사평가	-5593
▁일이세요	-5594
▁잘했다고	-5595
▁장기라도	-5596
▁장난하나	-5597
▁좋겠어요	-5598
▁진심이야	-5599
▁진정하고	-5600
▁진짜에요	-5601
▁필요없고	-5602
▁할머니가	-5603
▁헤어지고	-5604
것같습니다	-5605
버릴테니까	-5606
▁가봐야겠다	-5607
▁고통스럽게	-5608
▁머리카락이	-5609
▁뭐라는거야	-5610
▁부탁드려요	-5611
▁사람들한테	-5612
▁신고할꺼야	-5613
▁좋은말할때	-5614
▁진정하시고	-5615
▁하라는대로	-5616
▁겪	-5617
▁깐	-5618
▁꺄	-5619
▁껌	-5620
▁껴	-5621
▁꼼	-5622
▁꿇	-5623
▁덩	-5624
▁됬	-5625
▁북	-5626
▁브	-5627
▁삶	-5628
▁석	-5629
▁쌓	-5630
▁왠	-5631
▁춥	-5632
▁컨	-5633
▁콱	-5634
▁탔	-5635
▁흔	-5636
가도	-5637
가라	-5638
걸요	-5639
겠군	-5640
겨워	-5641
고기	-5642
기지	-5643
나라	-5644
나와	-5645
누나	-5646
두면	-5647
라며	-5648
러가	-5649
루와	-5650
르신	-5651
리스	-5652
맞고	-5653
먹네	-5654
민아	-5655
버님	-5656
사도	-5657
상도	-5658
서트	-5659
선배	-5660
스틱	-5661
시가	-5662
시나	-5663
시킨	-5664
알고	-5665
얼마	-5666
여자	-5667
운전	-5668
위치	-5669
이든	-5670
이로	-5671
이리	-5672
인계	-5673
인을	-5674
있니	-5675
자료	-5676
장에	-5677
저히	-5678
조차	-5679
줘서	-5680
지씨	-5681
치가	-5682
판에	-5683
프다	-5684
휴가	-5685
희야	-5686
▁가을	-5687
▁개봉	-5688
▁거냐	-5689
▁걷는	-5690
▁걸렸	-5691
▁결국	-5692
▁고백	-5693
▁고아	-5694
▁골목	-5695
▁공지	-5696
▁과외	-5697
▁국어	-5698
▁그말	-5699
▁그어	-5700
▁금고	-5701
▁기준	-5702
▁꾸준	-5703
▁나네	-5704
▁나머	-5705
▁내릴	-5706
▁내에	-5707
▁넣고	-5708
▁노인	-5709
▁놈은	-5710
▁누워	-5711
▁늙은	-5712
▁다물	-5713
▁단골	-5714
▁단체	-5715
▁달달	-5716
▁담임	-5717
▁되죠	-5718
▁될거	-5719
▁따르	-5720
▁때가	-5721
▁라떼	-5722
▁마다	-5723
▁매운	-5724
▁먼지	-5725
▁목을	-5726
▁목이	-5727
▁뭐니	-5728
▁미래	-5729
▁밀린	-5730
▁바라	-5731
▁박혀	-5732
▁받기	-5733
▁받으	-5734
▁밥은	-5735
▁밥이	-5736
▁부른	-5737
▁불려	-5738
▁사인	-5739
▁살만	-5740
▁살빼	-5741
▁상처	-5742
▁생길	-5743
▁성형	-5744
▁소식	-5745
▁소용	-5746
▁속도	-5747
▁속상	-5748
▁슬슬	-5749
▁습관	-5750
▁신용	-5751
▁싸우	-5752
▁쑤셔	-5753
▁쓰러	-5754
▁쓰지	-5755
▁안사	-5756
▁안아	-5757
▁안지	-5758
▁않네	-5759
▁알게	-5760
▁암튼	-5761
▁앞이	-5762
▁애기	-5763
▁애미	-5764
▁야이	-5765
▁얘는	-5766
▁어리	-5767
▁어우	-5768
▁없니	-5769
▁여편	-5770
▁역겹	-5771
▁연가	-5772
▁열면	-5773
▁영어	-5774
▁오고	-5775
▁옷만	-5776
▁완성	-5777
▁왔네	-5778
▁왜저	-5779
▁요금	-5780
▁욕먹	-5781
▁워크	-5782
▁유지	-5783
▁의도	-5784
▁이새	-5785
▁일기	-5786
▁자유	-5787
▁자존	-5788
▁잘나	-5789
▁저래	-5790
▁적은	-5791
▁전교	-5792
▁조건	-5793
▁죽든	-5794
▁중독	-5795
▁직업	-5796
▁찌를	-5797
▁차로	-5798
▁창문	-5799
▁채워	-5800
▁처방	-5801
▁취직	-5802
▁칼퇴	-5803
▁콩팥	-5804
▁타서	-5805
▁택배	-5806
▁티켓	-5807
▁패딩	-5808
▁폭로	-5809
▁폭탄	-5810
▁폭행	-5811
▁한게	-5812
▁할인	-5813
▁행사	-5814
▁험한	-5815
▁훔쳐	-5816
▁힘이	-5817
가면서	-5818
갑니다	-5819
강대리	-5820
같은게	-5821
것들은	-5822
놓으면	-5823
는건가	-5824
더라도	-5825
된다고	-5826
들에게	-5827
때부터	-5828
려구요	-5829
말아줘	-5830
받아서	-5831
받은거	-5832
손으로	-5833
식이면	-5834
아니요	-5835
아휴직	-5836
었나요	-5837
온거야	-5838
을까요	-5839
이렇게	-5840
있잖아	-5841
콘서트	-5842
하기가	-5843
하기로	-5844
하하하	-5845
한것도	-5846
할꺼야	-5847
할께요	-5848
할텐데	-5849
해주는	-5850
헤어져	-5851
▁가는거	-5852
▁가려서	-5853
▁가시죠	-5854
▁가져갈	-5855
▁간다고	-5856
▁같네요	-5857
▁건드려	-5858
▁괜찮지	-5859
▁귀찮게	-5860
▁그랬지	-5861
▁그러나	-5862
▁그럼요	-5863
▁기다릴	-5864
▁기억나	-5865
▁길동이	-5866
▁김인턴	-5867
▁나가는	-5868
▁나니까	-5869
▁남한테	-5870
▁내놓으	-5871
▁내말이	-5872
▁너같이	-5873
▁너네는	-5874
▁누나가	-5875
▁느려서	-5876
▁능력도	-5877
▁대화를	-5878
▁돈주고	-5879
▁됐다고	-5880
▁될거야	-5881
▁뒤진다	-5882
▁드리면	-5883
▁떨어진	-5884
▁립스틱	-5885
▁마음만	-5886
▁만나는	-5887
▁만날까	-5888
▁많아요	-5889
▁말대로	-5890
▁말았어	-5891
▁말한거	-5892
▁말해서	-5893
▁말해주	-5894
▁말했어	-5895
▁맞춰서	-5896
▁매니저	-5897
▁머하냐	-5898
▁멋대로	-5899
▁멋있다	-5900
▁며칠만	-5901
▁모르면	-5902
▁못해주	-5903
▁무섭게	-5904
▁뭐라도	-5905
▁뭐하자	-5906
▁뭔소리	-5907
▁믿어줘	-5908
▁버스비	-5909
▁번째야	-5910
▁보라고	-5911
▁보여줘	-5912
▁불쌍한	-5913
▁비행기	-5914
▁사이즈	-5915
▁사줬어	-5916
▁사진은	-5917
▁생겼네	-5918
▁성격이	-5919
▁싸구려	-5920
▁쓰려고	-5921
▁아는게	-5922
▁아이는	-5923
▁아이들	-5924
▁알바생	-5925
▁얘기한	-5926
▁어린이	-5927
▁언니가	-5928
▁여자랑	-5929
▁오늘이	-5930
▁오라면	-5931
▁오빠는	-5932
▁옷차림	-5933
▁와야지	-5934
▁왜이리	-5935
▁우리반	-5936
▁우습게	-5937
▁웃기다	-5938
▁원하시	-5939
▁음식이	-5940
▁의원님	-5941
▁이따위	-5942
▁이러다	-5943
▁이유는	-5944
▁입으로	-5945
▁있어도	-5946
▁있었네	-5947
▁있을게	-5948
▁재밌을	-5949
▁좋아보	-5950
▁좋았어	-5951
▁줄거야	-5952
▁지방대	-5953
▁집에나	-5954
▁찌른다	-5955
▁차리지	-5956
▁책상에	-5957
▁철수야	-5958
▁퇴근할	-5959
▁틀린말	-5960
▁하는지	-5961
▁하루에	-5962
▁하지말	-5963
▁하하하	-5964
▁할건데	-5965
▁해드릴	-5966
▁해봤어	-5967
▁해서요	-5968
▁해주는	-5969
▁헛소문	-5970
▁힘들지	-5971
거같은데	-5972
고싶어서	-5973
는거예요	-5974
더라구요	-5975
야하는데	-5976
죄송해요	-5977
하는거지	-5978
▁가정교육	-5979
▁가져와라	-5980
▁가족들이	-5981
▁같아서요	-5982
▁궁금하지	-5983
▁그래서요	-5984
▁그랬는데	-5985
▁그런다고	-5986
▁그렇게는	-5987
▁그렇잖아	-5988
▁김대리가	-5989
▁꼬라지가	-5990
▁나같으면	-5991
▁나오라고	-5992
▁나한테만	-5993
▁내려놓고	-5994
▁대리님이	-5995
▁만만하냐	-5996
▁말했는데	-5997
▁모르니까	-5998
▁못생겼어	-5999
▁못알아듣	-6000
▁못차렸네	-6001
▁못하겠다	-6002
▁무시하냐	-6003
▁문제라도	-6004
▁보여줄게	-6005
▁빌려줄래	-6006
▁사람이랑	-6007
▁사오라고	-6008
▁상관인데	-6009
▁샌드위치	-6010
▁생각하면	-6011
▁소리하네	-6012
▁시작했어	-6013
▁아니고요	-6014
▁아버지가	-6015
▁안통하네	-6016
▁안했는데	-6017
▁애들이랑	-6018
▁얘기하자	-6019
▁어디까지	-6020
▁어려워요	-6021
▁어머니가	-6022
▁얼마전에	-6023
▁왜그래요	-6024
▁웃으면서	-6025
▁원하시는	-6026
▁육아휴직	-6027
▁이것들이	-6028
▁이런것도	-6029
▁인수인계	-6030
▁있으세요	-6031
▁자리에서	-6032
▁재밌잖아	-6033
▁정리해서	-6034
▁좋다는게	-6035
▁좋아해서	-6036
▁주문할게	-6037
▁죽어버릴	-6038
▁준비해서	-6039
▁지랄이야	-6040
▁협박하는	-6041
▁확인하고	-6042
▁힘들다고	-6043
▁가야하는데	-6044
▁가족들이랑	-6045
▁마지막으로	-6046
▁못했습니다	-6047
▁비밀번호를	-6048
▁신고합니다	-6049
▁알려주시면	-6050
▁없었습니다	-6051
▁있으신가요	-6052
▁정말이에요	-6053
▁너무하십니다	-6054
▁말씀이신가요	-6055
▁말씀이십니까	-6056
▁용서해주세요	-6057
▁다녀오겠습니다	-6058
▁꼰	-6059
▁뉴	-6060
▁댓	-6061
▁돋	-6062
▁뭡	-6063
▁밟	-6064
▁벽	-6065
▁쉴	-6066
▁앨	-6067
▁앵	-6068
▁엎	-6069
▁옳	-6070
▁왼	-6071
▁웅	-6072
▁웬	-6073
▁잇	-6074
▁즉	-6075
▁짱	-6076
▁텅	-6077
▁퉁	-6078
▁튕	-6079
▁틴	-6080
▁폼	-6081
▁푼	-6082
▁혈	-6083
가방	-6084
갖고	-6085
거니	-6086
거다	-6087
구질	-6088
길에	-6089
넷플	-6090
당해	-6091
대학	-6092
더만	-6093
드시	-6094
듣고	-6095
때문	-6096
땜에	-6097
란다	-6098
로서	-6099
리씨	-6100
릭스	-6101
마냥	-6102
먹은	-6103
먼저	-6104
명이	-6105
못해	-6106
무가	-6107
물을	-6108
박혀	-6109
보단	-6110
본다	-6111
봤지	-6112
비를	-6113
빼고	-6114
사를	-6115
사항	-6116
산부	-6117
소에	-6118
수록	-6119
시쯤	-6120
신다	-6121
아무	-6122
안을	-6123
억만	-6124
여도	-6125
연아	-6126
연히	-6127
온다	-6128
와요	-6129
움찔	-6130
으론	-6131
자를	-6132
잖어	-6133
전화	-6134
정을	-6135
져야	-6136
주가	-6137
주의	-6138
주행	-6139
지내	-6140
지은	-6141
진거	-6142
진씨	-6143
진이	-6144
집어	-6145
징어	-6146
책임	-6147
침에	-6148
카페	-6149
패드	-6150
프로	-6151
필요	-6152
학원	-6153
할께	-6154
함에	-6155
현이	-6156
회에	-6157
▁가벼	-6158
▁가장	-6159
▁감방	-6160
▁갔어	-6161
▁개가	-6162
▁걸리	-6163
▁계란	-6164
▁과제	-6165
▁구멍	-6166
▁구질	-6167
▁국물	-6168
▁굼벵	-6169
▁그깟	-6170
▁그돈	-6171
▁기가	-6172
▁기계	-6173
▁기생	-6174
▁김씨	-6175
▁까발	-6176
▁꼬맹	-6177
▁끼어	-6178
▁날아	-6179
▁내거	-6180
▁너와	-6181
▁눈알	-6182
▁뉴스	-6183
▁다쳤	-6184
▁달아	-6185
▁달은	-6186
▁대접	-6187
▁대출	-6188
▁돼서	-6189
▁디자	-6190
▁땅콩	-6191
▁뜨겁	-6192
▁마저	-6193
▁말지	-6194
▁맞게	-6195
▁맞네	-6196
▁맡아	-6197
▁머야	-6198
▁메일	-6199
▁명예	-6200
▁모텔	-6201
▁몸을	-6202
▁못나	-6203
▁못배	-6204
▁무례	-6205
▁물을	-6206
▁물품	-6207
▁뭘로	-6208
▁미용	-6209
▁민수	-6210
▁바른	-6211
▁반려	-6212
▁받지	-6213
▁밤길	-6214
▁방에	-6215
▁방향	-6216
▁배운	-6217
▁버릇	-6218
▁보관	-6219
▁복잡	-6220
▁본데	-6221
▁봐줄	-6222
▁봤나	-6223
▁부럽	-6224
▁붙어	-6225
▁붙잡	-6226
▁비타	-6227
▁빠르	-6228
▁빨아	-6229
▁사줘	-6230
▁살짝	-6231
▁서두	-6232
▁선생	-6233
▁선약	-6234
▁섭섭	-6235
▁성질	-6236
▁세일	-6237
▁소릴	-6238
▁순진	-6239
▁시리	-6240
▁신규	-6241
▁싫고	-6242
▁싸이	-6243
▁쓰게	-6244
▁쓴다	-6245
▁안경	-6246
▁안남	-6247
▁안둬	-6248
▁안먹	-6249
▁안주	-6250
▁안하	-6251
▁않지	-6252
▁애니	-6253
▁약국	-6254
▁어쩜	-6255
▁엉덩	-6256
▁여드	-6257
▁연말	-6258
▁예예	-6259
▁외로	-6260
▁운영	-6261
▁월세	-6262
▁위생	-6263
▁으응	-6264
▁이길	-6265
▁이놈	-6266
▁이동	-6267
▁이후	-6268
▁일어	-6269
▁잃을	-6270
▁임원	-6271
▁입원	-6272
▁잊지	-6273
▁자고	-6274
▁자연	-6275
▁잘들	-6276
▁재형	-6277
▁쟤랑	-6278
▁전학	-6279
▁정글	-6280
▁제게	-6281
▁좀더	-6282
▁죄가	-6283
▁주먹	-6284
▁지어	-6285
▁집착	-6286
▁짬뽕	-6287
▁쪽이	-6288
▁차릴	-6289
▁찾을	-6290
▁최악	-6291
▁출신	-6292
▁커플	-6293
▁쿵쿵	-6294
▁택시	-6295
▁토달	-6296
▁틴트	-6297
▁파일	-6298
▁포장	-6299
▁학폭	-6300
▁한심	-6301
▁한율	-6302
▁했고	-6303
▁했네	-6304
▁헬스	-6305
▁화내	-6306
▁확씨	-6307
▁훼손	-6308
갔는데	-6309
같은거	-6310
고싶은	-6311
기다려	-6312
김사원	-6313
꺼니까	-6314
난다고	-6315
는거다	-6316
다니는	-6317
들어서	-6318
만원씩	-6319
머리가	-6320
모가지	-6321
버려야	-6322
버리게	-6323
보자고	-6324
셨나요	-6325
시간을	-6326
시고요	-6327
시구요	-6328
시던데	-6329
아니냐	-6330
앞에서	-6331
없잖아	-6332
에서도	-6333
오늘은	-6334
이라면	-6335
일이야	-6336
지마라	-6337
치지마	-6338
테리어	-6339
하겠지	-6340
한가봐	-6341
한다며	-6342
했나봐	-6343
▁가방이	-6344
▁가진게	-6345
▁갚아야	-6346
▁계약서	-6347
▁고파서	-6348
▁곳에서	-6349
▁공짜로	-6350
▁귀여운	-6351
▁그랬나	-6352
▁나가면	-6353
▁나에게	-6354
▁난쟁이	-6355
▁남편은	-6356
▁내놓고	-6357
▁내놓지	-6358
▁너처럼	-6359
▁니새끼	-6360
▁다녀라	-6361
▁다녀야	-6362
▁다녀올	-6363
▁다녀요	-6364
▁담배피	-6365
▁당신도	-6366
▁당신들	-6367
▁됐잖아	-6368
▁되니까	-6369
▁등록금	-6370
▁땡기네	-6371
▁똑같아	-6372
▁많다고	-6373
▁많은거	-6374
▁말씀은	-6375
▁머리에	-6376
▁먹어요	-6377
▁모가지	-6378
▁모르네	-6379
▁모아서	-6380
▁목숨만	-6381
▁못차렸	-6382
▁못하겠	-6383
▁못하지	-6384
▁못해줘	-6385
▁못했어	-6386
▁무시해	-6387
▁뭐냐고	-6388
▁뭐해요	-6389
▁뭡니까	-6390
▁바람피	-6391
▁밖으로	-6392
▁밥이나	-6393
▁보기만	-6394
▁보자고	-6395
▁봐줘야	-6396
▁봤어요	-6397
▁블로그	-6398
▁비밀로	-6399
▁비상금	-6400
▁빌려가	-6401
▁사소한	-6402
▁사실이	-6403
▁사오면	-6404
▁사진이	-6405
▁산다고	-6406
▁상관이	-6407
▁생긴게	-6408
▁세상이	-6409
▁손녀를	-6410
▁손으로	-6411
▁수밖에	-6412
▁쉬어야	-6413
▁신고해	-6414
▁아들을	-6415
▁아버님	-6416
▁아이디	-6417
▁아이를	-6418
▁아이폰	-6419
▁안나오	-6420
▁안내놔	-6421
▁안돼면	-6422
▁안어울	-6423
▁안타깝	-6424
▁안하지	-6425
▁알았네	-6426
▁어때요	-6427
▁어렵게	-6428
▁어쩌다	-6429
▁억지로	-6430
▁언젠데	-6431
▁얼만데	-6432
▁업무는	-6433
▁없네요	-6434
▁여동생	-6435
▁연락도	-6436
▁옆에서	-6437
▁오늘만	-6438
▁오지마	-6439
▁오징어	-6440
▁오타쿠	-6441
▁이런데	-6442
▁이쁜데	-6443
▁이사님	-6444
▁이어폰	-6445
▁일이라	-6446
▁일하러	-6447
▁임산부	-6448
▁있는게	-6449
▁있다는	-6450
▁잊었어	-6451
▁자네를	-6452
▁자리가	-6453
▁자식들	-6454
▁잘해라	-6455
▁저새끼	-6456
▁저에게	-6457
▁전에도	-6458
▁정규직	-6459
▁정도로	-6460
▁정보가	-6461
▁주셔야	-6462
▁죽어라	-6463
▁죽이는	-6464
▁중독성	-6465
▁줬는데	-6466
▁지친다	-6467
▁직원이	-6468
▁집까지	-6469
▁집들이	-6470
▁집에만	-6471
▁찌그러	-6472
▁청소부	-6473
▁최고야	-6474
▁최고지	-6475
▁커피나	-6476
▁커피타	-6477
▁콘서트	-6478
▁털어서	-6479
▁특별한	-6480
▁팩트를	-6481
▁하나가	-6482
▁하려면	-6483
▁하여간	-6484
▁한것도	-6485
▁한번도	-6486
▁한시간	-6487
▁합시다	-6488
▁합의금	-6489
▁해보시	-6490
▁해봐라	-6491
▁해주라	-6492
▁형들이	-6493
▁혼자만	-6494
넷플릭스	-6495
는건가요	-6496
다니깐요	-6497
만원이야	-6498
보이는데	-6499
었잖아요	-6500
였습니다	-6501
이잖아요	-6502
잖습니까	-6503
장선생님	-6504
주십시오	-6505
지말라고	-6506
한다니까	-6507
할테니까	-6508
해가지고	-6509
▁가져올게	-6510
▁가주세요	-6511
▁경찰한테	-6512
▁과장님이	-6513
▁괜찮아요	-6514
▁구질구질	-6515
▁궁금해서	-6516
▁그러게요	-6517
▁그정도도	-6518
▁나발이고	-6519
▁나왔는데	-6520
▁다니는데	-6521
▁다시한번	-6522
▁다이어트	-6523
▁돈없는데	-6524
▁만들어서	-6525
▁말입니까	-6526
▁말했잖아	-6527
▁모르겠고	-6528
▁모릅니다	-6529
▁몰랐어요	-6530
▁못합니다	-6531
▁무슨상관	-6532
▁부탁해요	-6533
▁불편해서	-6534
▁빌려주는	-6535
▁사랑하는	-6536
▁사오라면	-6537
▁생각해도	-6538
▁소리에요	-6539
▁손가락이	-6540
▁심하신거	-6541
▁싸가지가	-6542
▁쓰레기야	-6543
▁아니구요	-6544
▁아이패드	-6545
▁안봤는데	-6546
▁안줬잖아	-6547
▁알아듣네	-6548
▁알아서해	-6549
▁알았는데	-6550
▁어디가서	-6551
▁얼마있냐	-6552
▁없으세요	-6553
▁오늘따라	-6554
▁왜그렇게	-6555
▁우리아빠	-6556
▁융통성이	-6557
▁음식에서	-6558
▁이자식이	-6559
▁잘못이지	-6560
▁재미없어	-6561
▁저한테만	-6562
▁죽고싶지	-6563
▁죽어야돼	-6564
▁죽어야지	-6565
▁준비하고	-6566
▁지나간다	-6567
▁직장생활	-6568
▁초등학교	-6569
▁추천해줘	-6570
▁출발할까	-6571
▁필요하신	-6572
▁학교생활	-6573
▁해야하는	-6574
▁했는데요	-6575
버리기전에	-6576
하지마세요	-6577
해주십시오	-6578
▁건드리지마	-6579
▁나왔습니다	-6580
▁남자친구는	-6581
▁너무하세요	-6582
▁말씀이시죠	-6583
▁무슨일인데	-6584
▁믿어주세요	-6585
▁사회생활을	-6586
▁쓰겠습니다	-6587
▁아시잖아요	-6588
▁아이스크림	-6589
▁어디있어요	-6590
▁오랜만이네	-6591
▁오랜만이다	-6592
▁왜그러는데	-6593
▁이러십니까	-6594
▁이렇게까지	-6595
▁잘못했나요	-6596
▁정말입니다	-6597
▁좋아하는데	-6598
▁말씀해주시면	-6599
▁죽여버리겠다	-6600
▁죽여버릴꺼야	-6601
▁지나치시네요	-6602
▁주의하겠습니다	-6603
▁넉	-6604
▁놨	-6605
▁랑	-6606
▁맥	-6607
▁벙	-6608
▁빽	-6609
▁뻥	-6610
▁셀	-6611
▁셋	-6612
▁썰	-6613
▁젓	-6614
▁좁	-6615
▁좆	-6616
▁첨	-6617
▁켜	-6618
▁턱	-6619
▁틱	-6620
▁페	-6621
▁풍	-6622
▁픽	-6623
▁혜	-6624
▁황	-6625
감이	-6626
같애	-6627
것좀	-6628
겠죠	-6629
겼어	-6630
경찰	-6631
구먼	-6632
구야	-6633
군데	-6634
그거	-6635
급자	-6636
기간	-6637
기면	-6638
꺼면	-6639
누가	-6640
누라	-6641
는줄	-6642
다나	-6643
다른	-6644
대고	-6645
도리	-6646
돌아	-6647
둔다	-6648
랑은	-6649
러서	-6650
렸냐	-6651
로만	-6652
마워	-6653
문제	-6654
미리	-6655
병님	-6656
보관	-6657
봐봐	-6658
부르	-6659
분도	-6660
비만	-6661
뿐만	-6662
석이	-6663
성을	-6664
세여	-6665
수고	-6666
아치	-6667
야이	-6668
약속	-6669
어때	-6670
얼굴	-6671
었니	-6672
온거	-6673
왔네	-6674
왜요	-6675
원당	-6676
위에	-6677
이익	-6678
이틀	-6679
입고	-6680
작권	-6681
잔아	-6682
저녁	-6683
제품	-6684
조심	-6685
좋아	-6686
주자	-6687
지르	-6688
짜리	-6689
치만	-6690
치워	-6691
토바	-6692
폭력	-6693
피스	-6694
하단	-6695
하대	-6696
하든	-6697
하셔	-6698
학금	-6699
한적	-6700
할지	-6701
했니	-6702
환불	-6703
흐흐	-6704
히게	-6705
히는	-6706
히려	-6707
▁가나	-6708
▁가짜	-6709
▁갈취	-6710
▁감시	-6711
▁감자	-6712
▁개만	-6713
▁건조	-6714
▁경쟁	-6715
▁계신	-6716
▁고의	-6717
▁곳에	-6718
▁관련	-6719
▁교복	-6720
▁교실	-6721
▁교정	-6722
▁규칙	-6723
▁그나	-6724
▁근거	-6725
▁글씨	-6726
▁기부	-6727
▁기술	-6728
▁기자	-6729
▁길이	-6730
▁김에	-6731
▁깜짝	-6732
▁꼴을	-6733
▁끌고	-6734
▁끝났	-6735
▁끝낼	-6736
▁끼고	-6737
▁나빴	-6738
▁나씨	-6739
▁날이	-6740
▁남이	-6741
▁낳고	-6742
▁내차	-6743
▁넘길	-6744
▁년이	-6745
▁노숙	-6746
▁높은	-6747
▁눈도	-6748
▁다냐	-6749
▁다쳐	-6750
▁달고	-6751
▁담에	-6752
▁대꾸	-6753
▁대들	-6754
▁데로	-6755
▁도착	-6756
▁독립	-6757
▁되기	-6758
▁되요	-6759
▁둘째	-6760
▁드는	-6761
▁따져	-6762
▁뜻은	-6763
▁막아	-6764
▁만점	-6765
▁만져	-6766
▁많다	-6767
▁말라	-6768
▁말하	-6769
▁망신	-6770
▁맞추	-6771
▁맡기	-6772
▁맡긴	-6773
▁매장	-6774
▁머가	-6775
▁면접	-6776
▁명심	-6777
▁모금	-6778
▁모은	-6779
▁못내	-6780
▁무겁	-6781
▁묶어	-6782
▁묻어	-6783
▁뭐긴	-6784
▁미치	-6785
▁믿지	-6786
▁바나	-6787
▁바다	-6788
▁바지	-6789
▁반대	-6790
▁반복	-6791
▁발언	-6792
▁밤새	-6793
▁방송	-6794
▁배웠	-6795
▁번을	-6796
▁베트	-6797
▁벼텨	-6798
▁보답	-6799
▁보소	-6800
▁보통	-6801
▁부지	-6802
▁빠지	-6803
▁뿌듯	-6804
▁사건	-6805
▁살까	-6806
▁새도	-6807
▁생리	-6808
▁서봐	-6809
▁선임	-6810
▁설탕	-6811
▁세차	-6812
▁셔츠	-6813
▁소비	-6814
▁수영	-6815
▁수작	-6816
▁식구	-6817
▁심각	-6818
▁심심	-6819
▁싹싹	-6820
▁아기	-6821
▁아악	-6822
▁안고	-6823
▁알릴	-6824
▁애플	-6825
▁얘네	-6826
▁얘랑	-6827
▁어두	-6828
▁어쨋	-6829
▁없긴	-6830
▁없죠	-6831
▁역할	-6832
▁오전	-6833
▁완료	-6834
▁외근	-6835
▁욕심	-6836
▁욕을	-6837
▁우산	-6838
▁우수	-6839
▁위한	-6840
▁윗분	-6841
▁유행	-6842
▁입다	-6843
▁입맛	-6844
▁잊어	-6845
▁자자	-6846
▁잠이	-6847
▁장담	-6848
▁장식	-6849
▁쟤가	-6850
▁적금	-6851
▁전염	-6852
▁제삿	-6853
▁종이	-6854
▁종일	-6855
▁죄를	-6856
▁주기	-6857
▁주시	-6858
▁주실	-6859
▁주워	-6860
▁주인	-6861
▁줄도	-6862
▁줘요	-6863
▁줬어	-6864
▁지났	-6865
▁지수	-6866
▁지인	-6867
▁지적	-6868
▁질질	-6869
▁찍는	-6870
▁찍을	-6871
▁착한	-6872
▁채용	-6873
▁최소	-6874
▁출산	-6875
▁충전	-6876
▁취향	-6877
▁치는	-6878
▁치지	-6879
▁친절	-6880
▁침해	-6881
▁칼은	-6882
▁콜라	-6883
▁키웠	-6884
▁타는	-6885
▁타면	-6886
▁토나	-6887
▁튀어	-6888
▁판매	-6889
▁피가	-6890
▁픽업	-6891
▁학력	-6892
▁해놔	-6893
▁향수	-6894
▁화나	-6895
▁화해	-6896
▁후기	-6897
▁흉내	-6898
가는데	-6899
같지도	-6900
거리고	-6901
겠구나	-6902
냄새나	-6903
는건지	-6904
대리는	-6905
던데요	-6906
드리지	-6907
듭니다	-6908
똑바로	-6909
란말야	-6910
만원을	-6911
말이지	-6912
받아야	-6913
버리자	-6914
살려줘	-6915
상태가	-6916
셔서요	-6917
수밖에	-6918
수한테	-6919
아아악	-6920
안하면	-6921
애들은	-6922
였어요	-6923
왔다고	-6924
왜그래	-6925
월이네	-6926
으로는	-6927
으시죠	-6928
은거지	-6929
이더라	-6930
이벤트	-6931
인가봐	-6932
자네는	-6933
자마자	-6934
적이야	-6935
정에서	-6936
주겠다	-6937
주라고	-6938
주머니	-6939
중하게	-6940
줬다고	-6941
지는거	-6942
하고는	-6943
하구나	-6944
하는것	-6945
하시네	-6946
해줘야	-6947
했구나	-6948
▁!!!	-6949
▁가격이	-6950
▁가봤어	-6951
▁갔는데	-6952
▁강남역	-6953
▁강대리	-6954
▁갖고와	-6955
▁같은건	-6956
▁같은게	-6957
▁개소리	-6958
▁걸어서	-6959
▁경찰이	-6960
▁곤란해	-6961
▁공부해	-6962
▁구해오	-6963
▁규정상	-6964
▁그따위	-6965
▁그러긴	-6966
▁그런줄	-6967
▁그렇긴	-6968
▁기분도	-6969
▁기생충	-6970
▁기운이	-6971
▁길동아	-6972
▁꾸미고	-6973
▁꾸준히	-6974
▁나머지	-6975
▁나쁘다	-6976
▁나오네	-6977
▁나온다	-6978
▁나이에	-6979
▁내야지	-6980
▁내일에	-6981
▁너죽고	-6982
▁너희가	-6983
▁놀다가	-6984
▁놀리면	-6985
▁놀이터	-6986
▁늙어서	-6987
▁다녀서	-6988
▁담배를	-6989
▁대로만	-6990
▁돈가져	-6991
▁돈인데	-6992
▁돌았나	-6993
▁된거야	-6994
▁뒤집어	-6995
▁드세요	-6996
▁딸한테	-6997
▁때리면	-6998
▁뜨거운	-6999
▁레벨업	-7000
▁로미씨	-7001
▁마시는	-7002
▁말씀해	-7003
▁말했지	-7004
▁명심해	-7005
▁못나가	-7006
▁못하냐	-7007
▁무릎꿇	-7008
▁문열어	-7009
▁미루고	-7010
▁미용실	-7011
▁밑에서	-7012
▁반지하	-7013
▁발전이	-7014
▁벗어봐	-7015
▁보면서	-7016
▁봐주면	-7017
▁봤다고	-7018
▁부러워	-7019
▁불러서	-7020
▁불쌍해	-7021
▁불편해	-7022
▁빌려서	-7023
▁사먹을	-7024
▁살라고	-7025
▁살려내	-7026
▁상대방	-7027
▁새끼는	-7028
▁생각도	-7029
▁생겼다	-7030
▁서두르	-7031
▁선택권	-7032
▁신입은	-7033
▁싫다면	-7034
▁싸이코	-7035
▁아까는	-7036
▁아껴서	-7037
▁아니네	-7038
▁아이돌	-7039
▁아직은	-7040
▁안되어	-7041
▁안보고	-7042
▁안한다	-7043
▁않아서	-7044
▁알겠냐	-7045
▁앞으론	-7046
▁양아치	-7047
▁어디지	-7048
▁어떤거	-7049
▁어려우	-7050
▁어르신	-7051
▁어쩌냐	-7052
▁어쩔래	-7053
▁어처피	-7054
▁얼굴로	-7055
▁얼마가	-7056
▁엄마랑	-7057
▁없나봐	-7058
▁없다며	-7059
▁여러번	-7060
▁연락해	-7061
▁오빠도	-7062
▁오세요	-7063
▁오전에	-7064
▁오천원	-7065
▁오토바	-7066
▁올려놔	-7067
▁요즘은	-7068
▁움직여	-7069
▁원피스	-7070
▁월급이	-7071
▁유난히	-7072
▁음식을	-7073
▁의미로	-7074
▁이뻐서	-7075
▁이쁘고	-7076
▁이상은	-7077
▁일인데	-7078
▁일해야	-7079
▁있냐고	-7080
▁자체가	-7081
▁잖아요	-7082
▁잘못된	-7083
▁잘생겼	-7084
▁재미로	-7085
▁저녁은	-7086
▁저작권	-7087
▁정도가	-7088
▁정말로	-7089
▁정주행	-7090
▁조심히	-7091
▁좋을까	-7092
▁죄송해	-7093
▁주임님	-7094
▁죽었어	-7095
▁죽이면	-7096
▁중간에	-7097
▁중으로	-7098
▁지겨워	-7099
▁지겹다	-7100
▁지수씨	-7101
▁지워줘	-7102
▁지은씨	-7103
▁지쳤어	-7104
▁쪽으로	-7105
▁쪽팔려	-7106
▁차가운	-7107
▁쳐다보	-7108
▁쳐맞기	-7109
▁쳐박혀	-7110
▁취소해	-7111
▁카드값	-7112
▁크리스	-7113
▁통하네	-7114
▁핑계대	-7115
▁하겠어	-7116
▁하던지	-7117
▁하루종	-7118
▁한대다	-7119
▁할까요	-7120
▁해보고	-7121
▁해줄수	-7122
▁해줘야	-7123
▁했나요	-7124
▁했더니	-7125
▁행동을	-7126
▁행사가	-7127
▁허락도	-7128
▁형님이	-7129
▁화이팅	-7130
▁환자분	-7131
▁회식도	-7132
▁힘들것	-7133
내일까지	-7134
다는거야	-7135
시잖아요	-7136
았습니다	-7137
애들한테	-7138
하는데요	-7139
하셨어요	-7140
하셨으면	-7141
해야하는	-7142
해주니까	-7143
▁가만안둬	-7144
▁가져와서	-7145
▁가져왔어	-7146
▁감사해요	-7147
▁갚을거야	-7148
▁거짓말을	-7149
▁걸어다니	-7150
▁고생했네	-7151
▁괜찮았어	-7152
▁교통사고	-7153
▁그때까지	-7154
▁그런것도	-7155
▁그럴거면	-7156
▁기다려봐	-7157
▁길동씨는	-7158
▁나오는데	-7159
▁나와야지	-7160
▁내리라고	-7161
▁넷플릭스	-7162
▁니돈으로	-7163
▁다녀야지	-7164
▁답답해서	-7165
▁돌려주면	-7166
▁돌아다니	-7167
▁드릴께요	-7168
▁드립니다	-7169
▁따라하지	-7170
▁떨어져서	-7171
▁똑바로해	-7172
▁뚱뚱하고	-7173
▁말해줘야	-7174
▁맞아볼래	-7175
▁먹어야지	-7176
▁몇번째야	-7177
▁모르는데	-7178
▁못생기고	-7179
▁미친것아	-7180
▁받으려고	-7181
▁버스비가	-7182
▁보자보자	-7183
▁부탁하면	-7184
▁불편하게	-7185
▁불편하면	-7186
▁빌려주지	-7187
▁빌려줘봐	-7188
▁뿐이에요	-7189
▁사람답게	-7190
▁사람으로	-7191
▁사실인데	-7192
▁사야겠다	-7193
▁사준거야	-7194
▁손가락을	-7195
▁아무거나	-7196
▁안되나요	-7197
▁안둘거야	-7198
▁않았는데	-7199
▁알아야지	-7200
▁어떡하지	-7201
▁어머님이	-7202
▁없을까요	-7203
▁예전부터	-7204
▁오기전에	-7205
▁와이프가	-7206
▁우리가족	-7207
▁이러고도	-7208
▁이러시는	-7209
▁이사람이	-7210
▁이자식아	-7211
▁일주일에	-7212
▁일하는데	-7213
▁있어야지	-7214
▁있었으면	-7215
▁있을거야	-7216
▁있을텐데	-7217
▁저래라야	-7218
▁저번주에	-7219
▁죽겠는데	-7220
▁직원들은	-7221
▁친구들이	-7222
▁카페에서	-7223
▁하고싶은	-7224
▁하는거지	-7225
▁헤어지는	-7226
▁힘들겠다	-7227
거같습니다	-7228
버릴거니까	-7229
▁개인적으로	-7230
▁괴롭히지마	-7231
▁기어오르네	-7232
▁돌려줘야해	-7233
▁말씀하시면	-7234
▁미안합니다	-7235
▁빌려주는게	-7236
▁빌려주세요	-7237
▁생각하지마	-7238
▁생일선물로	-7239
▁소개시켜줘	-7240
▁시끄러워서	-7241
▁안갚았잖아	-7242
▁약속있어요	-7243
▁점심시간에	-7244
▁정신차려라	-7245
▁친구사이에	-7246
▁풀어주세요	-7247
▁헤어지자는	-7248
▁화장실에서	-7249
▁부탁드릴게요	-7250
▁사과해주세요	-7251
▁살려주십시오	-7252
▁안녕하십니까	-7253
▁협박하는거야	-7254
▁무슨말씀이신지	-7255
▁무슨일이십니까	-7256
▁조심하겠습니다	-7257
10	-7258
▁겸	-7259
▁깎	-7260
▁낡	-7261
▁닌	-7262
▁댄	-7263
▁덤	-7264
▁뵙	-7265
▁빙	-7266
▁싱	-7267
▁싼	-7268
▁쏟	-7269
▁씩	-7270
▁왤	-7271
▁젤	-7272
▁족	-7273
▁좌	-7274
▁쩔	-7275
▁측	-7276
▁층	-7277
▁팍	-7278
▁팝	-7279
▁펴	-7280
▁횡	-7281
가자	-7282
간거	-7283
값을	-7284
것만	-7285
계가	-7286
고과	-7287
곳에	-7288
궁창	-7289
급이	-7290
까진	-7291
꺼져	-7292
냉이	-7293
놈아	-7294
놔야	-7295
는걸	-7296
대신	-7297
대회	-7298
도로	-7299
돈은	-7300
뒤룩	-7301
뒹굴	-7302
들었	-7303
디션	-7304
때도	-7305
랗게	-7306
러지	-7307
렀어	-7308
로써	-7309
로워	-7310
류가	-7311
리셉	-7312
린거	-7313
린데	-7314
마음	-7315
만나	-7316
머스	-7317
먹이	-7318
뭐냐	-7319
미디	-7320
버거	-7321
번째	-7322
보시	-7323
봐서	-7324
분만	-7325
분은	-7326
비는	-7327
삼촌	-7328
새도	-7329
생긴	-7330
생이	-7331
서로	-7332
석아	-7333
선씨	-7334
실까	-7335
쓰고	-7336
아까	-7337
아직	-7338
안나	-7339
어딨	-7340
어른	-7341
어휴	-7342
억을	-7343
언니	-7344
에에	-7345
역국	-7346
오라	-7347
용해	-7348
워치	-7349
웹툰	-7350
으실	-7351
은품	-7352
을지	-7353
이건	-7354
장고	-7355
장소	-7356
저는	-7357
저희	-7358
적도	-7359
정한	-7360
져요	-7361
조용	-7362
주게	-7363
주말	-7364
중요	-7365
줘도	-7366
줘라	-7367
진아	-7368
짜증	-7369
치냐	-7370
카롱	-7371
컹크	-7372
크림	-7373
타고	-7374
통이	-7375
트로	-7376
포트	-7377
하며	-7378
한것	-7379
한대	-7380
해줄	-7381
햇어	-7382
혔어	-7383
호씨	-7384
화가	-7385
.?.	-7386
▁.!	-7387
▁?!	-7388
▁가볍	-7389
▁가입	-7390
▁가질	-7391
▁간이	-7392
▁간호	-7393
▁갈비	-7394
▁강매	-7395
▁갚는	-7396
▁개념	-7397
▁개빡	-7398
▁건너	-7399
▁건방	-7400
▁걸릴	-7401
▁것좀	-7402
▁결재	-7403
▁고용	-7404
▁곳이	-7405
▁공사	-7406
▁공연	-7407
▁구걸	-7408
▁국가	-7409
▁권리	-7410
▁귀가	-7411
▁김지	-7412
▁까칠	-7413
▁깍아	-7414
▁꺄악	-7415
▁꽤나	-7416
▁꿈도	-7417
▁끓여	-7418
▁나고	-7419
▁난리	-7420
▁남들	-7421
▁내내	-7422
▁내도	-7423
▁내부	-7424
▁내주	-7425
▁너에	-7426
▁너지	-7427
▁넉넉	-7428
▁넣을	-7429
▁놀라	-7430
▁늦어	-7431
▁니도	-7432
▁다운	-7433
▁다이	-7434
▁다치	-7435
▁단무	-7436
▁달만	-7437
▁닮은	-7438
▁당직	-7439
▁당할	-7440
▁당해	-7441
▁더듬	-7442
▁도장	-7443
▁독서	-7444
▁동창	-7445
▁두꺼	-7446
▁두달	-7447
▁뒤룩	-7448
▁뒤쳐	-7449
▁듣네	-7450
▁들렸	-7451
▁등신	-7452
▁때도	-7453
▁라고	-7454
▁마트	-7455
▁만지	-7456
▁많지	-7457
▁말다	-7458
▁말던	-7459
▁말좀	-7460
▁매주	-7461
▁멀리	-7462
▁모으	-7463
▁못살	-7464
▁물려	-7465
▁뭐를	-7466
▁뭘요	-7467
▁미쳐	-7468
▁민망	-7469
▁바빴	-7470
▁반갑	-7471
▁반찬	-7472
▁반항	-7473
▁받네	-7474
▁발끈	-7475
▁밥을	-7476
▁방침	-7477
▁버텨	-7478
▁번쩍	-7479
▁벙어	-7480
▁보시	-7481
▁본사	-7482
▁볼게	-7483
▁봤냐	-7484
▁봤자	-7485
▁부드	-7486
▁부산	-7487
▁북한	-7488
▁비겁	-7489
▁비교	-7490
▁비꼬	-7491
▁비해	-7492
▁빠진	-7493
▁빨랑	-7494
▁빨래	-7495
▁빼라	-7496
▁사례	-7497
▁사유	-7498
▁사직	-7499
▁상식	-7500
▁상실	-7501
▁새거	-7502
▁생색	-7503
▁손도	-7504
▁수치	-7505
▁술도	-7506
▁숨어	-7507
▁쉬워	-7508
▁신뢰	-7509
▁싹다	-7510
▁쐬고	-7511
▁쓸모	-7512
▁아따	-7513
▁안와	-7514
▁안준	-7515
▁않니	-7516
▁애매	-7517
▁약을	-7518
▁약점	-7519
▁양반	-7520
▁양해	-7521
▁어렸	-7522
▁얼룩	-7523
▁에어	-7524
▁연휴	-7525
▁영영	-7526
▁영원	-7527
▁옆집	-7528
▁오줌	-7529
▁올래	-7530
▁왜그	-7531
▁왜긴	-7532
▁왠지	-7533
▁외출	-7534
▁요청	-7535
▁욕은	-7536
▁우웩	-7537
▁운이	-7538
▁원망	-7539
▁으이	-7540
▁음주	-7541
▁이곳	-7542
▁이르	-7543
▁이옷	-7544
▁이웃	-7545
▁인성	-7546
▁일좀	-7547
▁일할	-7548
▁일해	-7549
▁입술	-7550
▁입었	-7551
▁입에	-7552
▁입이	-7553
▁자를	-7554
▁작아	-7555
▁잘할	-7556
▁잠만	-7557
▁잤어	-7558
▁재워	-7559
▁저게	-7560
▁저승	-7561
▁저의	-7562
▁적어	-7563
▁전체	-7564
▁전환	-7565
▁정시	-7566
▁조절	-7567
▁조퇴	-7568
▁주방	-7569
▁죽지	-7570
▁직무	-7571
▁진실	-7572
▁집도	-7573
▁징계	-7574
▁짤라	-7575
▁채널	-7576
▁처럼	-7577
▁천국	-7578
▁철수	-7579
▁촉박	-7580
▁추억	-7581
▁추워	-7582
▁치우	-7583
▁친해	-7584
▁코트	-7585
▁크지	-7586
▁클럽	-7587
▁탈출	-7588
▁태워	-7589
▁퇴직	-7590
▁티내	-7591
▁퍼트	-7592
▁폭발	-7593
▁피를	-7594
▁학벌	-7595
▁한건	-7596
▁한식	-7597
▁해놓	-7598
▁해오	-7599
▁허리	-7600
▁형도	-7601
▁호텔	-7602
▁화를	-7603
▁환영	-7604
▁흥미	-7605
▁힘도	-7606
거아냐	-7607
것까지	-7608
고마워	-7609
고싶지	-7610
그치만	-7611
까지만	-7612
낼거야	-7613
넘어가	-7614
니까요	-7615
다가는	-7616
다구요	-7617
더라구	-7618
되나요	-7619
되는거	-7620
되잖아	-7621
라니요	-7622
려는데	-7623
렸으면	-7624
리셉터	-7625
먹어서	-7626
민수씨	-7627
민수야	-7628
베이터	-7629
볼께요	-7630
시간은	-7631
시겠다	-7632
시키지	-7633
실까요	-7634
아침에	-7635
안으로	-7636
안했어	-7637
않아요	-7638
애들아	-7639
야겠네	-7640
없다고	-7641
었거든	-7642
여기요	-7643
였다고	-7644
으라면	-7645
을수도	-7646
이예요	-7647
자기야	-7648
자나요	-7649
자식이	-7650
제발요	-7651
플레인	-7652
하고싶	-7653
하라는	-7654
한번만	-7655
한지가	-7656
해주라	-7657
희씨는	-7658
▁가게는	-7659
▁가리고	-7660
▁가방을	-7661
▁가벼운	-7662
▁강냉이	-7663
▁강제로	-7664
▁갚으면	-7665
▁거지가	-7666
▁거지냐	-7667
▁건데요	-7668
▁건들면	-7669
▁고객이	-7670
▁고소할	-7671
▁공부를	-7672
▁괴롭힐	-7673
▁귓구멍	-7674
▁그래픽	-7675
▁그런걸	-7676
▁그렇다	-7677
▁그모양	-7678
▁그전에	-7679
▁기회다	-7680
▁김과장	-7681
▁김비서	-7682
▁김사장	-7683
▁까라면	-7684
▁꼬마야	-7685
▁끝나면	-7686
▁나가봐	-7687
▁나갈래	-7688
▁나쁘면	-7689
▁나와요	-7690
▁나이든	-7691
▁남자랑	-7692
▁남친이	-7693
▁내꺼야	-7694
▁내말에	-7695
▁내용도	-7696
▁너까지	-7697
▁너라고	-7698
▁녀석이	-7699
▁노숙자	-7700
▁놀리지	-7701
▁눈치껏	-7702
▁니네집	-7703
▁니들이	-7704
▁다니니	-7705
▁다르게	-7706
▁다리도	-7707
▁다물고	-7708
▁다해서	-7709
▁당신의	-7710
▁당하기	-7711
▁당해봐	-7712
▁대기업	-7713
▁대답도	-7714
▁도저히	-7715
▁독약을	-7716
▁돌아서	-7717
▁됐는데	-7718
▁됐으면	-7719
▁되겠지	-7720
▁될텐데	-7721
▁드려야	-7722
▁드려요	-7723
▁들어야	-7724
▁들어요	-7725
▁따라가	-7726
▁땡땡씨	-7727
▁떨어질	-7728
▁마누라	-7729
▁막내가	-7730
▁막혀서	-7731
▁만나러	-7732
▁많았어	-7733
▁말랬지	-7734
▁말아요	-7735
▁말이나	-7736
▁말이면	-7737
▁말인가	-7738
▁머리로	-7739
▁먹어봐	-7740
▁먹어야	-7741
▁메일로	-7742
▁몇인데	-7743
▁모시고	-7744
▁몰라도	-7745
▁못들어	-7746
▁못빌려	-7747
▁뭐예요	-7748
▁뭔가요	-7749
▁미역국	-7750
▁바빠요	-7751
▁발가락	-7752
▁범죄자	-7753
▁베트남	-7754
▁보내라	-7755
▁본다고	-7756
▁봅시다	-7757
▁부딪혔	-7758
▁부러뜨	-7759
▁부족한	-7760
▁부탁한	-7761
▁불러와	-7762
▁불질러	-7763
▁빌려준	-7764
▁빠졌어	-7765
▁빠지면	-7766
▁빨리해	-7767
▁뽑아서	-7768
▁사귀어	-7769
▁사기꾼	-7770
▁사려고	-7771
▁사실만	-7772
▁사은품	-7773
▁사회에	-7774
▁삭제해	-7775
▁산거야	-7776
▁살아야	-7777
▁살지마	-7778
▁상담원	-7779
▁새끼를	-7780
▁색깔이	-7781
▁생긴거	-7782
▁생활비	-7783
▁센스가	-7784
▁소름끼	-7785
▁수준이	-7786
▁쉬려고	-7787
▁쉬었어	-7788
▁스토킹	-7789
▁승진도	-7790
▁시간만	-7791
▁시비걸	-7792
▁시켜서	-7793
▁신경을	-7794
▁싫다는	-7795
▁싶다는	-7796
▁써보자	-7797
▁쓰는데	-7798
▁쓰라고	-7799
▁아깝다	-7800
▁아끼는	-7801
▁아빠는	-7802
▁아빠랑	-7803
▁아진짜	-7804
▁아프다	-7805
▁안다고	-7806
▁안돌려	-7807
▁안되면	-7808
▁안먹어	-7809
▁안오면	-7810
▁안좋은	-7811
▁안죽어	-7812
▁안해줘	-7813
▁애들을	-7814
▁어른이	-7815
▁어쨋든	-7816
▁없구나	-7817
▁없을까	-7818
▁에이씨	-7819
▁여자들	-7820
▁예약해	-7821
▁예의가	-7822
▁오른쪽	-7823
▁오해는	-7824
▁오히려	-7825
▁왔으면	-7826
▁우울증	-7827
▁운동화	-7828
▁운전을	-7829
▁의견을	-7830
▁이사람	-7831
▁이세상	-7832
▁인사를	-7833
▁인사팀	-7834
▁일하기	-7835
▁읽으면	-7836
▁입어야	-7837
▁있을지	-7838
▁자격이	-7839
▁작성해	-7840
▁잘모르	-7841
▁잘할게	-7842
▁잘했어	-7843
▁장학금	-7844
▁재미있	-7845
▁재형아	-7846
▁전부터	-7847
▁젓가락	-7848
▁정대리	-7849
▁정신적	-7850
▁정현이	-7851
▁정확히	-7852
▁제삿날	-7853
▁주말엔	-7854
▁죽어요	-7855
▁죽여도	-7856
▁죽여봐	-7857
▁죽이러	-7858
▁지금요	-7859
▁지나갈	-7860
▁지내고	-7861
▁지수야	-7862
▁직장이	-7863
▁차리고	-7864
▁체육복	-7865
▁친하게	-7866
▁카드로	-7867
▁컨디션	-7868
▁코끼리	-7869
▁코미디	-7870
▁퇴근을	-7871
▁판단해	-7872
▁평소에	-7873
▁피해보	-7874
▁하겠다	-7875
▁하느라	-7876
▁하는건	-7877
▁하더라	-7878
▁하셔야	-7879
▁하시죠	-7880
▁하자고	-7881
▁학원도	-7882
▁한건데	-7883
▁한계가	-7884
▁할께요	-7885
▁할만큼	-7886
▁할테니	-7887
▁행동이	-7888
▁허구한	-7889
▁헤어진	-7890
▁현우야	-7891
▁홍길동	-7892
▁화장도	-7893
▁화장이	-7894
▁회사로	-7895
▁회식은	-7896
▁회의가	-7897
버리겠어	-7898
시간이나	-7899
실거에요	-7900
아닌가요	-7901
었어야지	-7902
으려니까	-7903
이라는데	-7904
져가지고	-7905
중입니다	-7906
해서라도	-7907
?????	-7908
▁2000	-7909
▁5000	-7910
▁가져가지	-7911
▁가져오면	-7912
▁가족까지	-7913
▁가족들은	-7914
▁가족만은	-7915
▁갑자기요	-7916
▁갚아야지	-7917
▁경찰서에	-7918
▁고객센터	-7919
▁고등학생	-7920
▁고민이야	-7921
▁구해올게	-7922
▁궁금하다	-7923
▁그냥줄래	-7924
▁그따구로	-7925
▁그러냐고	-7926
▁그러는거	-7927
▁그런가요	-7928
▁그렇겠지	-7929
▁금요일에	-7930
▁기본적인	-7931
▁김대리는	-7932
▁김대리님	-7933
▁나한테는	-7934
▁냄새나는	-7935
▁너무하네	-7936
▁누구신데	-7937
▁다니라고	-7938
▁다음에는	-7939
▁답답하게	-7940
▁당연하죠	-7941
▁더이상은	-7942
▁도와줄까	-7943
▁돈없어요	-7944
▁뒤룩뒤룩	-7945
▁드릴까요	-7946
▁들어가는	-7947
▁들어야지	-7948
▁뚱뚱해서	-7949
▁만들어와	-7950
▁많으니까	-7951
▁말로할때	-7952
▁말씀드린	-7953
▁말이라고	-7954
▁말한건데	-7955
▁맞기전에	-7956
▁맞으시죠	-7957
▁매점에서	-7958
▁모르겠다	-7959
▁못하잖아	-7960
▁못헤어져	-7961
▁무시하고	-7962
▁미리미리	-7963
▁미친놈이	-7964
▁바로바로	-7965
▁받아들이	-7966
▁버릴거야	-7967
▁병원에서	-7968
▁보낼게요	-7969
▁부당한거	-7970
▁부모님께	-7971
▁부모한테	-7972
▁부탁인데	-7973
▁부탁한다	-7974
▁불편하다	-7975
▁사람들도	-7976
▁사랑해서	-7977
▁상관없어	-7978
▁선물받은	-7979
▁손님한테	-7980
▁손모가지	-7981
▁시작이네	-7982
▁시켰는데	-7983
▁신기하다	-7984
▁신기해서	-7985
▁싶었는데	-7986
▁안나오면	-7987
▁안되는게	-7988
▁안들었어	-7989
▁안좋은데	-7990
▁안할거야	-7991
▁얘기하고	-7992
▁어느정도	-7993
▁어디가냐	-7994
▁어려워서	-7995
▁어울리지	-7996
▁없는건가	-7997
▁없어서야	-7998
▁연락하지	-7999
▁예민하게	-8000
▁예쁘더라	-8001
▁옥상에서	-8002
▁우리누나	-8003
▁우리집에	-8004
▁움직이면	-8005
▁월요일에	-8006
▁이러는거	-8007
▁이번달에	-8008
▁이정도는	-8009
▁이쪽으로	-8010
▁인사고과	-8011
▁인테리어	-8012
▁일이라도	-8013
▁일처리가	-8014
▁입이라고	-8015
▁잘못되면	-8016
▁장난아니	-8017
▁장난하는	-8018
▁재밌었어	-8019
▁전화해서	-8020
▁조심할게	-8021
▁좋습니다	-8022
▁좋아졌어	-8023
▁좋았잖아	-8024
▁죄송하다	-8025
▁죽고싶나	-8026
▁죽어버려	-8027
▁죽여줄까	-8028
▁죽으라고	-8029
▁죽을거야	-8030
▁죽인다고	-8031
▁중입니다	-8032
▁증거있어	-8033
▁지나치신	-8034
▁지났는데	-8035
▁쪽팔려서	-8036
▁친구니까	-8037
▁친구들은	-8038
▁친구인데	-8039
▁컴플레인	-8040
▁크리스마	-8041
▁퇴근시간	-8042
▁프리셉터	-8043
▁하나라도	-8044
▁하나밖에	-8045
▁하루이틀	-8046
▁하루종일	-8047
▁하십니까	-8048
▁했으니까	-8049
▁환장했어	-8050
는거아니야	-8051
▁가져가세요	-8052
▁과장님께서	-8053
▁그러니까요	-8054
▁그렇게까지	-8055
▁너무하신거	-8056
▁다니는거야	-8057
▁마찬가지야	-8058
▁보겠습니다	-8059
▁보고서라고	-8060
▁부모님이랑	-8061
▁사람인데요	-8062
▁살려주십쇼	-8063
▁시작해볼까	-8064
▁안가져오면	-8065
▁안빌려주면	-8066
▁않았습니까	-8067
▁알았으니까	-8068
▁어울린다고	-8069
▁여자친구가	-8070
▁이러는거야	-8071
▁이번주말에	-8072
▁입금하세요	-8073
▁죽여버리기	-8074
▁지랄하지마	-8075
하시는거에요	-8076
▁고치겠습니다	-8077
▁그러시는데요	-8078
▁그러지마세요	-8079
▁그런거아니야	-8080
▁다른사람한테	-8081
▁무슨소리에요	-8082
▁지나치십니다	-8083
▁명심하겠습니다	-8084
▁죽여버릴거니까	-8085
▁죽여버릴테니까	-8086
!.	-8087
▁긋	-8088
▁꽃	-8089
▁끈	-8090
▁넥	-8091
▁는	-8092
▁닭	-8093
▁닿	-8094
▁덥	-8095
▁덮	-8096
▁떄	-8097
▁뚝	-8098
▁띠	-8099
▁롤	-8100
▁맑	-8101
▁맹	-8102
▁밴	-8103
▁뱃	-8104
▁뺀	-8105
▁뽀	-8106
▁뽕	-8107
▁삥	-8108
▁쉰	-8109
▁쎄	-8110
▁을	-8111
▁젖	-8112
▁쭉	-8113
▁캡	-8114
▁컵	-8115
▁케	-8116
▁쿨	-8117
▁텀	-8118
▁톡	-8119
▁혐	-8120
▁홈	-8121
가를	-8122
감을	-8123
같네	-8124
개야	-8125
검사	-8126
게임	-8127
괴롭	-8128
구가	-8129
그때	-8130
그램	-8131
기냐	-8132
기분	-8133
까스	-8134
나랑	-8135
나빠	-8136
내면	-8137
내에	-8138
너도	-8139
넣어	-8140
네다	-8141
년도	-8142
년을	-8143
뇨병	-8144
님께	-8145
다녔	-8146
다들	-8147
달아	-8148
데도	-8149
됐다	-8150
뒀어	-8151
듯이	-8152
라테	-8153
라해	-8154
란거	-8155
러먹	-8156
레리	-8157
려는	-8158
려봐	-8159
렸나	-8160
렸지	-8161
로는	-8162
롭게	-8163
리다	-8164
마트	-8165
만드	-8166
많아	-8167
많이	-8168
말만	-8169
맞아	-8170
먹는	-8171
먼지	-8172
무님	-8173
무시	-8174
물건	-8175
뭔데	-8176
뮤니	-8177
미스	-8178
받는	-8179
발로	-8180
방해	-8181
버릇	-8182
번에	-8183
병원	-8184
보냐	-8185
보로	-8186
분증	-8187
분해	-8188
불량	-8189
블러	-8190
살아	-8191
살이	-8192
샀어	-8193
서관	-8194
셔요	-8195
셨나	-8196
셨네	-8197
숭이	-8198
시켰	-8199
실때	-8200
싶냐	-8201
썼어	-8202
아래	-8203
아오	-8204
앞에	-8205
언제	-8206
영아	-8207
영이	-8208
요병	-8209
우로	-8210
우먼	-8211
우스	-8212
우유	-8213
우지	-8214
울게	-8215
원도	-8216
위가	-8217
위권	-8218
위를	-8219
은게	-8220
을듯	-8221
음이	-8222
이걸	-8223
이런	-8224
이름	-8225
이션	-8226
이스	-8227
이크	-8228
이킹	-8229
자랑	-8230
자로	-8231
자씨	-8232
잡고	-8233
잡아	-8234
장면	-8235
장은	-8236
저도	-8237
저요	-8238
정리	-8239
정씨	-8240
주기	-8241
주실	-8242
지경	-8243
지기	-8244
지로	-8245
지심	-8246
지요	-8247
짜고	-8248
차가	-8249
철씨	-8250
청에	-8251
케줄	-8252
코인	-8253
탱이	-8254
테면	-8255
토랑	-8256
트가	-8257
티에	-8258
하루	-8259
하여	-8260
학과	-8261
한태	-8262
했대	-8263
했을	-8264
회의	-8265
히면	-8266
100	-8267
??.	-8268
▁80	-8269
▁가보	-8270
▁가스	-8271
▁감성	-8272
▁강의	-8273
▁같나	-8274
▁개뿔	-8275
▁개운	-8276
▁거니	-8277
▁거면	-8278
▁거참	-8279
▁검색	-8280
▁검은	-8281
▁검토	-8282
▁경력	-8283
▁고려	-8284
▁공장	-8285
▁과일	-8286
▁교재	-8287
▁구두	-8288
▁구분	-8289
▁구입	-8290
▁굴러	-8291
▁권한	-8292
▁귀머	-8293
▁그려	-8294
▁그쵸	-8295
▁기안	-8296
▁기업	-8297
▁기초	-8298
▁긴팔	-8299
▁길에	-8300
▁길을	-8301
▁김밥	-8302
▁까먹	-8303
▁꼰대	-8304
▁끌어	-8305
▁끝냈	-8306
▁나불	-8307
▁날로	-8308
▁남을	-8309
▁낳은	-8310
▁내기	-8311
▁내비	-8312
▁내손	-8313
▁네에	-8314
▁네일	-8315
▁노동	-8316
▁논문	-8317
▁놀랐	-8318
▁놀면	-8319
▁놀이	-8320
▁누락	-8321
▁눈빛	-8322
▁눈썹	-8323
▁눌러	-8324
▁니는	-8325
▁다를	-8326
▁단단	-8327
▁대회	-8328
▁더러	-8329
▁도로	-8330
▁돈벌	-8331
▁동태	-8332
▁뒤뚱	-8333
▁들면	-8334
▁들여	-8335
▁들지	-8336
▁등교	-8337
▁등급	-8338
▁떼워	-8339
▁레스	-8340
▁로또	-8341
▁리모	-8342
▁마셨	-8343
▁말들	-8344
▁말세	-8345
▁매달	-8346
▁머냐	-8347
▁먼데	-8348
▁몸도	-8349
▁못받	-8350
▁못볼	-8351
▁무료	-8352
▁뭣도	-8353
▁미세	-8354
▁미술	-8355
▁민서	-8356
▁민지	-8357
▁바쁠	-8358
▁박살	-8359
▁반가	-8360
▁발설	-8361
▁밝은	-8362
▁밥값	-8363
▁방학	-8364
▁밴드	-8365
▁버릴	-8366
▁버틸	-8367
▁벌금	-8368
▁벗겨	-8369
▁변경	-8370
▁보나	-8371
▁본가	-8372
▁볼래	-8373
▁봉투	-8374
▁봤다	-8375
▁부부	-8376
▁부실	-8377
▁불량	-8378
▁불에	-8379
▁불참	-8380
▁빠릿	-8381
▁빨간	-8382
▁빨라	-8383
▁뿌릴	-8384
▁사귄	-8385
▁사귈	-8386
▁사도	-8387
▁사올	-8388
▁사줄	-8389
▁살다	-8390
▁상의	-8391
▁생명	-8392
▁샤워	-8393
▁석탄	-8394
▁소금	-8395
▁소방	-8396
▁속옷	-8397
▁손대	-8398
▁솔로	-8399
▁수상	-8400
▁수원	-8401
▁술마	-8402
▁숨쉬	-8403
▁시력	-8404
▁시일	-8405
▁시체	-8406
▁신문	-8407
▁실례	-8408
▁실적	-8409
▁심지	-8410
▁싶니	-8411
▁싸워	-8412
▁쌍수	-8413
▁써도	-8414
▁써와	-8415
▁쓰래	-8416
▁아랫	-8417
▁아야	-8418
▁아우	-8419
▁아작	-8420
▁아플	-8421
▁안계	-8422
▁안듣	-8423
▁안받	-8424
▁안오	-8425
▁안한	-8426
▁애나	-8427
▁액션	-8428
▁앨범	-8429
▁앵무	-8430
▁여길	-8431
▁연장	-8432
▁염산	-8433
▁오게	-8434
▁오기	-8435
▁오라	-8436
▁오신	-8437
▁온다	-8438
▁올까	-8439
▁옷에	-8440
▁왔다	-8441
▁왜케	-8442
▁왜해	-8443
▁외상	-8444
▁용건	-8445
▁운다	-8446
▁울보	-8447
▁원만	-8448
▁웹툰	-8449
▁유미	-8450
▁유세	-8451
▁으윽	-8452
▁은혜	-8453
▁음악	-8454
▁의사	-8455
▁의지	-8456
▁이직	-8457
▁이체	-8458
▁익숙	-8459
▁입닥	-8460
▁있긴	-8461
▁자빠	-8462
▁작품	-8463
▁잡은	-8464
▁장님	-8465
▁장르	-8466
▁전공	-8467
▁절뚝	-8468
▁제사	-8469
▁존중	-8470
▁주게	-8471
▁죽였	-8472
▁줄여	-8473
▁줘바	-8474
▁증인	-8475
▁지도	-8476
▁지르	-8477
▁지장	-8478
▁지쳐	-8479
▁지쳤	-8480
▁지킬	-8481
▁진짠	-8482
▁쪄서	-8483
▁찍혔	-8484
▁차였	-8485
▁참을	-8486
▁챙길	-8487
▁챙피	-8488
▁초밥	-8489
▁총각	-8490
▁축구	-8491
▁축의	-8492
▁치러	-8493
▁치매	-8494
▁치사	-8495
▁캡쳐	-8496
▁커서	-8497
▁컸다	-8498
▁키가	-8499
▁테니	-8500
▁토를	-8501
▁통금	-8502
▁특히	-8503
▁틀려	-8504
▁팀에	-8505
▁파는	-8506
▁팝콘	-8507
▁편지	-8508
▁폭파	-8509
▁프린	-8510
▁피드	-8511
▁피로	-8512
▁할것	-8513
▁할줄	-8514
▁해당	-8515
▁해볼	-8516
▁해외	-8517
▁해줬	-8518
▁현재	-8519
▁혈액	-8520
▁혐오	-8521
▁형아	-8522
▁호두	-8523
▁훔쳤	-8524
▁훔친	-8525
▁흑인	-8526
가기로	-8527
가려고	-8528
가보네	-8529
간다고	-8530
개월째	-8531
거리지	-8532
겼는데	-8533
교육을	-8534
그래서	-8535
김과장	-8536
끄러워	-8537
나한테	-8538
냐고요	-8539
년동안	-8540
는거라	-8541
는거죠	-8542
던가요	-8543
돌아가	-8544
동생아	-8545
돼지야	-8546
될거야	-8547
들었어	-8548
들이지	-8549
라는거	-8550
라했지	-8551
랍니다	-8552
리잖아	-8553
마리씨	-8554
말씀을	-8555
맘대로	-8556
머스켓	-8557
모님이	-8558
박대리	-8559
박사원	-8560
버렸어	-8561
봤어요	-8562
부터가	-8563
셨다면	-8564
시다고	-8565
시면서	-8566
신거라	-8567
아이고	-8568
안돼요	-8569
안하냐	-8570
았어요	-8571
어디서	-8572
에게는	-8573
여기가	-8574
영씨는	-8575
올거야	-8576
왜이래	-8577
으라는	-8578
으셔서	-8579
이거든	-8580
이는데	-8581
이랑은	-8582
이러스	-8583
이면서	-8584
이번주	-8585
인다고	-8586
일이나	-8587
일인데	-8588
져있어	-8589
조용히	-8590
주는게	-8591
중인데	-8592
지않냐	-8593
질이야	-8594
짓이야	-8595
천만원	-8596
천원만	-8597
친구가	-8598
하기는	-8599
하나도	-8600
하더니	-8601
하자고	-8602
합시다	-8603
해야돼	-8604
했나요	-8605
했다며	-8606
했더니	-8607
했으니	-8608
▁가게에	-8609
▁가방도	-8610
▁가볍게	-8611
▁가보고	-8612
▁가보자	-8613
▁가져왔	-8614
▁간단한	-8615
▁강인턴	-8616
▁같던데	-8617
▁같으니	-8618
▁갚을께	-8619
▁거기다	-8620
▁거아냐	-8621
▁거지야	-8622
▁걸렸다	-8623
▁걸리면	-8624
▁것보다	-8625
▁게임도	-8626
▁결혼을	-8627
▁결혼할	-8628
▁고픈데	-8629
▁교무실	-8630
▁군생활	-8631
▁그거고	-8632
▁글러먹	-8633
▁기간이	-8634
▁기억도	-8635
▁기억해	-8636
▁길거리	-8637
▁김주임	-8638
▁꺼내봐	-8639
▁꼬우면	-8640
▁끝내면	-8641
▁나가게	-8642
▁나가야	-8643
▁나가요	-8644
▁나갈까	-8645
▁나는거	-8646
▁나오냐	-8647
▁나왔지	-8648
▁나잖아	-8649
▁난다고	-8650
▁남았어	-8651
▁내가왜	-8652
▁내놔요	-8653
▁내용을	-8654
▁냉장고	-8655
▁너때문	-8656
▁너부터	-8657
▁너잖아	-8658
▁넘기면	-8659
▁누구는	-8660
▁눈치는	-8661
▁느낌이	-8662
▁느려터	-8663
▁늦어서	-8664
▁다닌다	-8665
▁다닐래	-8666
▁다시해	-8667
▁다예요	-8668
▁다음은	-8669
▁달라면	-8670
▁담당자	-8671
▁대답을	-8672
▁대드는	-8673
▁대머리	-8674
▁대해서	-8675
▁도망가	-8676
▁돈까스	-8677
▁돌려줄	-8678
▁돌아오	-8679
▁동생도	-8680
▁동생이	-8681
▁돼잖아	-8682
▁드리고	-8683
▁드리는	-8684
▁들어갔	-8685
▁디자인	-8686
▁따돌림	-8687
▁딱봐도	-8688
▁딸에게	-8689
▁때려요	-8690
▁때려쳐	-8691
▁때리기	-8692
▁떨어지	-8693
▁똑똑히	-8694
▁뜨겁게	-8695
▁마셔야	-8696
▁막무가	-8697
▁만나기	-8698
▁만들고	-8699
▁만족해	-8700
▁말같지	-8701
▁말거야	-8702
▁말하게	-8703
▁말할게	-8704
▁말했다	-8705
▁맛있다	-8706
▁맞다고	-8707
▁맞아서	-8708
▁먹고싶	-8709
▁먹어도	-8710
▁먹은거	-8711
▁먹자고	-8712
▁멀쩡히	-8713
▁멋있지	-8714
▁면목이	-8715
▁몇번째	-8716
▁몰랐네	-8717
▁몰아가	-8718
▁못들고	-8719
▁못움직	-8720
▁몽둥이	-8721
▁뭐가요	-8722
▁뭐든지	-8723
▁뭐하고	-8724
▁뭐하러	-8725
▁뭔데요	-8726
▁믿겠어	-8727
▁밀려서	-8728
▁바람을	-8729
▁바보야	-8730
▁바쁜거	-8731
▁반드시	-8732
▁받아요	-8733
▁밤마다	-8734
▁벌레가	-8735
▁별로야	-8736
▁봤잖아	-8737
▁부르지	-8738
▁부서에	-8739
▁부지런	-8740
▁부탁을	-8741
▁붙어서	-8742
▁비타민	-8743
▁빌리는	-8744
▁빠르게	-8745
▁빠르고	-8746
▁빠져서	-8747
▁빽으로	-8748
▁뻔뻔한	-8749
▁뽑아야	-8750
▁사귀는	-8751
▁사는게	-8752
▁사는지	-8753
▁사세요	-8754
▁사야지	-8755
▁사왔어	-8756
▁사이트	-8757
▁사주고	-8758
▁사진도	-8759
▁살게요	-8760
▁살려줄	-8761
▁살면서	-8762
▁살아요	-8763
▁살이야	-8764
▁살인자	-8765
▁살잖아	-8766
▁삼백충	-8767
▁상관없	-8768
▁상품권	-8769
▁새끼네	-8770
▁생각나	-8771
▁생각좀	-8772
▁생각하	-8773
▁생사람	-8774
▁서있어	-8775
▁선약이	-8776
▁소비자	-8777
▁손목에	-8778
▁손목을	-8779
▁손병신	-8780
▁쇼핑몰	-8781
▁순진한	-8782
▁술한잔	-8783
▁스컹크	-8784
▁시계는	-8785
▁시궁창	-8786
▁시작한	-8787
▁시키고	-8788
▁신분증	-8789
▁실수를	-8790
▁실수한	-8791
▁심해서	-8792
▁써봤어	-8793
▁아까운	-8794
▁아내가	-8795
▁아내를	-8796
▁아냐고	-8797
▁아닌것	-8798
▁아닐까	-8799
▁아들은	-8800
▁아무일	-8801
▁아시면	-8802
▁안그랬	-8803
▁안내고	-8804
▁안되고	-8805
▁안되나	-8806
▁안시켜	-8807
▁안지키	-8808
▁안하는	-8809
▁안해서	-8810
▁안해주	-8811
▁않았냐	-8812
▁알겠네	-8813
▁알았냐	-8814
▁알지만	-8815
▁애한테	-8816
▁약속은	-8817
▁어떡할	-8818
▁어떤가	-8819
▁어렵나	-8820
▁어림도	-8821
▁어이구	-8822
▁어쩌지	-8823
▁언론에	-8824
▁언제쯤	-8825
▁얼굴은	-8826
▁업무도	-8827
▁업무에	-8828
▁없거든	-8829
▁없나요	-8830
▁없다는	-8831
▁없으시	-8832
▁엎드려	-8833
▁에어팟	-8834
▁여유가	-8835
▁연락을	-8836
▁열어봐	-8837
▁예민해	-8838
▁예쁘고	-8839
▁예쁜데	-8840
▁오대리	-8841
▁올라온	-8842
▁올려야	-8843
▁올리고	-8844
▁옷이야	-8845
▁와보게	-8846
▁외국인	-8847
▁요즘엔	-8848
▁욕하지	-8849
▁우리아	-8850
▁우수워	-8851
▁우습지	-8852
▁운동도	-8853
▁움직이	-8854
▁웃기게	-8855
▁웃기지	-8856
▁원장님	-8857
▁원하면	-8858
▁월급은	-8859
▁위에서	-8860
▁으이구	-8861
▁음식은	-8862
▁의도는	-8863
▁이거봐	-8864
▁이년아	-8865
▁이래도	-8866
▁이런게	-8867
▁이럴래	-8868
▁이만큼	-8869
▁이미지	-8870
▁이유로	-8871
▁이후로	-8872
▁인상이	-8873
▁일이고	-8874
▁입니까	-8875
▁있겠니	-8876
▁있다가	-8877
▁있어라	-8878
▁있었나	-8879
▁있었던	-8880
▁있지만	-8881
▁자격증	-8882
▁자기들	-8883
▁자료는	-8884
▁자리를	-8885
▁자신감	-8886
▁자존심	-8887
▁작년에	-8888
▁잘못이	-8889
▁잘해봐	-8890
▁잘해야	-8891
▁잡아서	-8892
▁장기는	-8893
▁재미도	-8894
▁재밌지	-8895
▁저러고	-8896
▁저보다	-8897
▁저희집	-8898
▁전시회	-8899
▁전화가	-8900
▁전화해	-8901
▁젊은이	-8902
▁정보를	-8903
▁정신나	-8904
▁조부장	-8905
▁좋겠냐	-8906
▁좋다는	-8907
▁주던가	-8908
▁주제를	-8909
▁죽는꼴	-8910
▁중인데	-8911
▁줬으면	-8912
▁즐기는	-8913
▁증거가	-8914
▁증거도	-8915
▁지났어	-8916
▁지연씨	-8917
▁지키고	-8918
▁진지충	-8919
▁찌르고	-8920
▁찍었어	-8921
▁착하게	-8922
▁찾아갈	-8923
▁찾아와	-8924
▁책임져	-8925
▁책임지	-8926
▁책임질	-8927
▁처리해	-8928
▁치마를	-8929
▁친구냐	-8930
▁친구로	-8931
▁카드를	-8932
▁카페에	-8933
▁칼들고	-8934
▁커피에	-8935
▁커피좀	-8936
▁키우기	-8937
▁태어난	-8938
▁태어났	-8939
▁텀블러	-8940
▁토나올	-8941
▁튀어나	-8942
▁틱장애	-8943
▁팀에서	-8944
▁편하고	-8945
▁피해가	-8946
▁필요는	-8947
▁하나쯤	-8948
▁학생회	-8949
▁한달에	-8950
▁한두번	-8951
▁한번씩	-8952
▁해결해	-8953
▁해볼게	-8954
▁해주고	-8955
▁해주실	-8956
▁해주지	-8957
▁협박이	-8958
▁호구로	-8959
▁화장품	-8960
▁확인을	-8961
▁회의에	-8962
▁휴가야	-8963
▁휴거지	-8964
거아니야	-8965
것같아요	-8966
그러니까	-8967
기싫으면	-8968
김대리는	-8969
누구세요	-8970
다면서요	-8971
만원이나	-8972
만원이면	-8973
만원이요	-8974
말이에요	-8975
배고프다	-8976
버린다고	-8977
셔야해요	-8978
스러워서	-8979
시는데요	-8980
아가지고	-8981
없습니다	-8982
이라고요	-8983
이라서요	-8984
하기전에	-8985
하지마라	-8986
한겁니다	-8987
했잖아요	-8988
▁가는거야	-8989
▁가만있어	-8990
▁가볼게요	-8991
▁가져가서	-8992
▁간단하게	-8993
▁갚을게요	-8994
▁개그우먼	-8995
▁개웃기네	-8996
▁거슬리게	-8997
▁거잖아요	-8998
▁걱정되서	-8999
▁건들기만	-9000
▁겁대가리	-9001
▁결혼하면	-9002
▁고생했다	-9003
▁곤란한데	-9004
▁공부해서	-9005
▁괜찮겠어	-9006
▁괴롭히지	-9007
▁구해볼게	-9008
▁그랬어요	-9009
▁그랬으면	-9010
▁그러려고	-9011
▁그런말이	-9012
▁그런소리	-9013
▁그럴게요	-9014
▁그만이야	-9015
▁그만좀해	-9016
▁그지새끼	-9017
▁근무시간	-9018
▁기다려줘	-9019
▁기다리는	-9020
▁나가세요	-9021
▁나오지마	-9022
▁나왔다고	-9023
▁남았는데	-9024
▁남친이랑	-9025
▁내놓으면	-9026
▁내놓을래	-9027
▁너무한다	-9028
▁노력하면	-9029
▁놀리는거	-9030
▁농담이야	-9031
▁대가리가	-9032
▁도와드릴	-9033
▁돈이라도	-9034
▁돼지라고	-9035
▁됐습니다	-9036
▁되는거죠	-9037
▁들어봤어	-9038
▁들어오면	-9039
▁들어온거	-9040
▁들어왔어	-9041
▁떨어졌어	-9042
▁뚱뚱한게	-9043
▁레스토랑	-9044
▁마지막에	-9045
▁말같지도	-9046
▁말대꾸를	-9047
▁말이라도	-9048
▁말하니까	-9049
▁맛있는데	-9050
▁맞고줄래	-9051
▁매점가서	-9052
▁먹어봤어	-9053
▁먹었더니	-9054
▁몇살이야	-9055
▁모르겠네	-9056
▁모른다고	-9057
▁모양인데	-9058
▁목소리도	-9059
▁못하는거	-9060
▁무릎꿇고	-9061
▁무서워라	-9062
▁무서워요	-9063
▁무슨일로	-9064
▁물어보고	-9065
▁미세먼지	-9066
▁미안하게	-9067
▁미친새끼	-9068
▁바이러스	-9069
▁받았으면	-9070
▁받으라고	-9071
▁버스에서	-9072
▁보고서를	-9073
▁보고싶어	-9074
▁보내라고	-9075
▁봐주시면	-9076
▁봐줬더니	-9077
▁부장님도	-9078
▁비싼건데	-9079
▁비키라고	-9080
▁빠져나가	-9081
▁뿐입니다	-9082
▁사람인데	-9083
▁사람처럼	-9084
▁사실이야	-9085
▁사이좋게	-9086
▁생각했어	-9087
▁서운하게	-9088
▁선생님께	-9089
▁수정해서	-9090
▁시어머니	-9091
▁시작이다	-9092
▁신중하게	-9093
▁싫다고요	-9094
▁싫습니다	-9095
▁심하세요	-9096
▁아니라는	-9097
▁아니면서	-9098
▁아니었어	-9099
▁아드님이	-9100
▁아무말도	-9101
▁안다니고	-9102
▁안되잖아	-9103
▁안해주면	-9104
▁안했어요	-9105
▁않을거야	-9106
▁알아볼게	-9107
▁알았으면	-9108
▁애플워치	-9109
▁어딨는데	-9110
▁어떨까요	-9111
▁어리버리	-9112
▁어쩔거야	-9113
▁여기에서	-9114
▁연락할게	-9115
▁예쁘던데	-9116
▁오후까지	-9117
▁우리오빠	-9118
▁우리집은	-9119
▁우리학교	-9120
▁이런걸로	-9121
▁이럴수록	-9122
▁이리와바	-9123
▁이보세요	-9124
▁이유라도	-9125
▁이제서야	-9126
▁일이라고	-9127
▁일이잖아	-9128
▁일하는거	-9129
▁자격지심	-9130
▁장난같아	-9131
▁재수없게	-9132
▁재수없는	-9133
▁재수없어	-9134
▁저번부터	-9135
▁저번에는	-9136
▁전부에요	-9137
▁정당하게	-9138
▁정리하고	-9139
▁제정신이	-9140
▁주말마다	-9141
▁주말인데	-9142
▁주민번호	-9143
▁주십시요	-9144
▁죽는다고	-9145
▁죽어야해	-9146
▁준다니까	-9147
▁쥐도새도	-9148
▁지은씨는	-9149
▁직장에서	-9150
▁진정하게	-9151
▁진지하게	-9152
▁집구석에	-9153
▁찌질하게	-9154
▁찐따새끼	-9155
▁책임지고	-9156
▁출근해서	-9157
▁친구라고	-9158
▁카톡으로	-9159
▁컨디션이	-9160
▁필요하면	-9161
▁필요해요	-9162
▁하겠다고	-9163
▁하십니다	-9164
▁하잖아요	-9165
▁하지마라	-9166
▁하하하하	-9167
▁학교폭력	-9168
▁학원비야	-9169
▁한다니까	-9170
▁해보세요	-9171
▁해보자고	-9172
▁해야겠어	-9173
▁해주셔야	-9174
▁핸드폰은	-9175
▁행동으로	-9176
▁호주머니	-9177
▁홍당무는	-9178
▁힘들었어	-9179
▁힘듭니다	-9180
드렸잖아요	-9181
해야하는데	-9182
▁거짓말하지	-9183
▁고소할거야	-9184
▁그건아닌데	-9185
▁그랬습니다	-9186
▁그랬어야지	-9187
▁그렇긴한데	-9188
▁그만두던가	-9189
▁나올때까지	-9190
▁노력해볼게	-9191
▁되겠습니까	-9192
▁들었는데요	-9193
▁리뷰이벤트	-9194
▁막무가내로	-9195
▁만들어줄게	-9196
▁말씀하세요	-9197
▁말았어야지	-9198
▁머라는거야	-9199
▁몰랐습니다	-9200
▁못생겼다고	-9201
▁못생겼으면	-9202
▁백화점에서	-9203
▁보고싶어서	-9204
▁부르셨어요	-9205
▁부모님께서	-9206
▁불러주세요	-9207
▁비싸보인다	-9208
▁빠져가지고	-9209
▁생각하는데	-9210
▁생일이라고	-9211
▁선생님께서	-9212
▁심하십니다	-9213
▁쓰레기통에	-9214
▁안그럴게요	-9215
▁안되겠구만	-9216
▁안할테니까	-9217
▁알겠으니까	-9218
▁어딨습니까	-9219
▁어떡하라고	-9220
▁오랜만이야	-9221
▁온라인에서	-9222
▁왜그러시죠	-9223
▁이런식이면	-9224
▁이야기하자	-9225
▁일이신가요	-9226
▁좋겠습니다	-9227
▁좋아보이네	-9228
▁죄송하다면	-9229
▁죽여버리는	-9230
▁죽여버릴까	-9231
▁죽이기라도	-9232
▁지금이라도	-9233
▁짜증나니까	-9234
▁친구들한테	-9235
▁크리스마스	-9236
▁필요하세요	-9237
▁해줄테니까	-9238
▁헤어졌는데	-9239
▁협박하는거	-9240
▁회사생활이	-9241
안녕하십니까	-9242
▁그러겠습니다	-9243
▁그만해주세요	-9244
▁다녀왔습니다	-9245
▁도와드릴까요	-9246
▁알아봐야겠다	-9247
▁여기있습니다	-9248
▁왜이러는거야	-9249
▁무슨말씀이세요	-9250
▁무슨일이신가요	-9251
▁안그러겠습니다	-9252
▁처리하겠습니다	-9253
NF	-9254
▁갇	-9255
▁깊	-9256
▁껄	-9257
▁낄	-9258
▁뜸	-9259
▁를	-9260
▁멜	-9261
▁믹	-9262
▁벅	-9263
▁빛	-9264
▁뺄	-9265
▁뻗	-9266
▁뻘	-9267
▁샵	-9268
▁썸	-9269
▁썻	-9270
▁쟨	-9271
▁짠	-9272
▁찰	-9273
▁촌	-9274
▁탄	-9275
▁탑	-9276
▁팥	-9277
▁폈	-9278
▁핵	-9279
▁햄	-9280
▁햇	-9281
▁헌	-9282
▁횟	-9283
▁훌	-9284
가며	-9285
갈까	-9286
갈래	-9287
감도	-9288
갚아	-9289
개만	-9290
건들	-9291
것은	-9292
겟네	-9293
겟어	-9294
고분	-9295
공원	-9296
과도	-9297
관이	-9298
구마	-9299
규씨	-9300
근무	-9301
글쎄	-9302
금은	-9303
긋지	-9304
기엔	-9305
까짓	-9306
깔깔	-9307
내려	-9308
내심	-9309
내야	-9310
너지	-9311
넘기	-9312
네야	-9313
년은	-9314
느니	-9315
다야	-9316
단지	-9317
대네	-9318
대는	-9319
대만	-9320
대면	-9321
대에	-9322
더러	-9323
델링	-9324
도와	-9325
독제	-9326
돈도	-9327
동을	-9328
되냐	-9329
된거	-9330
두는	-9331
뒤에	-9332
드라	-9333
등한	-9334
땡땡	-9335
뜻이	-9336
란게	-9337
래서	-9338
랜드	-9339
러져	-9340
렇지	-9341
려야	-9342
려줘	-9343
례야	-9344
로디	-9345
료를	-9346
르장	-9347
리니	-9348
리로	-9349
리퍼	-9350
린지	-9351
릴까	-9352
메뉴	-9353
면에	-9354
면허	-9355
못할	-9356
문회	-9357
민수	-9358
바꿔	-9359
바라	-9360
바보	-9361
박스	-9362
반지	-9363
벨트	-9364
보낼	-9365
보러	-9366
부에	-9367
분들	-9368
비로	-9369
비싸	-9370
사냐	-9371
상품	-9372
상황	-9373
색이	-9374
서는	-9375
서를	-9376
서에	-9377
선이	-9378
셨고	-9379
셨죠	-9380
속에	-9381
수업	-9382
스야	-9383
스터	-9384
스팔	-9385
스프	-9386
시니	-9387
시라	-9388
시로	-9389
시방	-9390
신입	-9391
실장	-9392
써서	-9393
쓴다	-9394
씨티	-9395
아뇨	-9396
아리	-9397
아씨	-9398
아웃	-9399
아주	-9400
않나	-9401
알려	-9402
앗어	-9403
았던	-9404
야될	-9405
어져	-9406
어죽	-9407
어진	-9408
없니	-9409
었을	-9410
연락	-9411
였네	-9412
오래	-9413
올라	-9414
올수	-9415
용이	-9416
용품	-9417
움이	-9418
위반	-9419
유회	-9420
을걸	-9421
을요	-9422
음을	-9423
의가	-9424
의를	-9425
이따	-9426
자도	-9427
잔데	-9428
잔치	-9429
장만	-9430
재산	-9431
저리	-9432
전드	-9433
전해	-9434
조리	-9435
주나	-9436
주냐	-9437
증후	-9438
지갑	-9439
지자	-9440
질도	-9441
쯧쯧	-9442
차이	-9443
찾아	-9444
채로	-9445
청소	-9446
쳤냐	-9447
추가	-9448
추행	-9449
취급	-9450
치를	-9451
칠게	-9452
코드	-9453
코야	-9454
키로	-9455
통수	-9456
파악	-9457
파티	-9458
팔을	-9459
포기	-9460
폭행	-9461
푸냐	-9462
플로	-9463
함을	-9464
향이	-9465
히네	-9466
.!?	-9467
?!!	-9468
??!	-9469
▁가든	-9470
▁가수	-9471
▁간병	-9472
▁간절	-9473
▁간지	-9474
▁갈길	-9475
▁갈라	-9476
▁갈수	-9477
▁감고	-9478
▁감아	-9479
▁감염	-9480
▁강간	-9481
▁강아	-9482
▁개나	-9483
▁개못	-9484
▁개발	-9485
▁거랑	-9486
▁거부	-9487
▁걸을	-9488
▁걸음	-9489
▁게시	-9490
▁겠다	-9491
▁겪어	-9492
▁경험	-9493
▁고분	-9494
▁고정	-9495
▁골로	-9496
▁공공	-9497
▁공과	-9498
▁공기	-9499
▁과잉	-9500
▁관둬	-9501
▁교도	-9502
▁굶고	-9503
▁귀도	-9504
▁귀에	-9505
▁규정	-9506
▁급이	-9507
▁기념	-9508
▁기능	-9509
▁기록	-9510
▁길게	-9511
▁김수	-9512
▁김장	-9513
▁김철	-9514
▁까부	-9515
▁깎아	-9516
▁깔고	-9517
▁깔아	-9518
▁깝치	-9519
▁꼼꼼	-9520
▁꾸민	-9521
▁나게	-9522
▁나냐	-9523
▁나은	-9524
▁나의	-9525
▁나죽	-9526
▁낙태	-9527
▁날려	-9528
▁남길	-9529
▁납품	-9530
▁낮게	-9531
▁내게	-9532
▁내딸	-9533
▁내서	-9534
▁낸다	-9535
▁넘게	-9536
▁넥타	-9537
▁노는	-9538
▁노예	-9539
▁농구	-9540
▁놓아	-9541
▁놔요	-9542
▁놔줘	-9543
▁눈은	-9544
▁늘어	-9545
▁늦을	-9546
▁니까	-9547
▁다섯	-9548
▁다양	-9549
▁닥치	-9550
▁단톡	-9551
▁닫고	-9552
▁달린	-9553
▁닮았	-9554
▁당황	-9555
▁대라	-9556
▁댓글	-9557
▁데가	-9558
▁돈많	-9559
▁돈빌	-9560
▁됐죠	-9561
▁될것	-9562
▁두껍	-9563
▁두들	-9564
▁든든	-9565
▁듣자	-9566
▁들게	-9567
▁들이	-9568
▁디저	-9569
▁딱딱	-9570
▁때린	-9571
▁떠나	-9572
▁떠는	-9573
▁뚫린	-9574
▁뚱땡	-9575
▁뜯어	-9576
▁라인	-9577
▁마이	-9578
▁만년	-9579
▁만한	-9580
▁말게	-9581
▁말안	-9582
▁맘충	-9583
▁맞냐	-9584
▁맞선	-9585
▁맞은	-9586
▁맡길	-9587
▁매년	-9588
▁먹기	-9589
▁먹방	-9590
▁멈추	-9591
▁면담	-9592
▁몇대	-9593
▁모레	-9594
▁목에	-9595
▁목표	-9596
▁몸은	-9597
▁못갚	-9598
▁못마	-9599
▁무능	-9600
▁미뤄	-9601
▁믿냐	-9602
▁바야	-9603
▁바퀴	-9604
▁반영	-9605
▁반전	-9606
▁발견	-9607
▁발급	-9608
▁발뺌	-9609
▁밝혀	-9610
▁밥맛	-9611
▁배때	-9612
▁배에	-9613
▁배정	-9614
▁법이	-9615
▁베풀	-9616
▁변태	-9617
▁별점	-9618
▁보신	-9619
▁보충	-9620
▁봐바	-9621
▁부숴	-9622
▁부어	-9623
▁부정	-9624
▁분식	-9625
▁분은	-9626
▁불을	-9627
▁비서	-9628
▁비위	-9629
▁비트	-9630
▁빌립	-9631
▁빠를	-9632
▁빡치	-9633
▁빨개	-9634
▁빼면	-9635
▁뻔히	-9636
▁뿐만	-9637
▁사가	-9638
▁사시	-9639
▁사적	-9640
▁삭발	-9641
▁살찐	-9642
▁샀냐	-9643
▁상당	-9644
▁상쾌	-9645
▁생선	-9646
▁샤인	-9647
▁서방	-9648
▁서있	-9649
▁설렁	-9650
▁성인	-9651
▁세우	-9652
▁세워	-9653
▁소원	-9654
▁소유	-9655
▁소주	-9656
▁손주	-9657
▁송금	-9658
▁순대	-9659
▁술만	-9660
▁쉬운	-9661
▁쉬자	-9662
▁스쳐	-9663
▁스카	-9664
▁승급	-9665
▁시도	-9666
▁시집	-9667
▁신선	-9668
▁실행	-9669
▁실험	-9670
▁싸인	-9671
▁쌀쌀	-9672
▁써라	-9673
▁썩는	-9674
▁썰어	-9675
▁쏘리	-9676
▁쓰려	-9677
▁쓴거	-9678
▁쓸데	-9679
▁아놔	-9680
▁아쉬	-9681
▁아쉽	-9682
▁아하	-9683
▁악플	-9684
▁안건	-9685
▁안마	-9686
▁안씻	-9687
▁안줘	-9688
▁않다	-9689
▁알거	-9690
▁알빠	-9691
▁알수	-9692
▁암호	-9693
▁앞뒤	-9694
▁앞을	-9695
▁야간	-9696
▁약자	-9697
▁약해	-9698
▁양념	-9699
▁양이	-9700
▁어긋	-9701
▁없군	-9702
▁없음	-9703
▁에잇	-9704
▁엘리	-9705
▁여성	-9706
▁여쭤	-9707
▁여태	-9708
▁연봉	-9709
▁연수	-9710
▁열고	-9711
▁예매	-9712
▁오바	-9713
▁오프	-9714
▁오호	-9715
▁옮기	-9716
▁와요	-9717
▁왜들	-9718
▁왤케	-9719
▁용기	-9720
▁우동	-9721
▁우릴	-9722
▁울어	-9723
▁움찔	-9724
▁워낙	-9725
▁원칙	-9726
▁위주	-9727
▁유도	-9728
▁유부	-9729
▁응원	-9730
▁의원	-9731
▁이겨	-9732
▁이득	-9733
▁이랬	-9734
▁이불	-9735
▁이성	-9736
▁이씨	-9737
▁이익	-9738
▁이정	-9739
▁인권	-9740
▁인력	-9741
▁인상	-9742
▁인심	-9743
▁인증	-9744
▁일등	-9745
▁일반	-9746
▁일상	-9747
▁일잘	-9748
▁일하	-9749
▁입도	-9750
▁입상	-9751
▁자수	-9752
▁자체	-9753
▁자퇴	-9754
▁작정	-9755
▁잘되	-9756
▁잘릴	-9757
▁잘만	-9758
▁잡았	-9759
▁잡쳤	-9760
▁재고	-9761
▁재료	-9762
▁저금	-9763
▁적도	-9764
▁전통	-9765
▁절단	-9766
▁절반	-9767
▁점이	-9768
▁점점	-9769
▁접수	-9770
▁정수	-9771
▁정우	-9772
▁정한	-9773
▁제목	-9774
▁제보	-9775
▁졸렬	-9776
▁좋대	-9777
▁좋죠	-9778
▁죽나	-9779
▁죽음	-9780
▁준거	-9781
▁중간	-9782
▁중대	-9783
▁지구	-9784
▁지냈	-9785
▁지를	-9786
▁지불	-9787
▁진입	-9788
▁짐승	-9789
▁집을	-9790
▁짝꿍	-9791
▁짧아	-9792
▁차도	-9793
▁참다	-9794
▁창의	-9795
▁처벌	-9796
▁천재	-9797
▁쳐서	-9798
▁초과	-9799
▁총알	-9800
▁최신	-9801
▁추리	-9802
▁커녕	-9803
▁컸네	-9804
▁쿠키	-9805
▁크림	-9806
▁크으	-9807
▁크윽	-9808
▁타이	-9809
▁터트	-9810
▁텅텅	-9811
▁투자	-9812
▁튀면	-9813
▁팔면	-9814
▁팔이	-9815
▁패드	-9816
▁퍽퍽	-9817
▁편한	-9818
▁폰을	-9819
▁푸는	-9820
▁푼도	-9821
▁풀고	-9822
▁풀릴	-9823
▁플레	-9824
▁하느	-9825
▁하도	-9826
▁하래	-9827
▁하핳	-9828
▁학과	-9829
▁한푼	-9830
▁합격	-9831
▁해본	-9832
▁해장	-9833
▁허가	-9834
▁허위	-9835
▁헤헤	-9836
▁헬멧	-9837
▁혀를	-9838
▁형제	-9839
▁형편	-9840
▁호흡	-9841
▁혼날	-9842
▁화분	-9843
▁희생	-9844
가봐요	-9845
가야지	-9846
간호사	-9847
거니깐	-9848
것처럼	-9849
겠냐고	-9850
겠는가	-9851
겠다면	-9852
과장이	-9853
군다나	-9854
그런데	-9855
그렇지	-9856
긋지긋	-9857
김사장	-9858
꺼예요	-9859
났다고	-9860
났어요	-9861
년만에	-9862
놓은거	-9863
놨더니	-9864
다는게	-9865
다음주	-9866
대리가	-9867
대학교	-9868
도대체	-9869
등급이	-9870
라이버	-9871
라테스	-9872
렀잖아	-9873
려고요	-9874
리지만	-9875
말아요	-9876
메이션	-9877
물함에	-9878
뭐라고	-9879
버려서	-9880
볶음밥	-9881
볼거야	-9882
볼테니	-9883
봤다고	-9884
분안에	-9885
뿐이야	-9886
셔야지	-9887
스럽다	-9888
스팔트	-9889
신데요	-9890
실에서	-9891
심부름	-9892
아파트	-9893
안하네	-9894
았더니	-9895
어딨어	-9896
어서요	-9897
어야죠	-9898
업무를	-9899
영희씨	-9900
오는데	-9901
오던지	-9902
오면서	-9903
온다고	-9904
왔잖아	-9905
원에서	-9906
웠는데	-9907
웠어요	-9908
으시고	-9909
은건데	-9910
을까봐	-9911
인거냐	-9912
인줄알	-9913
일이라	-9914
있어야	-9915
장애인	-9916
전이야	-9917
졌는데	-9918
졌어요	-9919
주니까	-9920
주임은	-9921
줄래요	-9922
줄알고	-9923
줘야돼	-9924
증후군	-9925
짜고짜	-9926
짜증나	-9927
쳤는데	-9928
품으로	-9929
하기도	-9930
하나만	-9931
하라면	-9932
하지는	-9933
하지말	-9934
하지않	-9935
한가요	-9936
한거니	-9937
한거지	-9938
해보여	-9939
해봐야	-9940
해야해	-9941
했는지	-9942
회사에	-9943
.!!!	-9944
..."	-9945
.???	-9946
0000	-9947
?!?!	-9948
▁450	-9949
▁가난한	-9950
▁가던길	-9951
▁가도록	-9952
▁가방은	-9953
▁가야해	-9954
▁가지러	-9955
▁가지마	-9956
▁간호사	-9957
▁감당할	-9958
▁갑니다	-9959
▁갔잖아	-9960
▁같지도	-9961
▁개만도	-9962
▁개웃겨	-9963
▁걸려서	-9964
▁걸지마	-9965
▁것까지	-9966
▁결정해	-9967
▁결혼도	-9968
▁결혼한	-9969
▁계셔서	-9970
▁계시는	-9971
▁계신데	-9972
▁고맙지	-9973
▁고치면	-9974
▁고통을	-9975
▁괜찮을	-9976
▁괴롭혔	-9977
▁국어쌤	-9978
▁귀여워	-9979
▁귀엽다	-9980
▁귀찮아	-9981
▁그니깐	-9982
▁그딴거	-9983
▁그만한	-9984
▁그새끼	-9985
▁금액을	-9986
▁기대해	-9987
▁기분을	-9988
▁기사로	-9989
▁기한을	-9990
▁길바닥	-9991
▁김길동	-9992
▁까불고	-9993
▁꼬라봐	-9994
▁꼬리쳤	-9995
▁꾸지마	-9996
▁끝나서	-9997
▁끝내서	-9998
▁끝내야	-9999
▁나간다	-10000
▁나이도	-10001
▁날아가	-10002
▁남겨와	-10003
▁남자는	-10004
▁남자도	-10005
▁남자들	-10006
▁남자에	-10007
▁낳아서	-10008
▁내놓을	-10009
▁내려와	-10010
▁내보내	-10011
▁내손에	-10012
▁넘어갈	-10013
▁노래도	-10014
▁놀자고	-10015
▁놓으면	-10016
▁누구냐	-10017
▁누군줄	-10018
▁니까짓	-10019
▁니동생	-10020
▁다꺼내	-10021
▁다니네	-10022
▁다음번	-10023
▁다치기	-10024
▁다했냐	-10025
▁단단히	-10026
▁달라질	-10027
▁닮아서	-10028
▁담당이	-10029
▁답답한	-10030
▁당뇨병	-10031
▁당신네	-10032
▁당신을	-10033
▁당해서	-10034
▁대리가	-10035
▁대학도	-10036
▁대학생	-10037
▁더럽네	-10038
▁데려가	-10039
▁도둑놈	-10040
▁도둑질	-10041
▁도서관	-10042
▁도와줬	-10043
▁돈없는	-10044
▁돈이랑	-10045
▁돌아갈	-10046
▁돌아와	-10047
▁동네에	-10048
▁동문회	-10049
▁됐고요	-10050
▁뒤졌다	-10051
▁뒷담화	-10052
▁드럽게	-10053
▁들어올	-10054
▁때려봐	-10055
▁때리는	-10056
▁똑같네	-10057
▁레전드	-10058
▁마셔서	-10059
▁마실게	-10060
▁마음도	-10061
▁마카롱	-10062
▁만나지	-10063
▁만났지	-10064
▁만드는	-10065
▁만약에	-10066
▁만큼은	-10067
▁많더라	-10068
▁많으면	-10069
▁말고도	-10070
▁말이돼	-10071
▁말인지	-10072
▁맛있대	-10073
▁망치로	-10074
▁먹는게	-10075
▁멈춰봐	-10076
▁멍청아	-10077
▁멜로디	-10078
▁모았어	-10079
▁모양이	-10080
▁모자랄	-10081
▁못가게	-10082
▁못들은	-10083
▁못받아	-10084
▁못쓰게	-10085
▁못참아	-10086
▁못한거	-10087
▁무섭고	-10088
▁무섭다	-10089
▁문제지	-10090
▁미스김	-10091
▁미안할	-10092
▁미주야	-10093
▁미쳤니	-10094
▁민수씨	-10095
▁민주씨	-10096
▁바꾸자	-10097
▁바꿔서	-10098
▁바나나	-10099
▁바람핀	-10100
▁바르고	-10101
▁바빴어	-10102
▁바쁜척	-10103
▁반에서	-10104
▁받아와	-10105
▁받으러	-10106
▁방법을	-10107
▁배웠어	-10108
▁백만원	-10109
▁버러지	-10110
▁버르장	-10111
▁법대로	-10112
▁보내는	-10113
▁보는게	-10114
▁보여서	-10115
▁보여주	-10116
▁보이스	-10117
▁보잖아	-10118
▁뵈는게	-10119
▁부분은	-10120
▁부탁이	-10121
▁분들은	-10122
▁불구로	-10123
▁불쾌해	-10124
▁불편을	-10125
▁불편한	-10126
▁비슷한	-10127
▁비싼거	-10128
▁빌려갔	-10129
▁빌려달	-10130
▁빌리고	-10131
▁빌릴게	-10132
▁빠지고	-10133
▁빡치게	-10134
▁뿌린다	-10135
▁사건에	-10136
▁사는거	-10137
▁사다줘	-10138
▁사라지	-10139
▁사먹어	-10140
▁사이가	-10141
▁사진찍	-10142
▁산다며	-10143
▁살아갈	-10144
▁살아도	-10145
▁살아라	-10146
▁살았어	-10147
▁상상도	-10148
▁새벽에	-10149
▁생각한	-10150
▁선택해	-10151
▁설거지	-10152
▁소고기	-10153
▁소리내	-10154
▁소리로	-10155
▁소리지	-10156
▁소방관	-10157
▁손해가	-10158
▁수술비	-10159
▁수정해	-10160
▁스마트	-10161
▁스케줄	-10162
▁승진은	-10163
▁시키지	-10164
▁시킨거	-10165
▁신경꺼	-10166
▁신고는	-10167
▁신고를	-10168
▁신고하	-10169
▁신발도	-10170
▁신장이	-10171
▁실력이	-10172
▁싫어해	-10173
▁싶은가	-10174
▁쓰는건	-10175
▁씨씨티	-10176
▁아는거	-10177
▁아니든	-10178
▁아니래	-10179
▁아닐세	-10180
▁아빠도	-10181
▁아시니	-10182
▁아시지	-10183
▁아이구	-10184
▁아프게	-10185
▁아픈데	-10186
▁안갔다	-10187
▁안나와	-10188
▁안내려	-10189
▁안돼죠	-10190
▁안되긴	-10191
▁안되냐	-10192
▁안둔다	-10193
▁안들고	-10194
▁안들려	-10195
▁안받고	-10196
▁안인턴	-10197
▁안좋게	-10198
▁안주고	-10199
▁안할게	-10200
▁안해봤	-10201
▁안했냐	-10202
▁않나요	-10203
▁않는다	-10204
▁않는데	-10205
▁않은가	-10206
▁알바를	-10207
▁알바비	-10208
▁알바야	-10209
▁알아내	-10210
▁알아보	-10211
▁알았다	-10212
▁알지도	-10213
▁알텐데	-10214
▁애미애	-10215
▁애비가	-10216
▁애새끼	-10217
▁앵무새	-10218
▁야유회	-10219
▁양심도	-10220
▁어디를	-10221
▁어려서	-10222
▁어린게	-10223
▁어제는	-10224
▁업무로	-10225
▁없는지	-10226
▁없어지	-10227
▁없지만	-10228
▁엉덩이	-10229
▁여드름	-10230
▁여자는	-10231
▁연락이	-10232
▁연습해	-10233
▁열어서	-10234
▁영화나	-10235
▁예쁘네	-10236
▁예진이	-10237
▁오니까	-10238
▁온거야	-10239
▁올게요	-10240
▁올려놓	-10241
▁올려서	-10242
▁올리는	-10243
▁올해는	-10244
▁올해도	-10245
▁왔다고	-10246
▁왕인거	-10247
▁외삼촌	-10248
▁용돈도	-10249
▁우리를	-10250
▁우리애	-10251
▁우리의	-10252
▁우연히	-10253
▁워크샵	-10254
▁워크숍	-10255
▁원해서	-10256
▁월세도	-10257
▁위치추	-10258
▁유출되	-10259
▁이거랑	-10260
▁이것만	-10261
▁이년이	-10262
▁이래요	-10263
▁이른다	-10264
▁이름도	-10265
▁이리내	-10266
▁이모양	-10267
▁이쁘지	-10268
▁이자리	-10269
▁이주임	-10270
▁이해해	-10271
▁인내심	-10272
▁인생을	-10273
▁인질로	-10274
▁일인가	-10275
▁일하면	-10276
▁일해서	-10277
▁임신이	-10278
▁입냄새	-10279
▁입사한	-10280
▁입원해	-10281
▁있다면	-10282
▁자기는	-10283
▁자식은	-10284
▁자신이	-10285
▁잘들어	-10286
▁잘라서	-10287
▁잘했다	-10288
▁잡아먹	-10289
▁잡아봐	-10290
▁장기를	-10291
▁장소로	-10292
▁장애가	-10293
▁재미가	-10294
▁저기로	-10295
▁저기서	-10296
▁저번엔	-10297
▁저번주	-10298
▁저세상	-10299
▁저승길	-10300
▁전달을	-10301
▁전부야	-10302
▁전에는	-10303
▁전재산	-10304
▁절대로	-10305
▁점장님	-10306
▁정도만	-10307
▁제목이	-10308
▁조용한	-10309
▁좋아할	-10310
▁좋을걸	-10311
▁좋자고	-10312
▁주는게	-10313
▁죽어봐	-10314
▁준비나	-10315
▁준비를	-10316
▁줄테니	-10317
▁중위권	-10318
▁중학교	-10319
▁줘야해	-10320
▁증거는	-10321
▁지금이	-10322
▁지나면	-10323
▁지능이	-10324
▁지울게	-10325
▁지키면	-10326
▁지현씨	-10327
▁지혜야	-10328
▁진짜요	-10329
▁집에는	-10330
▁짜장면	-10331
▁찬호야	-10332
▁책임감	-10333
▁책임자	-10334
▁처리를	-10335
▁쳤으면	-10336
▁최소한	-10337
▁치마가	-10338
▁치지마	-10339
▁친구를	-10340
▁친구요	-10341
▁카드는	-10342
▁카페는	-10343
▁커뮤니	-10344
▁커피마	-10345
▁태어날	-10346
▁통하는	-10347
▁퇴근해	-10348
▁티켓팅	-10349
▁폰으로	-10350
▁폼으로	-10351
▁프린터	-10352
▁피시방	-10353
▁피하는	-10354
▁피해주	-10355
▁필요가	-10356
▁하겠네	-10357
▁하겠지	-10358
▁하나를	-10359
▁하나야	-10360
▁하나에	-10361
▁하늘도	-10362
▁하더니	-10363
▁하던데	-10364
▁하루는	-10365
▁하시네	-10366
▁하지도	-10367
▁학력이	-10368
▁학생들	-10369
▁학생이	-10370
▁한국인	-10371
▁한다면	-10372
▁한달만	-10373
▁할꺼야	-10374
▁함부러	-10375
▁해서는	-10376
▁해야해	-10377
▁했는지	-10378
▁했다는	-10379
▁했으니	-10380
▁허튼짓	-10381
▁헬스장	-10382
▁현금이	-10383
▁혈액형	-10384
▁협박을	-10385
▁혹시나	-10386
▁환자가	-10387
▁회사의	-10388
▁후회할	-10389
▁훔쳐서	-10390
▁힘들면	-10391
같습니다	-10392
겠다고요	-10393
겠으니까	-10394
고다니냐	-10395
고등학교	-10396
고싶은데	-10397
그렇지만	-10398
돈이에요	-10399
라니까요	-10400
받으면서	-10401
배고픈데	-10402
뿐이에요	-10403
시겠어요	-10404
시끄러워	-10405
애들이랑	-10406
오늘까지	-10407
왔는데요	-10408
이리스트	-10409
이십니다	-10410
있는데요	-10411
있으니까	-10412
잘못했어	-10413
하는건가	-10414
하는구나	-10415
하다니까	-10416
하시나요	-10417
하시면서	-10418
하십시오	-10419
한건데요	-10420
할거같아	-10421
해달라고	-10422
해보라고	-10423
했나봐요	-10424
했다니까	-10425
.!!!!	-10426
▁!!!!	-10427
▁가만안둘	-10428
▁가야해요	-10429
▁가져와야	-10430
▁가족끼리	-10431
▁가족여행	-10432
▁가족한테	-10433
▁갈테니까	-10434
▁갚았잖아	-10435
▁개빡치게	-10436
▁개새끼가	-10437
▁개인사정	-10438
▁걸어가면	-10439
▁경찰부를	-10440
▁계산하고	-10441
▁고객님의	-10442
▁고분고분	-10443
▁고생했어	-10444
▁곤란해요	-10445
▁괜찮다고	-10446
▁괴롭히면	-10447
▁궁금한데	-10448
▁귀머거리	-10449
▁그거라도	-10450
▁그래봤자	-10451
▁그랬다고	-10452
▁그랬다는	-10453
▁그러길래	-10454
▁그러던데	-10455
▁그렇게해	-10456
▁그을거야	-10457
▁그지같이	-10458
▁급하다고	-10459
▁기다리게	-10460
▁기대하고	-10461
▁기억안나	-10462
▁김대리도	-10463
▁김마리씨	-10464
▁김사원은	-10465
▁깨끗하게	-10466
▁나름대로	-10467
▁나쁜사람	-10468
▁나였으면	-10469
▁나오시면	-10470
▁나오지를	-10471
▁나온다면	-10472
▁나왔어요	-10473
▁나왔으면	-10474
▁나이먹고	-10475
▁남자한테	-10476
▁납치해서	-10477
▁냄새나서	-10478
▁냄새난다	-10479
▁너같으면	-10480
▁너같은거	-10481
▁너네집에	-10482
▁너네한테	-10483
▁놀랐잖아	-10484
▁누가그래	-10485
▁눈앞에서	-10486
▁다녀오면	-10487
▁다녔다며	-10488
▁다닌다고	-10489
▁다닌다며	-10490
▁다른남자	-10491
▁다음에도	-10492
▁다짜고짜	-10493
▁다행이야	-10494
▁달달한거	-10495
▁당신한테	-10496
▁당연한거	-10497
▁대박이야	-10498
▁도둑이야	-10499
▁도와주라	-10500
▁동생보다	-10501
▁동생이랑	-10502
▁동생한테	-10503
▁되시나요	-10504
▁들고다녀	-10505
▁들어오고	-10506
▁따뜻하고	-10507
▁따뜻한거	-10508
▁똑같은거	-10509
▁리모델링	-10510
▁마십시오	-10511
▁만나기로	-10512
▁만만하지	-10513
▁말씀드릴	-10514
▁말하는게	-10515
▁맞고싶냐	-10516
▁맞았다고	-10517
▁모르는게	-10518
▁못들었어	-10519
▁못봤어요	-10520
▁못하는데	-10521
▁못한다고	-10522
▁무서우면	-10523
▁물어보면	-10524
▁물어봐도	-10525
▁뭐하세요	-10526
▁뭐하자는	-10527
▁미안미안	-10528
▁바빠서요	-10529
▁박사원이	-10530
▁받았는데	-10531
▁받은거야	-10532
▁받은건데	-10533
▁방법이다	-10534
▁배고파서	-10535
▁배고프다	-10536
▁배고픈데	-10537
▁벗으라고	-10538
▁병신같은	-10539
▁병원비가	-10540
▁보내드릴	-10541
▁보내세요	-10542
▁보내야지	-10543
▁보내주는	-10544
▁보여줘봐	-10545
▁보이는데	-10546
▁봤습니다	-10547
▁부서에서	-10548
▁분위기도	-10549
▁불렀는데	-10550
▁불려가서	-10551
▁불법이야	-10552
▁불쌍해라	-10553
▁빌려가고	-10554
▁빌려주고	-10555
▁빌려줘요	-10556
▁빌립시다	-10557
▁빵좀사와	-10558
▁사라져라	-10559
▁사람에게	-10560
▁사무실에	-10561
▁사소한거	-10562
▁사주라고	-10563
▁사준건데	-10564
▁사줬잖아	-10565
▁사진으로	-10566
▁산책하기	-10567
▁상황에서	-10568
▁생각하냐	-10569
▁생각해보	-10570
▁생일이라	-10571
▁소리하고	-10572
▁소문났어	-10573
▁소문내고	-10574
▁솔직하게	-10575
▁수학여행	-10576
▁승진하기	-10577
▁시간인데	-10578
▁시작하자	-10579
▁시키는데	-10580
▁신어보자	-10581
▁신용불량	-10582
▁싫어하는	-10583
▁싶으니까	-10584
▁써주세요	-10585
▁아니라서	-10586
▁아들이랑	-10587
▁아빠한테	-10588
▁아셨어요	-10589
▁아스팔트	-10590
▁아프다고	-10591
▁안됐는데	-10592
▁안되는거	-10593
▁안들어서	-10594
▁안들으면	-10595
▁안보내면	-10596
▁안시키고	-10597
▁안좋아해	-10598
▁알고있어	-10599
▁알려주실	-10600
▁알려줘야	-10601
▁얘기하면	-10602
▁얘기했다	-10603
▁어디부터	-10604
▁어딨는지	-10605
▁어떡할래	-10606
▁어제부터	-10607
▁어쩔껀데	-10608
▁억울하면	-10609
▁억울해요	-10610
▁언제든지	-10611
▁얼마있어	-10612
▁없어지면	-10613
▁없었어요	-10614
▁여기있어	-10615
▁여기저기	-10616
▁여자한테	-10617
▁옥상으로	-10618
▁왔는데요	-10619
▁왜그러나	-10620
▁우리나라	-10621
▁우리아이	-10622
▁월요일날	-10623
▁윗분들이	-10624
▁으아아악	-10625
▁이거라도	-10626
▁이거봐라	-10627
▁이대리는	-10628
▁이러는지	-10629
▁이러다가	-10630
▁이럴거야	-10631
▁이를거야	-10632
▁이상하고	-10633
▁이상하다	-10634
▁일어나서	-10635
▁일하는게	-10636
▁있거든요	-10637
▁있는거고	-10638
▁있는거지	-10639
▁있었어요	-10640
▁있으라고	-10641
▁잊어버려	-10642
▁잘못했다	-10643
▁잠깐만요	-10644
▁장난이지	-10645
▁장난치는	-10646
▁저러니까	-10647
▁저번달에	-10648
▁저번처럼	-10649
▁저희끼리	-10650
▁조심하자	-10651
▁좋겠는데	-10652
▁좋으니까	-10653
▁주는거야	-10654
▁주말에도	-10655
▁준비할게	-10656
▁지긋지긋	-10657
▁지랄하네	-10658
▁지워줄게	-10659
▁짜증나서	-10660
▁찐따처럼	-10661
▁책상위에	-10662
▁처리하고	-10663
▁체육대회	-10664
▁초등학생	-10665
▁취소할게	-10666
▁커피타는	-10667
▁커피한잔	-10668
▁편하잖아	-10669
▁평소에도	-10670
▁피곤하게	-10671
▁필라테스	-10672
▁필요하지	-10673
▁하고다녀	-10674
▁하나부터	-10675
▁하는거고	-10676
▁하셨는데	-10677
▁한마디만	-10678
▁할것이지	-10679
▁해보라고	-10680
▁해오라고	-10681
▁해주시면	-10682
▁해준다고	-10683
▁해줄게요	-10684
▁해줬더니	-10685
▁했으면서	-10686
▁행복하게	-10687
▁헤어졌어	-10688
▁협박하시	-10689
▁확인해보	-10690
▁환불처리	-10691
겠다는거야	-10692
들었습니다	-10693
말아주세요	-10694
버려야겠어	-10695
시는거에요	-10696
신거잖아요	-10697
어서오세요	-10698
오랜만이다	-10699
죄송하지만	-10700
주시겠어요	-10701
▁가능할까요	-10702
▁거지새끼야	-10703
▁것만으로도	-10704
▁교장선생님	-10705
▁구해올게요	-10706
▁그게아니라	-10707
▁그러고보니	-10708
▁그러는거지	-10709
▁그러는건데	-10710
▁기다리세요	-10711
▁기분나쁘게	-10712
▁남자새끼가	-10713
▁냄새나니까	-10714
▁대답안하냐	-10715
▁돌려준다고	-10716
▁드릴테니까	-10717
▁마지막이다	-10718
▁만들어줄까	-10719
▁말대꾸까지	-10720
▁말대꾸하네	-10721
▁맞으신가요	-10722
▁모르겠네요	-10723
▁몸으로라도	-10724
▁못알아들어	-10725
▁못알아먹네	-10726
▁못하겠으면	-10727
▁바보아니야	-10728
▁배고프니까	-10729
▁보내주시면	-10730
▁봐주십시오	-10731
▁부끄럽지도	-10732
▁부당합니다	-10733
▁불편합니다	-10734
▁선물받은거	-10735
▁스타일이야	-10736
▁시키는거야	-10737
▁아끼는거야	-10738
▁아니었어요	-10739
▁아무한테도	-10740
▁안되는거야	-10741
▁애니메이션	-10742
▁어떡합니까	-10743
▁어려우세요	-10744
▁오해십니다	-10745
▁우리사이에	-10746
▁이기적이네	-10747
▁일이십니까	-10748
▁있으십니까	-10749
▁있을테니까	-10750
▁장난하는거	-10751
▁장애인이냐	-10752
▁장애인이면	-10753
▁정신차릴래	-10754
▁조심할께요	-10755
▁죽을때까지	-10756
▁프로젝트에	-10757
▁필요하다고	-10758
▁해주셔야죠	-10759
▁헤어졌잖아	-10760
▁회사에서는	-10761
죽여버릴거야	-10762
하는거아니야	-10763
▁거짓말하지마	-10764
▁뛰어내릴거야	-10765
▁빌려달라는데	-10766
▁신고할겁니다	-10767
▁아니라니까요	-10768
▁아니었습니다	-10769
▁좋은말로할때	-10770
▁죽여버리겠어	-10771
▁청소해야겠어	-10772
▁플레이리스트	-10773
▁구해오겠습니다	-10774
▁보자보자하니까	-10775
▁제출하겠습니다	-10776
▁찾아보겠습니다	-10777
▁헛소리하지말고	-10778
▁확인하겠습니다	-10779
▁힘들거같습니다	-10780
▁도와드리겠습니다	-10781
▁환불해드리겠습니다	-10782
!!!!!!!!!!!!	-10783
,3	-10784
01	-10785
82	-10786
BT	-10787
▁I	-10788
▁M	-10789
▁겉	-10790
▁긍	-10791
▁깁	-10792
▁깽	-10793
▁꼽	-10794
▁끔	-10795
▁닳	-10796
▁댔	-10797
▁뒀	-10798
▁뒈	-10799
▁떳	-10800
▁똘	-10801
▁띨	-10802
▁룸	-10803
▁맙	-10804
▁및	-10805
▁붕	-10806
▁샴	-10807
▁슈	-10808
▁싯	-10809
▁쌔	-10810
▁썅	-10811
▁쏜	-10812
▁쑥	-10813
▁앓	-10814
▁앤	-10815
▁엇	-10816
▁엊	-10817
▁엮	-10818
▁옙	-10819
▁웩	-10820
▁잼	-10821
▁줍	-10822
▁짭	-10823
▁짰	-10824
▁쯔	-10825
▁쯤	-10826
▁칫	-10827
▁퀄	-10828
▁킬	-10829
▁탁	-10830
▁틈	-10831
▁펑	-10832
▁품	-10833
▁핀	-10834
▁훈	-10835
▁흙	-10836
▁흰	-10837
가냐	-10838
가로	-10839
가족	-10840
가진	-10841
각서	-10842
간소	-10843
갈기	-10844
갈때	-10845
감고	-10846
값은	-10847
같나	-10848
같냐	-10849
개나	-10850
개씩	-10851
거는	-10852
거죠	-10853
경씨	-10854
계속	-10855
계정	-10856
고사	-10857
공부	-10858
과의	-10859
과자	-10860
구역	-10861
국밥	-10862
국수	-10863
그랑	-10864
그리	-10865
그제	-10866
근에	-10867
금방	-10868
긴거	-10869
길로	-10870
길이	-10871
김에	-10872
까고	-10873
깔이	-10874
꼬리	-10875
꾸로	-10876
나기	-10877
나쁘	-10878
나온	-10879
날게	-10880
날짜	-10881
남친	-10882
남편	-10883
내게	-10884
내미	-10885
년전	-10886
녜요	-10887
노력	-10888
놓은	-10889
놔라	-10890
놔서	-10891
니네	-10892
니요	-10893
다닌	-10894
담배	-10895
당할	-10896
더욱	-10897
덩어	-10898
도덕	-10899
돈만	-10900
동료	-10901
돼지	-10902
되네	-10903
되니	-10904
되었	-10905
되요	-10906
두지	-10907
둘러	-10908
드렛	-10909
들과	-10910
들면	-10911
들여	-10912
등록	-10913
디귿	-10914
띵가	-10915
럼아	-10916
렌즈	-10917
로우	-10918
로운	-10919
론씨	-10920
률이	-10921
르기	-10922
르바	-10923
리나	-10924
리티	-10925
마귀	-10926
막이	-10927
막힌	-10928
만해	-10929
망구	-10930
맨스	-10931
먹게	-10932
모로	-10933
목숨	-10934
몸이	-10935
못차	-10936
무원	-10937
문대	-10938
문서	-10939
뭐가	-10940
민들	-10941
바위	-10942
박산	-10943
박에	-10944
받지	-10945
발병	-10946
발이	-10947
방법	-10948
방향	-10949
버렸	-10950
버스	-10951
법을	-10952
법이	-10953
보낸	-10954
보도	-10955
보드	-10956
보죠	-10957
보호	-10958
봐줘	-10959
부가	-10960
부들	-10961
부림	-10962
부분	-10963
부서	-10964
분간	-10965
비도	-10966
빠릿	-10967
빵이	-10968
빼면	-10969
사건	-10970
사게	-10971
사용	-10972
사이	-10973
산다	-10974
상사	-10975
상을	-10976
상해	-10977
새가	-10978
새꺄	-10979
샘이	-10980
설을	-10981
세네	-10982
셔틀	-10983
소는	-10984
수구	-10985
쉬고	-10986
스러	-10987
스름	-10988
스템	-10989
시를	-10990
시만	-10991
시오	-10992
시피	-10993
시험	-10994
식구	-10995
식은	-10996
신을	-10997
실에	-10998
심한	-10999
썼다	-11000
쓰네	-11001
쓰는	-11002
쓰레	-11003
아님	-11004
아들	-11005
알바	-11006
애랑	-11007
약자	-11008
얘기	-11009
어떤	-11010
어라	-11011
어빵	-11012
어우	-11013
어유	-11014
얼른	-11015
없냐	-11016
여편	-11017
연이	-11018
오게	-11019
올래	-11020
완료	-11021
왔다	-11022
용아	-11023
울래	-11024
웃음	-11025
원만	-11026
웠던	-11027
윤씨	-11028
으라	-11029
으악	-11030
을께	-11031
음식	-11032
이것	-11033
이쁘	-11034
이씨	-11035
인생	-11036
일까	-11037
일단	-11038
일병	-11039
있으	-11040
자야	-11041
재씨	-11042
재야	-11043
저나	-11044
절뚝	-11045
점수	-11046
정아	-11047
정해	-11048
제는	-11049
제도	-11050
제출	-11051
졌지	-11052
조금	-11053
조사	-11054
좀해	-11055
좋지	-11056
주만	-11057
주문	-11058
주소	-11059
주신	-11060
줬다	-11061
지랄	-11062
지리	-11063
지켜	-11064
진데	-11065
질래	-11066
질않	-11067
집을	-11068
차는	-11069
차도	-11070
차례	-11071
차를	-11072
체국	-11073
체중	-11074
쳐다	-11075
출이	-11076
치나	-11077
치마	-11078
치자	-11079
큭큭	-11080
킄킄	-11081
타령	-11082
타면	-11083
탕이	-11084
태로	-11085
터리	-11086
테고	-11087
텐가	-11088
토피	-11089
통도	-11090
트도	-11091
팡이	-11092
퍼센	-11093
프고	-11094
프트	-11095
피티	-11096
핑계	-11097
하에	-11098
한척	-11099
헌날	-11100
헤이	-11101
혀야	-11102
혀요	-11103
혀있	-11104
형사	-11105
혼자	-11106
후배	-11107
후에	-11108
히지	-11109
,00	-11110
.?!	-11111
BTI	-11112
NFP	-11113
▁60	-11114
▁가깝	-11115
▁가로	-11116
▁가망	-11117
▁가씨	-11118
▁가졌	-11119
▁가줄	-11120
▁가평	-11121
▁가해	-11122
▁각자	-11123
▁간수	-11124
▁갈기	-11125
▁감독	-11126
▁감동	-11127
▁감봉	-11128
▁값은	-11129
▁강도	-11130
▁강요	-11131
▁같니	-11132
▁갚고	-11133
▁갚은	-11134
▁개구	-11135
▁거길	-11136
▁거네	-11137
▁거란	-11138
▁거에	-11139
▁건지	-11140
▁걷게	-11141
▁걷냐	-11142
▁걸고	-11143
▁검정	-11144
▁겁을	-11145
▁경로	-11146
▁계셔	-11147
▁고과	-11148
▁고도	-11149
▁고추	-11150
▁골때	-11151
▁공감	-11152
▁과거	-11153
▁관두	-11154
▁관종	-11155
▁구별	-11156
▁굴려	-11157
▁굴지	-11158
▁그녀	-11159
▁그룹	-11160
▁그릇	-11161
▁그옷	-11162
▁그이	-11163
▁그전	-11164
▁극단	-11165
▁극혐	-11166
▁금품	-11167
▁급해	-11168
▁급히	-11169
▁기달	-11170
▁기름	-11171
▁기왕	-11172
▁긴말	-11173
▁길고	-11174
▁길면	-11175
▁김민	-11176
▁김서	-11177
▁까봐	-11178
▁깜박	-11179
▁깜빵	-11180
▁깽판	-11181
▁꼴랑	-11182
▁꼴이	-11183
▁꽂아	-11184
▁꾸며	-11185
▁끊을	-11186
▁끔찍	-11187
▁나나	-11188
▁나요	-11189
▁나원	-11190
▁나참	-11191
▁나체	-11192
▁날뛰	-11193
▁날씬	-11194
▁날을	-11195
▁낮춰	-11196
▁내자	-11197
▁내줘	-11198
▁냉면	-11199
▁너고	-11200
▁년아	-11201
▁년은	-11202
▁노려	-11203
▁놀자	-11204
▁놈의	-11205
▁놔둬	-11206
▁눈물	-11207
▁눈엔	-11208
▁늦잠	-11209
▁니넨	-11210
▁니딸	-11211
▁니형	-11212
▁님이	-11213
▁다만	-11214
▁다요	-11215
▁단발	-11216
▁담달	-11217
▁담요	-11218
▁담주	-11219
▁당첨	-11220
▁대고	-11221
▁대는	-11222
▁대선	-11223
▁대우	-11224
▁댄스	-11225
▁던진	-11226
▁도맡	-11227
▁동그	-11228
▁동업	-11229
▁동작	-11230
▁되네	-11231
▁될걸	-11232
▁두명	-11233
▁두분	-11234
▁뒹굴	-11235
▁드러	-11236
▁드셨	-11237
▁든건	-11238
▁듣게	-11239
▁들먹	-11240
▁때릴	-11241
▁땜에	-11242
▁땡기	-11243
▁떳떳	-11244
▁떼고	-11245
▁떼어	-11246
▁또래	-11247
▁뚱떙	-11248
▁뜨끈	-11249
▁뜻이	-11250
▁띄면	-11251
▁리가	-11252
▁마신	-11253
▁마취	-11254
▁막말	-11255
▁막혔	-11256
▁막힌	-11257
▁많을	-11258
▁말걸	-11259
▁말어	-11260
▁말조	-11261
▁맘만	-11262
▁맘이	-11263
▁맛을	-11264
▁맞춤	-11265
▁맡고	-11266
▁매력	-11267
▁맥주	-11268
▁먹냐	-11269
▁먹읍	-11270
▁먹일	-11271
▁멋진	-11272
▁메기	-11273
▁메모	-11274
▁며느	-11275
▁면목	-11276
▁몇명	-11277
▁목발	-11278
▁목살	-11279
▁몰입	-11280
▁몰카	-11281
▁몸뚱	-11282
▁몸캠	-11283
▁못만	-11284
▁못자	-11285
▁못찾	-11286
▁무거	-11287
▁무단	-11288
▁문서	-11289
▁문의	-11290
▁문턱	-11291
▁묻는	-11292
▁물러	-11293
▁물에	-11294
▁뭐로	-11295
▁뭐지	-11296
▁믹스	-11297
▁민선	-11298
▁민우	-11299
▁민주	-11300
▁민호	-11301
▁믿기	-11302
▁밀려	-11303
▁바랄	-11304
▁바르	-11305
▁박아	-11306
▁반에	-11307
▁반장	-11308
▁반짝	-11309
▁받게	-11310
▁밝네	-11311
▁배로	-11312
▁배울	-11313
▁백수	-11314
▁백원	-11315
▁버튼	-11316
▁벌고	-11317
▁벨트	-11318
▁벼슬	-11319
▁별건	-11320
▁별이	-11321
▁별일	-11322
▁보냐	-11323
▁보도	-11324
▁보람	-11325
▁보물	-11326
▁보육	-11327
▁보죠	-11328
▁복수	-11329
▁본방	-11330
▁부리	-11331
▁부인	-11332
▁부쩍	-11333
▁부하	-11334
▁분발	-11335
▁불행	-11336
▁블랙	-11337
▁비도	-11338
▁비린	-11339
▁비어	-11340
▁비정	-11341
▁비틀	-11342
▁빌빌	-11343
▁빠졌	-11344
▁빠질	-11345
▁빡빡	-11346
▁빨고	-11347
▁빼돌	-11348
▁빼앗	-11349
▁뽑은	-11350
▁사나	-11351
▁사네	-11352
▁사러	-11353
▁사지	-11354
▁사표	-11355
▁사항	-11356
▁산에	-11357
▁산지	-11358
▁살도	-11359
▁상큼	-11360
▁새치	-11361
▁샴푸	-11362
▁성근	-11363
▁성기	-11364
▁성장	-11365
▁세계	-11366
▁세명	-11367
▁세포	-11368
▁셀카	-11369
▁소속	-11370
▁소음	-11371
▁소화	-11372
▁속바	-11373
▁속에	-11374
▁손톱	-11375
▁수록	-11376
▁수면	-11377
▁수박	-11378
▁수비	-11379
▁수육	-11380
▁수익	-11381
▁수입	-11382
▁순수	-11383
▁순찰	-11384
▁술먹	-11385
▁술에	-11386
▁술은	-11387
▁숨기	-11388
▁숨이	-11389
▁쉬지	-11390
▁쉴까	-11391
▁쉽지	-11392
▁승인	-11393
▁시골	-11394
▁시내	-11395
▁시늉	-11396
▁시위	-11397
▁시즌	-11398
▁식단	-11399
▁신곡	-11400
▁신나	-11401
▁신사	-11402
▁신세	-11403
▁실시	-11404
▁실패	-11405
▁싫냐	-11406
▁싯팔	-11407
▁싱글	-11408
▁싶고	-11409
▁싶음	-11410
▁싶진	-11411
▁싸운	-11412
▁썩은	-11413
▁쏟아	-11414
▁쏠게	-11415
▁쓰나	-11416
▁쓰냐	-11417
▁아름	-11418
▁아왜	-11419
▁아퍼	-11420
▁안구	-11421
▁안놀	-11422
▁안달	-11423
▁안무	-11424
▁안배	-11425
▁안살	-11426
▁안써	-11427
▁안올	-11428
▁안입	-11429
▁안차	-11430
▁알것	-11431
▁알기	-11432
▁애자	-11433
▁애좀	-11434
▁야비	-11435
▁약먹	-11436
▁약물	-11437
▁약은	-11438
▁어라	-11439
▁언어	-11440
▁엄두	-11441
▁엄지	-11442
▁업계	-11443
▁없단	-11444
▁에게	-11445
▁여우	-11446
▁연기	-11447
▁연탄	-11448
▁열쇠	-11449
▁열이	-11450
▁예능	-11451
▁예쁠	-11452
▁예쁨	-11453
▁예산	-11454
▁오오	-11455
▁오죽	-11456
▁올캐	-11457
▁옮길	-11458
▁와도	-11459
▁와바	-11460
▁와이	-11461
▁와인	-11462
▁왔냐	-11463
▁왔지	-11464
▁왜죠	-11465
▁왼손	-11466
▁운운	-11467
▁원이	-11468
▁유품	-11469
▁이겼	-11470
▁이니	-11471
▁이럼	-11472
▁이모	-11473
▁이물	-11474
▁이왕	-11475
▁이의	-11476
▁이칼	-11477
▁인도	-11478
▁인맥	-11479
▁일당	-11480
▁일루	-11481
▁일방	-11482
▁일본	-11483
▁일한	-11484
▁입시	-11485
▁입장	-11486
▁입지	-11487
▁있음	-11488
▁자란	-11489
▁자제	-11490
▁자지	-11491
▁자취	-11492
▁잔뜩	-11493
▁잔만	-11494
▁잘먹	-11495
▁잘살	-11496
▁잘아	-11497
▁잘안	-11498
▁잘한	-11499
▁잡네	-11500
▁잡일	-11501
▁장인	-11502
▁재능	-11503
▁재용	-11504
▁저걸	-11505
▁저렴	-11506
▁저봐	-11507
▁저장	-11508
▁저주	-11509
▁저질	-11510
▁저쪽	-11511
▁전날	-11512
▁전문	-11513
▁전번	-11514
▁전세	-11515
▁전엔	-11516
▁전역	-11517
▁정석	-11518
▁정지	-11519
▁제거	-11520
▁제육	-11521
▁조리	-11522
▁조상	-11523
▁조작	-11524
▁조폭	-11525
▁조회	-11526
▁죄야	-11527
▁주사	-11528
▁주위	-11529
▁쥐어	-11530
▁즉시	-11531
▁증말	-11532
▁지는	-11533
▁지능	-11534
▁지루	-11535
▁지역	-11536
▁지잡	-11537
▁지체	-11538
▁지킨	-11539
▁지현	-11540
▁진급	-11541
▁진단	-11542
▁집합	-11543
▁짓도	-11544
▁징징	-11545
▁짜리	-11546
▁짱깨	-11547
▁쩔뚝	-11548
▁찔려	-11549
▁차렸	-11550
▁차이	-11551
▁차장	-11552
▁찰떡	-11553
▁참견	-11554
▁찾는	-11555
▁찾았	-11556
▁채로	-11557
▁챙기	-11558
▁천만	-11559
▁첫째	-11560
▁청구	-11561
▁쳐먹	-11562
▁최종	-11563
▁추석	-11564
▁추운	-11565
▁충고	-11566
▁치냐	-11567
▁치맥	-11568
▁치즈	-11569
▁치켜	-11570
▁칼만	-11571
▁칼칼	-11572
▁커버	-11573
▁케어	-11574
▁코도	-11575
▁코딩	-11576
▁크네	-11577
▁크다	-11578
▁키도	-11579
▁키킥	-11580
▁타령	-11581
▁탓은	-11582
▁터지	-11583
▁터질	-11584
▁테블	-11585
▁토할	-11586
▁특성	-11587
▁티도	-11588
▁팔다	-11589
▁팔았	-11590
▁팥빙	-11591
▁패션	-11592
▁패스	-11593
▁편히	-11594
▁평상	-11595
▁폐지	-11596
▁포함	-11597
▁폰에	-11598
▁표현	-11599
▁풀리	-11600
▁풀자	-11601
▁풍비	-11602
▁피고	-11603
▁피도	-11604
▁피면	-11605
▁피워	-11606
▁하러	-11607
▁하며	-11608
▁한갑	-11609
▁한것	-11610
▁한눈	-11611
▁한창	-11612
▁핫도	-11613
▁핫바	-11614
▁해두	-11615
▁해봤	-11616
▁해지	-11617
▁험담	-11618
▁협상	-11619
▁협의	-11620
▁협조	-11621
▁혜택	-11622
▁호구	-11623
▁호호	-11624
▁혼잣	-11625
▁혼좀	-11626
▁환갑	-11627
▁환경	-11628
▁환멸	-11629
▁회장	-11630
▁휴게	-11631
▁휴직	-11632
▁흐윽	-11633
▁흔들	-11634
▁희망	-11635
▁힘을	-11636
가세요	-11637
간소음	-11638
갈게요	-11639
거같냐	-11640
거리를	-11641
계세요	-11642
고싶나	-11643
곳에서	-11644
구니가	-11645
그래머	-11646
그래요	-11647
급으로	-11648
급해서	-11649
기까지	-11650
기사님	-11651
기인데	-11652
김비서	-11653
꺼에요	-11654
나오게	-11655
날인데	-11656
납니다	-11657
놨어요	-11658
는거면	-11659
는지는	-11660
님한테	-11661
다는건	-11662
다니네	-11663
다리로	-11664
다보니	-11665
달에도	-11666
답니까	-11667
더라니	-11668
돼지가	-11669
드려서	-11670
드려야	-11671
땡땡씨	-11672
떄려봐	-11673
라니깐	-11674
라면서	-11675
란다고	-11676
러워서	-11677
렸다며	-11678
리가요	-11679
마세요	-11680
만큼은	-11681
만하면	-11682
먹었어	-11683
민씨가	-11684
민주야	-11685
방에서	-11686
번이요	-11687
번째야	-11688
번호가	-11689
보고서	-11690
보는데	-11691
본건데	-11692
봅니다	-11693
부분이	-11694
부에서	-11695
부터는	-11696
분까지	-11697
분전에	-11698
빠지게	-11699
쁩니다	-11700
사람들	-11701
상병님	-11702
선배님	-11703
선에서	-11704
셨다고	-11705
소에서	-11706
소하게	-11707
수급자	-11708
스프레	-11709
시니까	-11710
시부터	-11711
시켜서	-11712
시키는	-11713
신대로	-11714
싶으면	-11715
쓴다고	-11716
씩이다	-11717
아가서	-11718
아닌가	-11719
아래로	-11720
아무리	-11721
아빠가	-11722
아아아	-11723
약자석	-11724
어머님	-11725
어봐도	-11726
었구나	-11727
었구만	-11728
열심히	-11729
오든가	-11730
오라면	-11731
왔는가	-11732
왜이러	-11733
요일이	-11734
우리가	-11735
원하는	-11736
위바위	-11737
으려면	-11738
으로만	-11739
이구나	-11740
이봐요	-11741
이새끼	-11742
이씨가	-11743
이어폰	-11744
이지만	-11745
인거지	-11746
있는게	-11747
있다고	-11748
있어라	-11749
있었어	-11750
자리가	-11751
자리에	-11752
잠깐만	-11753
잠시만	-11754
적이지	-11755
적인거	-11756
정까지	-11757
정도는	-11758
정도면	-11759
주셔야	-11760
주시죠	-11761
준거야	-11762
줬으니	-11763
지수씨	-11764
지수야	-11765
직원이	-11766
질텐데	-11767
창으로	-11768
코야끼	-11769
하겠냐	-11770
하길래	-11771
하니깐	-11772
하다니	-11773
한다면	-11774
한사람	-11775
할거고	-11776
할때는	-11777
해놨어	-11778
해봐요	-11779
해야할	-11780
해져서	-11781
해주실	-11782
해준거	-11783
해줘요	-11784
했겠다	-11785
했지만	-11786
▁가게가	-11787
▁가격도	-11788
▁가까운	-11789
▁가는지	-11790
▁가다가	-11791
▁가던지	-11792
▁가서도	-11793
▁가시면	-11794
▁가야돼	-11795
▁가져갔	-11796
▁각오는	-11797
▁간단히	-11798
▁갈까요	-11799
▁감옥에	-11800
▁감정이	-11801
▁갔는지	-11802
▁갔다온	-11803
▁같길래	-11804
▁같다고	-11805
▁같았어	-11806
▁같은반	-11807
▁갚아줘	-11808
▁개그맨	-11809
▁걔네가	-11810
▁거기가	-11811
▁거꾸로	-11812
▁거리는	-11813
▁거면서	-11814
▁거스름	-11815
▁거절해	-11816
▁걱정이	-11817
▁건들이	-11818
▁건물이	-11819
▁건조해	-11820
▁걸리는	-11821
▁걸음걸	-11822
▁것같아	-11823
▁것처럼	-11824
▁겠어요	-11825
▁경찰부	-11826
▁경찰을	-11827
▁계산해	-11828
▁계약직	-11829
▁계좌에	-11830
▁고마운	-11831
▁고맙게	-11832
▁고맙긴	-11833
▁고생한	-11834
▁고의로	-11835
▁곤란할	-11836
▁곳인데	-11837
▁공기밥	-11838
▁과잉진	-11839
▁과장이	-11840
▁과체중	-11841
▁관리를	-11842
▁관리해	-11843
▁괜찮고	-11844
▁괜찮죠	-11845
▁구라까	-11846
▁구석에	-11847
▁국물이	-11848
▁국밥집	-11849
▁군대도	-11850
▁굼벵아	-11851
▁규정이	-11852
▁그거지	-11853
▁그것만	-11854
▁그것은	-11855
▁그것좀	-11856
▁그나마	-11857
▁그날은	-11858
▁그래라	-11859
▁그랬냐	-11860
▁그럴래	-11861
▁그럴수	-11862
▁그럴일	-11863
▁그리기	-11864
▁그만둘	-11865
▁글씨체	-11866
▁급한일	-11867
▁기다린	-11868
▁기본이	-11869
▁기한은	-11870
▁기회는	-11871
▁길에서	-11872
▁길이야	-11873
▁김디귿	-11874
▁김부장	-11875
▁김팀장	-11876
▁까라고	-11877
▁깨끗한	-11878
▁꼬리치	-11879
▁끈기가	-11880
▁끝나요	-11881
▁끼어들	-11882
▁끼치지	-11883
▁나갈게	-11884
▁나갔다	-11885
▁나갔어	-11886
▁나같은	-11887
▁나까지	-11888
▁나쁘지	-11889
▁나온거	-11890
▁나왔네	-11891
▁나주라	-11892
▁나죽고	-11893
▁나처럼	-11894
▁나타나	-11895
▁날씨야	-11896
▁남았네	-11897
▁남았다	-11898
▁남이사	-11899
▁남편도	-11900
▁낫겠다	-11901
▁내것도	-11902
▁내꺼다	-11903
▁내눈에	-11904
▁내려갈	-11905
▁내려두	-11906
▁내야돼	-11907
▁내용은	-11908
▁내일이	-11909
▁냄새는	-11910
▁너랑은	-11911
▁너무들	-11912
▁너지금	-11913
▁넉넉히	-11914
▁넘기는	-11915
▁넘어진	-11916
▁넣어서	-11917
▁노는데	-11918
▁노대리	-11919
▁노력을	-11920
▁노인이	-11921
▁놀지마	-11922
▁놈이야	-11923
▁놈한테	-11924
▁누구를	-11925
▁누군가	-11926
▁눈깔을	-11927
▁눈알을	-11928
▁눈웃음	-11929
▁늙은이	-11930
▁니같은	-11931
▁니네가	-11932
▁니들도	-11933
▁다냐고	-11934
▁다녀도	-11935
▁다녔냐	-11936
▁다녔어	-11937
▁다니자	-11938
▁다닐까	-11939
▁다닐지	-11940
▁다른건	-11941
▁다음날	-11942
▁다하고	-11943
▁다행이	-11944
▁단무지	-11945
▁단순히	-11946
▁달라지	-11947
▁담배좀	-11948
▁담임이	-11949
▁당분간	-11950
▁당연한	-11951
▁대놓고	-11952
▁대단한	-11953
▁대답해	-11954
▁대청소	-11955
▁대표님	-11956
▁대화가	-11957
▁대화는	-11958
▁더더욱	-11959
▁더럽다	-11960
▁도움도	-11961
▁도움을	-11962
▁도전해	-11963
▁돈내고	-11964
▁돌았냐	-11965
▁돌잔치	-11966
▁동생을	-11967
▁돼지냐	-11968
▁되도록	-11969
▁되돌려	-11970
▁두들겨	-11971
▁둘이서	-11972
▁뒤져봐	-11973
▁뒤통수	-11974
▁드는거	-11975
▁드는데	-11976
▁드루와	-11977
▁드릴게	-11978
▁드시고	-11979
▁듣겠어	-11980
▁듣는데	-11981
▁들려서	-11982
▁들어도	-11983
▁들어봐	-11984
▁들어줄	-11985
▁들어줘	-11986
▁들은거	-11987
▁들을게	-11988
▁딱이네	-11989
▁딸만은	-11990
▁때려서	-11991
▁떨어뜨	-11992
▁또라이	-11993
▁로맨스	-11994
▁리스트	-11995
▁마라야	-11996
▁마련해	-11997
▁마실래	-11998
▁마음껏	-11999
▁마치고	-12000
▁만나요	-12001
▁만드냐	-12002
▁만들면	-12003
▁만원도	-12004
▁만원짜	-12005
▁많던데	-12006
▁많이도	-12007
▁말던지	-12008
▁말든지	-12009
▁말밖에	-12010
▁말아야	-12011
▁말아주	-12012
▁말이니	-12013
▁말자야	-12014
▁말한건	-12015
▁말한것	-12016
▁말해줘	-12017
▁맘카페	-12018
▁망가뜨	-12019
▁망치고	-12020
▁망하게	-12021
▁망했어	-12022
▁맞나요	-12023
▁머저리	-12024
▁먹는데	-12025
▁먹었나	-12026
▁먹을게	-12027
▁멈춰줘	-12028
▁멍청해	-12029
▁며칠째	-12030
▁명문대	-12031
▁몇번을	-12032
▁모르니	-12033
▁모여서	-12034
▁모자라	-12035
▁모자란	-12036
▁목도리	-12037
▁목요일	-12038
▁몸매도	-12039
▁못먹고	-12040
▁못받았	-12041
▁못배운	-12042
▁못봤어	-12043
▁못치냐	-12044
▁못푸냐	-12045
▁못하니	-12046
▁못했다	-12047
▁무엇이	-12048
▁뭐라구	-12049
▁뭐하게	-12050
▁뭐했어	-12051
▁미쳤다	-12052
▁미치는	-12053
▁미팅이	-12054
▁민서씨	-12055
▁민우가	-12056
▁민지씨	-12057
▁민희씨	-12058
▁바꾸는	-12059
▁바꾸면	-12060
▁바닥이	-12061
▁바람도	-12062
▁바른거	-12063
▁바보로	-12064
▁바쁘게	-12065
▁바코드	-12066
▁박과장	-12067
▁박주임	-12068
▁반가워	-12069
▁반려견	-12070
▁반반한	-12071
▁받아도	-12072
▁밤까지	-12073
▁밥먹을	-12074
▁방법도	-12075
▁배우자	-12076
▁버릇이	-12077
▁버린다	-12078
▁벗어나	-12079
▁베란다	-12080
▁베이킹	-12081
▁별것도	-12082
▁병원을	-12083
▁보고도	-12084
▁보기도	-12085
▁보내야	-12086
▁보내요	-12087
▁보내지	-12088
▁보는거	-12089
▁보다가	-12090
▁보던가	-12091
▁보시면	-12092
▁보여요	-12093
▁보이고	-12094
▁보지도	-12095
▁보호자	-12096
▁복장이	-12097
▁볼게요	-12098
▁봅니다	-12099
▁봐준다	-12100
▁부러트	-12101
▁부르고	-12102
▁부르는	-12103
▁부르면	-12104
▁부모도	-12105
▁부분을	-12106
▁부수고	-12107
▁부시고	-12108
▁부장이	-12109
▁부탁좀	-12110
▁북한산	-12111
▁분들도	-12112
▁분들이	-12113
▁불러봐	-12114
▁불렀어	-12115
▁불안해	-12116
▁불이익	-12117
▁비겁한	-12118
▁비싼데	-12119
▁비정상	-12120
▁빌리면	-12121
▁빌린다	-12122
▁빠져나	-12123
▁빵셔틀	-12124
▁뻔하지	-12125
▁뻔했어	-12126
▁뽑으면	-12127
▁뽑히고	-12128
▁사과도	-12129
▁사귀면	-12130
▁사라고	-12131
▁사라질	-12132
▁사람아	-12133
▁사례금	-12134
▁사먹고	-12135
▁사시미	-12136
▁사오고	-12137
▁사전에	-12138
▁사주라	-12139
▁사주면	-12140
▁사준거	-12141
▁사진들	-12142
▁살거야	-12143
▁살려고	-12144
▁살수가	-12145
▁샀어요	-12146
▁상관할	-12147
▁상도덕	-12148
▁상황을	-12149
▁새치기	-12150
▁생각안	-12151
▁생기고	-12152
▁서류들	-12153
▁서울대	-12154
▁선물도	-12155
▁선물을	-12156
▁설렁탕	-12157
▁설명을	-12158
▁성적표	-12159
▁성추행	-12160
▁성폭행	-12161
▁세탁비	-12162
▁소리니	-12163
▁소리만	-12164
▁소문났	-12165
▁소문은	-12166
▁소연아	-12167
▁손목이	-12168
▁송대리	-12169
▁수급자	-12170
▁수요일	-12171
▁숙이고	-12172
▁숙제가	-12173
▁술먹고	-12174
▁스타킹	-12175
▁스토커	-12176
▁슬리퍼	-12177
▁승진을	-12178
▁시기에	-12179
▁시리얼	-12180
▁시리즈	-12181
▁시스템	-12182
▁시원해	-12183
▁시켜줘	-12184
▁시키자	-12185
▁시킬까	-12186
▁신을게	-12187
▁실제로	-12188
▁싫거든	-12189
▁싫었어	-12190
▁싫은가	-12191
▁심심해	-12192
▁심지어	-12193
▁심하긴	-12194
▁심하신	-12195
▁심한데	-12196
▁싶었던	-12197
▁싶지가	-12198
▁쌀국수	-12199
▁써야지	-12200
▁썼다고	-12201
▁쓰는게	-12202
▁쓸거야	-12203
▁아가야	-12204
▁아까도	-12205
▁아나봐	-12206
▁아나요	-12207
▁아녜요	-12208
▁아니구	-12209
▁아니까	-12210
▁아니꼬	-12211
▁아닌지	-12212
▁아들도	-12213
▁아들아	-12214
▁아르바	-12215
▁아무나	-12216
▁아이유	-12217
▁아직요	-12218
▁아프면	-12219
▁아프시	-12220
▁아프지	-12221
▁안괴롭	-12222
▁안나타	-12223
▁안대리	-12224
▁안들리	-12225
▁안맞아	-12226
▁안받아	-12227
▁안쓰럽	-12228
▁안에서	-12229
▁안왔지	-12230
▁안움직	-12231
▁안중요	-12232
▁안하냐	-12233
▁안해도	-12234
▁않도록	-12235
▁않아도	-12236
▁않으셨	-12237
▁않잖아	-12238
▁알려야	-12239
▁알려준	-12240
▁알려줄	-12241
▁알아둬	-12242
▁알아봐	-12243
▁알아와	-12244
▁알앗어	-12245
▁애까지	-12246
▁애인도	-12247
▁애인이	-12248
▁약속도	-12249
▁약이야	-12250
▁양반이	-12251
▁양심이	-12252
▁어디나	-12253
▁어딜가	-12254
▁어딨니	-12255
▁어떤게	-12256
▁어떨까	-12257
▁어린애	-12258
▁언제야	-12259
▁얼룩이	-12260
▁얼마야	-12261
▁얼만지	-12262
▁얼어죽	-12263
▁엄연히	-12264
▁없겠네	-12265
▁없겠지	-12266
▁없고요	-12267
▁없구만	-12268
▁없는게	-12269
▁없는놈	-12270
▁없을거	-12271
▁엊그제	-12272
▁여기를	-12273
▁여자를	-12274
▁여친이	-12275
▁역겨운	-12276
▁역겹다	-12277
▁연락안	-12278
▁엿먹이	-12279
▁영상만	-12280
▁영원히	-12281
▁예뻐서	-12282
▁예쁘지	-12283
▁예약이	-12284
▁오는거	-12285
▁오는데	-12286
▁오늘밤	-12287
▁오려나	-12288
▁오만원	-12289
▁오면서	-12290
▁올린다	-12291
▁옷이랑	-12292
▁와봐요	-12293
▁왔잖아	-12294
▁왜자꾸	-12295
▁왜저래	-12296
▁요금이	-12297
▁요번에	-12298
▁용돈을	-12299
▁용서해	-12300
▁우리만	-12301
▁우리형	-12302
▁우습나	-12303
▁우체국	-12304
▁운동을	-12305
▁울겠다	-12306
▁울지마	-12307
▁원숭이	-12308
▁월요병	-12309
▁위자료	-12310
▁위치에	-12311
▁위험한	-12312
▁유포해	-12313
▁윤대리	-12314
▁은지야	-12315
▁의도가	-12316
▁이거나	-12317
▁이거를	-12318
▁이건가	-12319
▁이놈이	-12320
▁이동네	-12321
▁이딴게	-12322
▁이러니	-12323
▁이런식	-12324
▁이름은	-12325
▁이름을	-12326
▁이리줘	-12327
▁이모가	-12328
▁이발병	-12329
▁이벤트	-12330
▁이봐요	-12331
▁이상형	-12332
▁이새키	-12333
▁이에요	-12334
▁이유도	-12335
▁이유를	-12336
▁이지랄	-12337
▁이체해	-12338
▁이해를	-12339
▁익숙해	-12340
▁인간은	-12341
▁인간이	-12342
▁인데요	-12343
▁인부들	-12344
▁인사도	-12345
▁인생은	-12346
▁인터폰	-12347
▁인턴이	-12348
▁일기장	-12349
▁일루와	-12350
▁일보다	-12351
▁일부로	-12352
▁일인지	-12353
▁일하시	-12354
▁일한지	-12355
▁입금이	-12356
▁입다물	-12357
▁입맛에	-12358
▁입맛이	-12359
▁입에서	-12360
▁있겠네	-12361
▁있는돈	-12362
▁있더라	-12363
▁있었니	-12364
▁있자나	-12365
▁잊었나	-12366
▁자기도	-12367
▁자네들	-12368
▁자네만	-12369
▁자를까	-12370
▁자신을	-12371
▁작아서	-12372
▁잘나가	-12373
▁잘난줄	-12374
▁잘못도	-12375
▁잘보여	-12376
▁잘지내	-12377
▁잘하지	-12378
▁잘해주	-12379
▁장모님	-12380
▁재밌대	-12381
▁재수없	-12382
▁저녁엔	-12383
▁저런걸	-12384
▁저지금	-12385
▁전단지	-12386
▁전화를	-12387
▁전화만	-12388
▁점심도	-12389
▁정과장	-12390
▁정리좀	-12391
▁정색해	-12392
▁정직원	-12393
▁정해져	-12394
▁조리를	-12395
▁존나게	-12396
▁좀전에	-12397
▁좋겠니	-12398
▁좋던데	-12399
▁좋으면	-12400
▁좋은게	-12401
▁좋을거	-12402
▁죄송합	-12403
▁주는거	-12404
▁주셔서	-12405
▁주소를	-12406
▁주시죠	-12407
▁죽는데	-12408
▁죽어서	-12409
▁죽여야	-12410
▁죽은거	-12411
▁준비도	-12412
▁준비물	-12413
▁줄넘기	-12414
▁중학생	-12415
▁줘야돼	-12416
▁줬다고	-12417
▁지갑도	-12418
▁지내지	-12419
▁지냈어	-12420
▁지르고	-12421
▁지어낸	-12422
▁지희씨	-12423
▁진정한	-12424
▁진하게	-12425
▁질문은	-12426
▁집구석	-12427
▁쪼잔한	-12428
▁쪽에서	-12429
▁찌르기	-12430
▁찌질한	-12431
▁찍으면	-12432
▁차례야	-12433
▁차릴래	-12434
▁착용해	-12435
▁착하고	-12436
▁창문도	-12437
▁채우는	-12438
▁쳐다봤	-12439
▁쳐맞아	-12440
▁쳐맞을	-12441
▁초대해	-12442
▁취직도	-12443
▁치려고	-12444
▁치우고	-12445
▁친구고	-12446
▁퀄리티	-12447
▁큰소리	-12448
▁키라고	-12449
▁키우는	-12450
▁택시비	-12451
▁터져서	-12452
▁털어봐	-12453
▁테스트	-12454
▁테이프	-12455
▁토달지	-12456
▁토스트	-12457
▁통장에	-12458
▁튕기네	-12459
▁패드립	-12460
▁편해서	-12461
▁프로필	-12462
▁피피티	-12463
▁필요없	-12464
▁하거든	-12465
▁하겠냐	-12466
▁하겠니	-12467
▁하나로	-12468
▁하냐고	-12469
▁하늘에	-12470
▁하다니	-12471
▁하랬지	-12472
▁하자는	-12473
▁하지않	-12474
▁학교가	-12475
▁학교는	-12476
▁한국대	-12477
▁한국에	-12478
▁한다니	-12479
▁한우로	-12480
▁한율이	-12481
▁할거면	-12482
▁할말이	-12483
▁해달라	-12484
▁해봐도	-12485
▁해봐야	-12486
▁해봐요	-12487
▁해서든	-12488
▁해와라	-12489
▁해줄께	-12490
▁해줘라	-12491
▁햄버거	-12492
▁했지만	-12493
▁허드렛	-12494
▁허리가	-12495
▁현과장	-12496
▁현금은	-12497
▁현실이	-12498
▁형아가	-12499
▁호박에	-12500
▁화낸다	-12501
▁확실해	-12502
▁환불좀	-12503
▁환자들	-12504
▁회사도	-12505
▁후라이	-12506
▁훔친거	-12507
▁휴가도	-12508
▁흐리네	-12509
▁힘들었	-12510
가야해요	-12511
개월이나	-12512
거라고요	-12513
거리면서	-12514
겟습니다	-12515
겠는데요	-12516
그러지마	-12517
김선생님	-12518
는거아냐	-12519
다니면서	-12520
단말이지	-12521
달라는데	-12522
더라고요	-12523
되는거야	-12524
드렸어요	-12525
드리기가	-12526
려했는데	-12527
만원으로	-12528
먹으려고	-12529
미안한데	-12530
사람들이	-12531
사람인줄	-12532
송합니다	-12533
습니다만	-12534
시키지마	-12535
안됩니다	-12536
엄마한테	-12537
왔어야지	-12538
이라는게	-12539
이번주에	-12540
일이잖아	-12541
죽고싶냐	-12542
준다니까	-12543
천만원만	-12544
천원밖에	-12545
하기라도	-12546
하기에는	-12547
하나라도	-12548
하셨나요	-12549
하시는게	-12550
하시는데	-12551
하자마자	-12552
한다는데	-12553
할때까지	-12554
해주셔야	-12555
했으니까	-12556
▁1200	-12557
▁MBTI	-12558
▁가기전에	-12559
▁가능하지	-12560
▁가셔야죠	-12561
▁가져와봐	-12562
▁가족이고	-12563
▁가지가지	-12564
▁각오하는	-12565
▁갈기갈기	-12566
▁감사하게	-12567
▁갔다오면	-12568
▁갚겠다고	-12569
▁거아니야	-12570
▁거짓말도	-12571
▁걱정돼서	-12572
▁걸린다고	-12573
▁것입니다	-12574
▁게임하는	-12575
▁결혼식에	-12576
▁경고했다	-12577
▁고도비만	-12578
▁골목으로	-12579
▁공공장소	-12580
▁공장에서	-12581
▁과정에서	-12582
▁교무실로	-12583
▁교육시키	-12584
▁구라치고	-12585
▁궁금하면	-12586
▁그러는게	-12587
▁그러라고	-12588
▁그러면서	-12589
▁그런거죠	-12590
▁그런걸로	-12591
▁그런말은	-12592
▁그럴수도	-12593
▁그럼그럼	-12594
▁그렇게나	-12595
▁그만두고	-12596
▁그만둬야	-12597
▁그만하라	-12598
▁그만할래	-12599
▁그쪽이랑	-12600
▁급하니까	-12601
▁급한일이	-12602
▁기다려라	-12603
▁기다려야	-12604
▁기대해라	-12605
▁기분나쁜	-12606
▁기스나면	-12607
▁기억나지	-12608
▁김선생이	-12609
▁깔끔하고	-12610
▁깜빡했다	-12611
▁나가라고	-12612
▁나라에서	-12613
▁나쁘네요	-12614
▁나쁘니까	-12615
▁남자들이	-12616
▁내일이면	-12617
▁너네학교	-12618
▁너한테서	-12619
▁너희들이	-12620
▁노력하고	-12621
▁노력할게	-12622
▁노력했어	-12623
▁노약자석	-12624
▁놔주세요	-12625
▁누가보면	-12626
▁누구신지	-12627
▁누구인지	-12628
▁누구하나	-12629
▁누군지도	-12630
▁다가오면	-12631
▁다니잖아	-12632
▁다닐거야	-12633
▁다리병신	-12634
▁다행이네	-12635
▁다행이지	-12636
▁담으라고	-12637
▁더군다나	-12638
▁도와줄래	-12639
▁도와줄수	-12640
▁도와줘요	-12641
▁돈없으면	-12642
▁동네에서	-12643
▁됐으니까	-12644
▁되어있어	-12645
▁두고보자	-12646
▁두손으로	-12647
▁뒷담까고	-12648
▁들어간다	-12649
▁들어보자	-12650
▁들어오지	-12651
▁들어와도	-12652
▁들어왔나	-12653
▁들으라고	-12654
▁따라와라	-12655
▁따라와봐	-12656
▁따라하고	-12657
▁따라해봐	-12658
▁따라해요	-12659
▁때리지만	-12660
▁때문이야	-12661
▁땡기는데	-12662
▁떨어지게	-12663
▁떨어지고	-12664
▁뚱뚱한거	-12665
▁마무리가	-12666
▁만든거야	-12667
▁만들어도	-12668
▁만들어줄	-12669
▁만만하니	-12670
▁만만해보	-12671
▁많습니다	-12672
▁많아서요	-12673
▁말대꾸가	-12674
▁말로해서	-12675
▁말씀인지	-12676
▁말아야지	-12677
▁말을하네	-12678
▁말이많아	-12679
▁말조심해	-12680
▁말하세요	-12681
▁말하잖아	-12682
▁말하지만	-12683
▁말한대로	-12684
▁맞고싶어	-12685
▁맞을려고	-12686
▁맞잖아요	-12687
▁매일같이	-12688
▁먹는다고	-12689
▁먹었는데	-12690
▁먹었어요	-12691
▁먹었잖아	-12692
▁먹으려고	-12693
▁먹읍시다	-12694
▁멀쩡하게	-12695
▁멍청해서	-12696
▁명예훼손	-12697
▁모르나봐	-12698
▁모르세요	-12699
▁목숨이야	-12700
▁못생겼냐	-12701
▁못하나요	-12702
▁못했는데	-12703
▁못했어요	-12704
▁무리하지	-12705
▁무섭다고	-12706
▁무슨말을	-12707
▁무식하게	-12708
▁물어볼게	-12709
▁물품보관	-12710
▁뭐때문에	-12711
▁미쳤어요	-12712
▁미친거야	-12713
▁미친년이	-12714
▁민우오빠	-12715
▁바닥에서	-12716
▁바람막이	-12717
▁바쁘니까	-12718
▁박대리가	-12719
▁반말이야	-12720
▁받는다고	-12721
▁밥먹으러	-12722
▁방법이야	-12723
▁배신하면	-12724
▁버렸어요	-12725
▁병신이라	-12726
▁보고서가	-12727
▁보고하고	-12728
▁보내주면	-12729
▁보내주지	-12730
▁보냈는데	-12731
▁보는거지	-12732
▁보여줄까	-12733
▁보이스피	-12734
▁보이잖아	-12735
▁봐서라도	-12736
▁봐주니까	-12737
▁부끄럽지	-12738
▁부담스럽	-12739
▁부르지마	-12740
▁부모님을	-12741
▁부장님께	-12742
▁부족한데	-12743
▁부탁드려	-12744
▁부탁하는	-12745
▁불만이면	-12746
▁불편하고	-12747
▁불편하신	-12748
▁비정규직	-12749
▁비트코인	-12750
▁빌려주기	-12751
▁빌려줘서	-12752
▁빠릿빠릿	-12753
▁빠진다고	-12754
▁뻔뻔하네	-12755
▁사고싶은	-12756
▁사과하고	-12757
▁사과하지	-12758
▁사람들의	-12759
▁사람이네	-12760
▁사람인지	-12761
▁사생활침	-12762
▁사실대로	-12763
▁사야겠어	-12764
▁사장님도	-12765
▁사장님은	-12766
▁사회에서	-12767
▁새끼들아	-12768
▁생각안해	-12769
▁생각없어	-12770
▁생각이다	-12771
▁생각하나	-12772
▁생각하니	-12773
▁생각해야	-12774
▁생겼던데	-12775
▁생겼잖아	-12776
▁생긴대로	-12777
▁생일파티	-12778
▁서로서로	-12779
▁선배님들	-12780
▁소설이야	-12781
▁소용없어	-12782
▁쇼핑하러	-12783
▁수진씨가	-12784
▁쉬고싶어	-12785
▁스마트폰	-12786
▁습관이다	-12787
▁시끄러운	-12788
▁시원하고	-12789
▁시원하다	-12790
▁시키시는	-12791
▁신고하고	-12792
▁신체포기	-12793
▁실수해서	-12794
▁싫다니까	-12795
▁싫은데요	-12796
▁심각하다	-12797
▁심심한데	-12798
▁썼습니다	-12799
▁쓰레기가	-12800
▁쓸데없는	-12801
▁씨씨티비	-12802
▁씻고다녀	-12803
▁아니겠지	-12804
▁아니라구	-12805
▁아니라면	-12806
▁아니였어	-12807
▁아십니까	-12808
▁아저씨도	-12809
▁아주그냥	-12810
▁아침까지	-12811
▁아침마다	-12812
▁아프겠다	-12813
▁안가지고	-12814
▁안갚으면	-12815
▁안그러냐	-12816
▁안그럴게	-12817
▁안나는데	-12818
▁안넘어가	-12819
▁안돌아가	-12820
▁안되니까	-12821
▁안된다는	-12822
▁안됩니까	-12823
▁안들어요	-12824
▁안보여서	-12825
▁안보이냐	-12826
▁안하는데	-12827
▁안할게요	-12828
▁않으시면	-12829
▁알고있지	-12830
▁알려주면	-12831
▁알려줘서	-12832
▁알면서도	-12833
▁알아듣게	-12834
▁알아듣는	-12835
▁알았잖아	-12836
▁야근이야	-12837
▁약속이라	-12838
▁양아치야	-12839
▁어디보자	-12840
▁어떤거요	-12841
▁어떻다고	-12842
▁어려운데	-12843
▁어렸을때	-12844
▁어른들이	-12845
▁어머니는	-12846
▁어머어머	-12847
▁어울리네	-12848
▁어울린다	-12849
▁어쨌는데	-12850
▁어쩌자는	-12851
▁어쩔수가	-12852
▁억울하게	-12853
▁얼마인데	-12854
▁업무중에	-12855
▁없었잖아	-12856
▁없으시면	-12857
▁엉망이네	-12858
▁엉망이야	-12859
▁여드름이	-12860
▁여자들은	-12861
▁영수증은	-12862
▁영업방해	-12863
▁예민한거	-12864
▁예쁘겠다	-12865
▁오는거야	-12866
▁오는길에	-12867
▁오늘내로	-12868
▁오늘부로	-12869
▁오빠한테	-12870
▁오토바이	-12871
▁올릴거야	-12872
▁옷차림이	-12873
▁와보라고	-12874
▁와보세요	-12875
▁와이프는	-12876
▁와이프랑	-12877
▁왜그래야	-12878
▁외로워서	-12879
▁외삼촌이	-12880
▁요금제로	-12881
▁욕하지마	-12882
▁울보래요	-12883
▁위치추적	-12884
▁유튜브로	-12885
▁음식이랑	-12886
▁음주운전	-12887
▁의원님이	-12888
▁이거하나	-12889
▁이것봐라	-12890
▁이것부터	-12891
▁이대리님	-12892
▁이런다고	-12893
▁이번달은	-12894
▁이쁘더라	-12895
▁이상태로	-12896
▁이새끼는	-12897
▁이야기는	-12898
▁이정도면	-12899
▁인간이야	-12900
▁인사팀에	-12901
▁인스타에	-12902
▁일끝나고	-12903
▁일머리가	-12904
▁일이에요	-12905
▁입금하지	-12906
▁입다물어	-12907
▁입사한지	-12908
▁있긴한데	-12909
▁있다고요	-12910
▁있으시면	-12911
▁있을거라	-12912
▁자네같은	-12913
▁자네한테	-12914
▁자랑하고	-12915
▁자살했어	-12916
▁잘났다고	-12917
▁잘들을게	-12918
▁잘라줄까	-12919
▁잘못한게	-12920
▁잘하겠다	-12921
▁잘하니까	-12922
▁잘하잖아	-12923
▁잘할게요	-12924
▁장난으로	-12925
▁장인어른	-12926
▁재미있게	-12927
▁재밌는데	-12928
▁재밌더라	-12929
▁재수없네	-12930
▁저녁까지	-12931
▁정글차이	-12932
▁정시퇴근	-12933
▁정신못차	-12934
▁정신으로	-12935
▁제육볶음	-12936
▁제출해야	-12937
▁조심해서	-12938
▁좋게좋게	-12939
▁좋더라고	-12940
▁좋으라고	-12941
▁좋으면서	-12942
▁좋은말할	-12943
▁죄송하게	-12944
▁주문하신	-12945
▁주민등록	-12946
▁주셔야죠	-12947
▁주셨는데	-12948
▁죽고싶다	-12949
▁죽어버리	-12950
▁죽어볼래	-12951
▁죽여버려	-12952
▁죽을라고	-12953
▁준비해라	-12954
▁준비해야	-12955
▁중요한게	-12956
▁지갑에서	-12957
▁지난주에	-12958
▁진심으로	-12959
▁진정하시	-12960
▁진정해봐	-12961
▁집에가서	-12962
▁찍어올게	-12963
▁차리겠지	-12964
▁처음에는	-12965
▁쳐다보지	-12966
▁초과근무	-12967
▁출산휴가	-12968
▁취소하고	-12969
▁층간소음	-12970
▁커피라도	-12971
▁커피맛이	-12972
▁키우는데	-12973
▁타코야끼	-12974
▁태어나게	-12975
▁퇴근까지	-12976
▁틀렸잖아	-12977
▁포기하고	-12978
▁푸하하하	-12979
▁풍비박산	-12980
▁프라이버	-12981
▁피곤하다	-12982
▁필요하다	-12983
▁하겠다는	-12984
▁하겠어요	-12985
▁하기싫어	-12986
▁하나쯤은	-12987
▁하는거죠	-12988
▁하는건가	-12989
▁하는것도	-12990
▁학생이라	-12991
▁학원다니	-12992
▁한국에서	-12993
▁한마디도	-12994
▁핫도그랑	-12995
▁해야되는	-12996
▁해주겠어	-12997
▁해주려고	-12998
▁해준다는	-12999
▁해줘야지	-13000
▁핸드폰에	-13001
▁허구한날	-13002
▁허구헌날	-13003
▁헤어지지	-13004
▁현금으로	-13005
▁협박까지	-13006
▁환불이나	-13007
▁회사와서	-13008
▁회사일이	-13009
▁후회하게	-13010
▁후회하지	-13011
하셨습니다	-13012
하셨잖아요	-13013
하시는거죠	-13014
할것같은데	-13015
▁가고싶으면	-13016
▁가져갔잖아	-13017
▁가족들까지	-13018
▁가지고와라	-13019
▁개인정보를	-13020
▁게이새끼야	-13021
▁고릴라처럼	-13022
▁곤란한데요	-13023
▁괜찮으세요	-13024
▁그러셨어요	-13025
▁그러시는지	-13026
▁그런거잖아	-13027
▁그럴리가요	-13028
▁그만두던지	-13029
▁그만하시죠	-13030
▁금요일까지	-13031
▁김대리한테	-13032
▁꺼지라니까	-13033
▁끝내주세요	-13034
▁나올때마다	-13035
▁남자애들이	-13036
▁내려가세요	-13037
▁내일까지는	-13038
▁노력했는데	-13039
▁늦었습니다	-13040
▁다운증후군	-13041
▁다음달까지	-13042
▁다음주부터	-13043
▁대박이더라	-13044
▁더러우니까	-13045
▁도와달라고	-13046
▁도전해볼까	-13047
▁돌려줬잖아	-13048
▁드렸는데요	-13049
▁들어가세요	-13050
▁따라오라고	-13051
▁말대꾸하는	-13052
▁말씀드리고	-13053
▁말씀드리는	-13054
▁말씀하시지	-13055
▁맞아야겠다	-13056
▁먹어야겠다	-13057
▁못생겼잖아	-13058
▁못알아듣네	-13059
▁못알아먹어	-13060
▁못차렸구나	-13061
▁문제인가요	-13062
▁물어보세요	-13063
▁바람이라도	-13064
▁보기만해도	-13065
▁부러뜨려야	-13066
▁부장님한테	-13067
▁부지런하다	-13068
▁부탁입니다	-13069
▁부탁하는데	-13070
▁빌려서라도	-13071
▁뽑아버린다	-13072
▁사과하세요	-13073
▁사다주세요	-13074
▁사무실에서	-13075
▁사실이잖아	-13076
▁사야하는데	-13077
▁살겠습니다	-13078
▁살고싶으면	-13079
▁생각해보고	-13080
▁생각해야지	-13081
▁생각했는데	-13082
▁샤인머스켓	-13083
▁수업시간에	-13084
▁스토킹이야	-13085
▁승진해야지	-13086
▁신입사원이	-13087
▁싫다는거야	-13088
▁아니거든요	-13089
▁아니라는데	-13090
▁아르바이트	-13091
▁안타깝지만	-13092
▁알려달라고	-13093
▁알려주세요	-13094
▁알바끝나고	-13095
▁얘기하는데	-13096
▁어쩌라고요	-13097
▁어처구니가	-13098
▁엄마아빠가	-13099
▁업무시간에	-13100
▁없다니까요	-13101
▁없습니다만	-13102
▁없으려니까	-13103
▁여기있어요	-13104
▁여자친구는	-13105
▁역겨우니까	-13106
▁오늘까지는	-13107
▁오해입니다	-13108
▁움직이지마	-13109
▁원장선생님	-13110
▁원하는대로	-13111
▁원하시는게	-13112
▁유튜브에서	-13113
▁이래가지고	-13114
▁이러시는거	-13115
▁이렇게라도	-13116
▁이렇게밖에	-13117
▁이번주까지	-13118
▁일주일동안	-13119
▁잃어버려서	-13120
▁잃어버리면	-13121
▁있으실까요	-13122
▁자랑이라고	-13123
▁잘못해놓고	-13124
▁장사하려면	-13125
▁장애인이라	-13126
▁재미있는데	-13127
▁정신차리게	-13128
▁좋아하는게	-13129
▁죄송한데요	-13130
▁주문번호가	-13131
▁죽어버리면	-13132
▁준비하라고	-13133
▁지난번에도	-13134
▁지켜볼거야	-13135
▁참아주세요	-13136
▁창피하지도	-13137
▁추천해줄게	-13138
▁축하드려요	-13139
▁출근시간이	-13140
▁커뮤니티에	-13141
▁프로그래머	-13142
▁프로젝트를	-13143
▁필요하거든	-13144
▁필요합니다	-13145
▁하는거잖아	-13146
▁하셨는데요	-13147
▁해달라니까	-13148
▁해드릴게요	-13149
▁해야되는데	-13150
▁해주셨으면	-13151
▁헛소리하지	-13152
▁협박하시면	-13153
▁후회할텐데	-13154
▁훔쳐서라도	-13155
환불해주세요	-13156
▁가보겠습니다	-13157
▁건들지말아줘	-13158
▁경찰부릅니다	-13159
▁괴롭히는거야	-13160
▁구질구질하게	-13161
▁나가겠습니다	-13162
▁남자애들한테	-13163
▁내려놓으세요	-13164
▁내려드릴게요	-13165
▁말씀드렸어요	-13166
▁말씀드릴거야	-13167
▁말씀드릴게요	-13168
▁말씀하신대로	-13169
▁말아주십시오	-13170
▁무슨상관이야	-13171
▁보내겠습니다	-13172
▁보내드릴게요	-13173
▁부르겠습니다	-13174
▁불가능합니다	-13175
▁사주신거에요	-13176
▁생각해보니까	-13177
▁생각해볼께요	-13178
▁소리하지말고	-13179
▁스트레스받아	-13180
▁신고할거예요	-13181
▁아닌거같은데	-13182
▁알고있습니다	-13183
▁올리겠습니다	-13184
▁입금해주세요	-13185
▁죽어버릴꺼야	-13186
▁감사하겠습니다	-13187
▁구해보겠습니다	-13188
▁말씀드렸습니다	-13189
▁못하겠다는거야	-13190
▁뭐하시는거에요	-13191
▁신경쓰겠습니다	-13192
▁왜그러시는데요	-13193
▁우리아이에게는	-13194
▁잘모르겠습니다	-13195
▁잘못들었습니다	-13196
▁교육시키겠습니다	-13197
▁보내드리겠습니다	-13198
▁협박하시는건가요	-13199
!!!!!!!!!!	-13200
'!	-13201
'.	-13202
,5	-13203
.2	-13204
12	-13205
25	-13206
34	-13207
78	-13208
ᄍᄍ	-13209
▁E	-13210
▁갱	-13211
▁갸	-13212
▁격	-13213
▁곰	-13214
▁굉	-13215
▁깠	-13216
▁꺾	-13217
▁꽁	-13218
▁꾀	-13219
▁낚	-13220
▁낯	-13221
▁덧	-13222
▁됏	-13223
▁떵	-13224
▁뚜	-13225
▁랭	-13226
▁멸	-13227
▁몫	-13228
▁붓	-13229
▁빻	-13230
▁삿	-13231
▁솥	-13232
▁쇠	-13233
▁쉐	-13234
▁쌌	-13235
▁얄	-13236
▁얹	-13237
▁졌	-13238
▁쪘	-13239
▁켁	-13240
▁턴	-13241
▁툭	-13242
▁퉤	-13243
▁팰	-13244
▁플	-13245
가기	-13246
가네	-13247
가능	-13248
가다	-13249
갈지	-13250
감당	-13251
감히	-13252
갔냐	-13253
강도	-13254
같음	-13255
갠데	-13256
거래	-13257
거에	-13258
거요	-13259
건만	-13260
건물	-13261
건실	-13262
걸고	-13263
걸리	-13264
걸이	-13265
검진	-13266
것을	-13267
게도	-13268
겐가	-13269
겟다	-13270
겠단	-13271
겨야	-13272
겹살	-13273
계부	-13274
고만	-13275
과류	-13276
과에	-13277
관계	-13278
관님	-13279
관에	-13280
괜찮	-13281
교로	-13282
구네	-13283
구니	-13284
구절	-13285
국에	-13286
권은	-13287
그랬	-13288
그럴	-13289
그려	-13290
근이	-13291
근질	-13292
근차	-13293
글도	-13294
글자	-13295
금도	-13296
금을	-13297
기념	-13298
기범	-13299
기술	-13300
기씨	-13301
기한	-13302
길은	-13303
김이	-13304
꺼는	-13305
꺼랑	-13306
꺼리	-13307
꺼지	-13308
껄여	-13309
껏도	-13310
끼가	-13311
나리	-13312
나야	-13313
나이	-13314
난거	-13315
난게	-13316
난단	-13317
날씨	-13318
났다	-13319
낭비	-13320
내기	-13321
내릴	-13322
내역	-13323
내요	-13324
냐구	-13325
너만	-13326
너희	-13327
놈은	-13328
놓으	-13329
놓을	-13330
놔요	-13331
놨냐	-13332
누군	-13333
느냐	-13334
능아	-13335
니야	-13336
니어	-13337
닐라	-13338
님은	-13339
다냐	-13340
다네	-13341
단다	-13342
달고	-13343
닮은	-13344
당에	-13345
대야	-13346
대응	-13347
더군	-13348
덕한	-13349
데로	-13350
데이	-13351
데체	-13352
도장	-13353
동강	-13354
동물	-13355
동자	-13356
됐고	-13357
됐지	-13358
되죠	-13359
될까	-13360
둘이	-13361
드냐	-13362
드니	-13363
득이	-13364
들에	-13365
디건	-13366
딱지	-13367
땅은	-13368
때만	-13369
뚝뚝	-13370
뛰어	-13371
뜨고	-13372
라뇨	-13373
라운	-13374
랄까	-13375
랐네	-13376
랬죠	-13377
러도	-13378
렀냐	-13379
레칭	-13380
려구	-13381
력도	-13382
로리	-13383
론가	-13384
론만	-13385
료에	-13386
릭터	-13387
린줄	-13388
마켓	-13389
만하	-13390
말게	-13391
말곤	-13392
말구	-13393
말든	-13394
말서	-13395
망정	-13396
맞기	-13397
맞냐	-13398
맞자	-13399
맹점	-13400
먹냐	-13401
먹자	-13402
모두	-13403
모아	-13404
무도	-13405
뭐해	-13406
미가	-13407
미니	-13408
미도	-13409
미영	-13410
믿고	-13411
바람	-13412
반에	-13413
반하	-13414
밤에	-13415
밥도	-13416
방금	-13417
배는	-13418
배달	-13419
백한	-13420
버는	-13421
버린	-13422
버무	-13423
번은	-13424
벌레	-13425
범죄	-13426
별로	-13427
보가	-13428
보나	-13429
보실	-13430
볼께	-13431
봤다	-13432
부른	-13433
부시	-13434
분명	-13435
분씩	-13436
분위	-13437
분을	-13438
분의	-13439
불편	-13440
브영	-13441
비어	-13442
비에	-13443
빵도	-13444
뿐인	-13445
사과	-13446
사들	-13447
사랑	-13448
사지	-13449
새를	-13450
생기	-13451
서도	-13452
서울	-13453
석도	-13454
성도	-13455
센티	-13456
셔츠	-13457
소년	-13458
소니	-13459
소사	-13460
수술	-13461
수저	-13462
수진	-13463
숙제	-13464
순간	-13465
순한	-13466
쉽게	-13467
스비	-13468
스에	-13469
스팟	-13470
습기	-13471
승진	-13472
시길	-13473
시작	-13474
시절	-13475
식당	-13476
신건	-13477
신경	-13478
신의	-13479
신이	-13480
신히	-13481
실력	-13482
실로	-13483
심사	-13484
심삼	-13485
심칩	-13486
쓰김	-13487
쓰지	-13488
씨방	-13489
아나	-13490
악을	-13491
안고	-13492
안된	-13493
안테	-13494
알았	-13495
았니	-13496
애설	-13497
야근	-13498
약한	-13499
어담	-13500
어려	-13501
어린	-13502
억이	-13503
없죠	-13504
에만	-13505
여나	-13506
여어	-13507
역시	-13508
연한	-13509
열면	-13510
였니	-13511
였음	-13512
오가	-13513
오물	-13514
올께	-13515
왔나	-13516
왔니	-13517
요새	-13518
우냐	-13519
우님	-13520
우뚱	-13521
우치	-13522
우파	-13523
웃어	-13524
원들	-13525
원씨	-13526
원칙	-13527
위험	-13528
율이	-13529
으나	-13530
으래	-13531
으며	-13532
은망	-13533
은씨	-13534
의의	-13535
이럴	-13536
이마	-13537
이만	-13538
이빨	-13539
이시	-13540
이유	-13541
이이	-13542
이체	-13543
인건	-13544
인걸	-13545
인사	-13546
인씨	-13547
인아	-13548
인은	-13549
인의	-13550
인척	-13551
일걸	-13552
일과	-13553
일수	-13554
일한	-13555
임당	-13556
입은	-13557
입을	-13558
있었	-13559
자국	-13560
자금	-13561
자면	-13562
자지	-13563
작성	-13564
잖냐	-13565
잘좀	-13566
잣집	-13567
장히	-13568
저거	-13569
저귀	-13570
저래	-13571
적은	-13572
적을	-13573
절기	-13574
점을	-13575
점이	-13576
정돈	-13577
제를	-13578
제불	-13579
져도	-13580
조림	-13581
좀봐	-13582
죄죄	-13583
주마	-13584
주사	-13585
주얼	-13586
죽이	-13587
준게	-13588
준씨	-13589
줄근	-13590
중엔	-13591
줬지	-13592
쥐마	-13593
즘이	-13594
증에	-13595
지간	-13596
지난	-13597
지냈	-13598
지수	-13599
지에	-13600
지워	-13601
진게	-13602
진대	-13603
진진	-13604
집이	-13605
쪽팔	-13606
찌검	-13607
찍어	-13608
찐따	-13609
찝찝	-13610
차로	-13611
차에	-13612
참에	-13613
창고	-13614
처녀	-13615
천에	-13616
체를	-13617
촉해	-13618
추고	-13619
취소	-13620
층에	-13621
치다	-13622
치도	-13623
치미	-13624
케키	-13625
켰어	-13626
키면	-13627
탓을	-13628
태워	-13629
터로	-13630
토리	-13631
통장	-13632
티슈	-13633
팔아	-13634
평아	-13635
포자	-13636
품이	-13637
하구	-13638
하야	-13639
하진	-13640
학번	-13641
할것	-13642
함이	-13643
해를	-13644
햇지	-13645
현아	-13646
혜씨	-13647
호감	-13648
호박	-13649
호에	-13650
화면	-13651
화장	-13652
환을	-13653
훈이	-13654
흐흑	-13655
힘들	-13656
.!.	-13657
000	-13658
?!?	-13659
▁ᄍᄍ	-13660
▁가구	-13661
▁가긴	-13662
▁가냐	-13663
▁가셨	-13664
▁가식	-13665
▁가줘	-13666
▁가천	-13667
▁가품	-13668
▁간섭	-13669
▁갑갑	-13670
▁갑질	-13671
▁갔을	-13672
▁강변	-13673
▁같긴	-13674
▁같어	-13675
▁같을	-13676
▁같잖	-13677
▁개월	-13678
▁걔랑	-13679
▁거는	-13680
▁거봐	-13681
▁건든	-13682
▁건설	-13683
▁건은	-13684
▁걸려	-13685
▁걸었	-13686
▁걸지	-13687
▁것들	-13688
▁것아	-13689
▁게을	-13690
▁겠네	-13691
▁견학	-13692
▁겸손	-13693
▁경기	-13694
▁경비	-13695
▁경우	-13696
▁경제	-13697
▁계단	-13698
▁계발	-13699
▁계셨	-13700
▁계열	-13701
▁고급	-13702
▁고르	-13703
▁고시	-13704
▁고약	-13705
▁고프	-13706
▁고향	-13707
▁곳도	-13708
▁공동	-13709
▁공중	-13710
▁공책	-13711
▁과민	-13712
▁과음	-13713
▁관악	-13714
▁교과	-13715
▁교수	-13716
▁교양	-13717
▁교체	-13718
▁구더	-13719
▁구만	-13720
▁구체	-13721
▁구할	-13722
▁굴면	-13723
▁권력	-13724
▁귀는	-13725
▁그랫	-13726
▁그럽	-13727
▁그마	-13728
▁그새	-13729
▁그집	-13730
▁근질	-13731
▁글지	-13732
▁금니	-13733
▁금연	-13734
▁금주	-13735
▁금칠	-13736
▁급식	-13737
▁급여	-13738
▁긍정	-13739
▁기껏	-13740
▁기르	-13741
▁기범	-13742
▁기타	-13743
▁기합	-13744
▁깁스	-13745
▁까다	-13746
▁까딱	-13747
▁까매	-13748
▁까짓	-13749
▁깐깐	-13750
▁깐부	-13751
▁깜깜	-13752
▁꺼줘	-13753
▁껌값	-13754
▁께서	-13755
▁꼬마	-13756
▁꼬시	-13757
▁꼬질	-13758
▁꼼짝	-13759
▁꽉막	-13760
▁꿇어	-13761
▁끄면	-13762
▁끝이	-13763
▁끝장	-13764
▁낄낄	-13765
▁나댔	-13766
▁나에	-13767
▁나좋	-13768
▁날까	-13769
▁날라	-13770
▁남는	-13771
▁남에	-13772
▁남탓	-13773
▁낮은	-13774
▁내뱉	-13775
▁내봐	-13776
▁내성	-13777
▁내신	-13778
▁내욕	-13779
▁내입	-13780
▁내지	-13781
▁내쫓	-13782
▁내키	-13783
▁냈지	-13784
▁너내	-13785
▁너넨	-13786
▁넣으	-13787
▁노란	-13788
▁논다	-13789
▁놀까	-13790
▁놀래	-13791
▁놀았	-13792
▁놀지	-13793
▁놈년	-13794
▁농약	-13795
▁놓지	-13796
▁뇌가	-13797
▁눌렀	-13798
▁느그	-13799
▁느낀	-13800
▁다는	-13801
▁닦고	-13802
▁단계	-13803
▁단어	-13804
▁단지	-13805
▁단짠	-13806
▁단합	-13807
▁닫아	-13808
▁달도	-13809
▁달래	-13810
▁달지	-13811
▁담궈	-13812
▁담엔	-13813
▁당사	-13814
▁대구	-13815
▁대다	-13816
▁대수	-13817
▁대포	-13818
▁댁에	-13819
▁댁이	-13820
▁더욱	-13821
▁더위	-13822
▁더줘	-13823
▁던지	-13824
▁덜렁	-13825
▁덩치	-13826
▁도끼	-13827
▁도우	-13828
▁도울	-13829
▁도통	-13830
▁독단	-13831
▁독이	-13832
▁돈에	-13833
▁돈줘	-13834
▁동국	-13835
▁동남	-13836
▁돼야	-13837
▁됐나	-13838
▁되서	-13839
▁되었	-13840
▁된거	-13841
▁됬고	-13842
▁두둑	-13843
▁두려	-13844
▁두렵	-13845
▁두잔	-13846
▁둘러	-13847
▁뒤면	-13848
▁든거	-13849
▁등골	-13850
▁등에	-13851
▁따끔	-13852
▁따른	-13853
▁딸기	-13854
▁딸만	-13855
▁때를	-13856
▁땡겨	-13857
▁떠날	-13858
▁떠와	-13859
▁떨려	-13860
▁떵떵	-13861
▁또또	-13862
▁또요	-13863
▁똥은	-13864
▁뚫어	-13865
▁뛰게	-13866
▁띄지	-13867
▁띠껍	-13868
▁라는	-13869
▁랭킹	-13870
▁렌즈	-13871
▁루머	-13872
▁마디	-13873
▁마땅	-13874
▁마요	-13875
▁마치	-13876
▁막고	-13877
▁막장	-13878
▁만에	-13879
▁만해	-13880
▁많냐	-13881
▁많어	-13882
▁말단	-13883
▁맛에	-13884
▁망친	-13885
▁맞긴	-13886
▁맞나	-13887
▁맞음	-13888
▁맡은	-13889
▁머고	-13890
▁먹네	-13891
▁먹던	-13892
▁먹칠	-13893
▁멈출	-13894
▁메주	-13895
▁멸치	-13896
▁명씩	-13897
▁몇반	-13898
▁몇십	-13899
▁몇일	-13900
▁모델	-13901
▁모야	-13902
▁모여	-13903
▁몰고	-13904
▁몸만	-13905
▁몸살	-13906
▁못난	-13907
▁못보	-13908
▁못봐	-13909
▁못쉬	-13910
▁못오	-13911
▁못피	-13912
▁몽골	-13913
▁무너	-13914
▁무선	-13915
▁묶고	-13916
▁문닫	-13917
▁문란	-13918
▁문을	-13919
▁문화	-13920
▁물은	-13921
▁물흐	-13922
▁뭐어	-13923
▁뭐에	-13924
▁뭐죠	-13925
▁미련	-13926
▁미룰	-13927
▁미영	-13928
▁미워	-13929
▁미혼	-13930
▁민석	-13931
▁믿는	-13932
▁밀떡	-13933
▁바뀐	-13934
▁박차	-13935
▁반납	-13936
▁반만	-13937
▁반숙	-13938
▁반쯤	-13939
▁반팔	-13940
▁받자	-13941
▁발목	-13942
▁발색	-13943
▁발생	-13944
▁발에	-13945
▁밟아	-13946
▁밤을	-13947
▁밤이	-13948
▁밥만	-13949
▁밥상	-13950
▁방도	-13951
▁방문	-13952
▁방아	-13953
▁방탄	-13954
▁배를	-13955
▁배상	-13956
▁배송	-13957
▁배짱	-13958
▁배째	-13959
▁배탈	-13960
▁백신	-13961
▁뱃살	-13962
▁버렸	-13963
▁벅차	-13964
▁벌려	-13965
▁벌자	-13966
▁법도	-13967
▁법카	-13968
▁벗고	-13969
▁벽에	-13970
▁별명	-13971
▁보살	-13972
▁보아	-13973
▁보일	-13974
▁볼일	-13975
▁봉사	-13976
▁뵈는	-13977
▁뵈러	-13978
▁부려	-13979
▁부킹	-13980
▁분배	-13981
▁분실	-13982
▁불륜	-13983
▁불리	-13984
▁불면	-13985
▁불붙	-13986
▁불안	-13987
▁불지	-13988
▁불합	-13989
▁블라	-13990
▁블루	-13991
▁비용	-13992
▁비우	-13993
▁빌어	-13994
▁빨대	-13995
▁빵꾸	-13996
▁빵사	-13997
▁빼요	-13998
▁뺀질	-13999
▁뺏는	-14000
▁뽀뽀	-14001
▁뽑고	-14002
▁뽑을	-14003
▁뽑자	-14004
▁뿌리	-14005
▁뿌린	-14006
▁삐뚤	-14007
▁사게	-14008
▁사내	-14009
▁사본	-14010
▁사봐	-14011
▁사연	-14012
▁사위	-14013
▁사자	-14014
▁살림	-14015
▁살벌	-14016
▁살수	-14017
▁살어	-14018
▁삶의	-14019
▁샀네	-14020
▁샀다	-14021
▁샀지	-14022
▁상가	-14023
▁상납	-14024
▁상상	-14025
▁상자	-14026
▁상한	-14027
▁생김	-14028
▁샤넬	-14029
▁섞인	-14030
▁선선	-14031
▁선을	-14032
▁설사	-14033
▁성사	-14034
▁성실	-14035
▁성주	-14036
▁세팅	-14037
▁센터	-14038
▁소각	-14039
▁소액	-14040
▁속아	-14041
▁손댔	-14042
▁손세	-14043
▁손좀	-14044
▁수당	-14045
▁수리	-14046
▁수명	-14047
▁수분	-14048
▁수사	-14049
▁수수	-14050
▁수습	-14051
▁순삭	-14052
▁숨도	-14053
▁숨막	-14054
▁스릴	-14055
▁스킬	-14056
▁스탑	-14057
▁스포	-14058
▁슬쩍	-14059
▁슬퍼	-14060
▁시급	-14061
▁시대	-14062
▁시선	-14063
▁시중	-14064
▁시청	-14065
▁식은	-14066
▁신혼	-14067
▁실용	-14068
▁싫음	-14069
▁심리	-14070
▁싸서	-14071
▁쌤이	-14072
▁썸남	-14073
▁썼지	-14074
▁쏜다	-14075
▁쏴서	-14076
▁쓰네	-14077
▁쓰니	-14078
▁쓰다	-14079
▁쓰던	-14080
▁쓰라	-14081
▁쓸만	-14082
▁씹냐	-14083
▁씻어	-14084
▁아티	-14085
▁악기	-14086
▁안갈	-14087
▁안낸	-14088
▁안냈	-14089
▁안든	-14090
▁안떠	-14091
▁안만	-14092
▁안심	-14093
▁안싸	-14094
▁안쓸	-14095
▁안정	-14096
▁안틀	-14097
▁안풀	-14098
▁안피	-14099
▁앉을	-14100
▁않어	-14101
▁않죠	-14102
▁알꺼	-14103
▁알몸	-14104
▁알짱	-14105
▁앞길	-14106
▁애교	-14107
▁앱을	-14108
▁야무	-14109
▁야식	-14110
▁약도	-14111
▁약이	-14112
▁양도	-14113
▁양말	-14114
▁얘길	-14115
▁어눌	-14116
▁어따	-14117
▁어마	-14118
▁어유	-14119
▁어짜	-14120
▁얻은	-14121
▁얼큰	-14122
▁엄만	-14123
▁없대	-14124
▁엉엉	-14125
▁에잉	-14126
▁에효	-14127
▁엘레	-14128
▁여럿	-14129
▁여의	-14130
▁연결	-14131
▁연체	-14132
▁염색	-14133
▁영역	-14134
▁영희	-14135
▁옆팀	-14136
▁예상	-14137
▁예진	-14138
▁오나	-14139
▁오락	-14140
▁오며	-14141
▁오버	-14142
▁오실	-14143
▁오우	-14144
▁오탈	-14145
▁온거	-14146
▁온대	-14147
▁올렸	-14148
▁올바	-14149
▁옳은	-14150
▁옳지	-14151
▁왔나	-14152
▁외식	-14153
▁외에	-14154
▁외웠	-14155
▁왼쪽	-14156
▁요가	-14157
▁요양	-14158
▁우냐	-14159
▁울리	-14160
▁웃고	-14161
▁원은	-14162
▁원참	-14163
▁원치	-14164
▁원투	-14165
▁원해	-14166
▁월차	-14167
▁위급	-14168
▁유감	-14169
▁유언	-14170
▁으아	-14171
▁은근	-14172
▁음질	-14173
▁음침	-14174
▁의료	-14175
▁의식	-14176
▁이가	-14177
▁이내	-14178
▁이렇	-14179
▁이마	-14180
▁이백	-14181
▁이쁨	-14182
▁이송	-14183
▁이수	-14184
▁이식	-14185
▁인계	-14186
▁인원	-14187
▁인재	-14188
▁일개	-14189
▁일년	-14190
▁일의	-14191
▁일인	-14192
▁잃고	-14193
▁입막	-14194
▁입생	-14195
▁입학	-14196
▁잇냐	-14197
▁잇어	-14198
▁있기	-14199
▁있단	-14200
▁있대	-14201
▁잊은	-14202
▁자극	-14203
▁자넨	-14204
▁자녀	-14205
▁자랐	-14206
▁자본	-14207
▁자야	-14208
▁자위	-14209
▁자율	-14210
▁자폐	-14211
▁작가	-14212
▁작게	-14213
▁작고	-14214
▁작냐	-14215
▁잘듣	-14216
▁잘좀	-14217
▁잠옷	-14218
▁잡는	-14219
▁잡을	-14220
▁잤지	-14221
▁장가	-14222
▁장례	-14223
▁장면	-14224
▁재가	-14225
▁재혼	-14226
▁쟤야	-14227
▁적립	-14228
▁적응	-14229
▁적합	-14230
▁적혀	-14231
▁절도	-14232
▁절이	-14233
▁절차	-14234
▁점검	-14235
▁정답	-14236
▁정산	-14237
▁정성	-14238
▁정이	-14239
▁제고	-14240
▁제공	-14241
▁제꺼	-14242
▁제니	-14243
▁제딸	-14244
▁제안	-14245
▁제외	-14246
▁조국	-14247
▁조는	-14248
▁조사	-14249
▁존경	-14250
▁졸려	-14251
▁좀봐	-14252
▁좀해	-14253
▁좁아	-14254
▁종교	-14255
▁종업	-14256
▁좋나	-14257
▁좌석	-14258
▁죄는	-14259
▁죄로	-14260
▁주간	-14261
▁주냐	-14262
▁주님	-14263
▁주도	-14264
▁주로	-14265
▁주무	-14266
▁주셨	-14267
▁주어	-14268
▁주웠	-14269
▁주장	-14270
▁줄수	-14271
▁줄은	-14272
▁줄을	-14273
▁중고	-14274
▁중지	-14275
▁줘도	-14276
▁줬다	-14277
▁지만	-14278
▁지운	-14279
▁지저	-14280
▁지정	-14281
▁진도	-14282
▁진상	-14283
▁집회	-14284
▁짓이	-14285
▁짜식	-14286
▁짤릴	-14287
▁짧네	-14288
▁짧다	-14289
▁짰어	-14290
▁째려	-14291
▁쪼끄	-14292
▁쪽은	-14293
▁쫄깃	-14294
▁쫓겨	-14295
▁찍먹	-14296
▁찍자	-14297
▁찐빵	-14298
▁차감	-14299
▁차고	-14300
▁차량	-14301
▁차면	-14302
▁차질	-14303
▁찬성	-14304
▁참한	-14305
▁천지	-14306
▁천호	-14307
▁철저	-14308
▁청결	-14309
▁청년	-14310
▁쳐보	-14311
▁쳐봐	-14312
▁쳤다	-14313
▁초보	-14314
▁총에	-14315
▁최민	-14316
▁출렁	-14317
▁춥다	-14318
▁치뤄	-14319
▁치면	-14320
▁치아	-14321
▁치어	-14322
▁치자	-14323
▁치장	-14324
▁친척	-14325
▁칼빵	-14326
▁칼에	-14327
▁칼이	-14328
▁컨닝	-14329
▁코에	-14330
▁쿵쾅	-14331
▁크고	-14332
▁크면	-14333
▁크흠	-14334
▁큰맘	-14335
▁클래	-14336
▁키운	-14337
▁키울	-14338
▁타자	-14339
▁탈모	-14340
▁탈탈	-14341
▁탑승	-14342
▁터치	-14343
▁털고	-14344
▁털끝	-14345
▁털릴	-14346
▁털이	-14347
▁테러	-14348
▁토쏠	-14349
▁통한	-14350
▁통할	-14351
▁통행	-14352
▁퇴출	-14353
▁튕겨	-14354
▁티가	-14355
▁티를	-14356
▁티어	-14357
▁팀이	-14358
▁팀플	-14359
▁파괴	-14360
▁팍팍	-14361
▁팔고	-14362
▁팔을	-14363
▁패고	-14364
▁패서	-14365
▁퍼진	-14366
▁평범	-14367
▁평점	-14368
▁포도	-14369
▁폭언	-14370
▁폰은	-14371
▁표시	-14372
▁풍경	-14373
▁피치	-14374
▁필름	-14375
▁하마	-14376
▁하진	-14377
▁하청	-14378
▁하필	-14379
▁학급	-14380
▁학점	-14381
▁한말	-14382
▁한발	-14383
▁한장	-14384
▁한판	-14385
▁할걸	-14386
▁할만	-14387
▁할일	-14388
▁합성	-14389
▁햇빛	-14390
▁행패	-14391
▁향이	-14392
▁허참	-14393
▁혀가	-14394
▁형민	-14395
▁형수	-14396
▁형은	-14397
▁호랑	-14398
▁홈트	-14399
▁홍보	-14400
▁화목	-14401
▁화학	-14402
▁확진	-14403
▁황천	-14404
▁횟집	-14405
▁횡단	-14406
▁효도	-14407
▁훌쩍	-14408
▁훔치	-14409
▁흐흑	-14410
▁흘려	-14411
▁흘리	-14412
▁희정	-14413
가다가	-14414
가보다	-14415
가에서	-14416
가져와	-14417
갑시다	-14418
강아지	-14419
강인턴	-14420
같다고	-14421
개밖에	-14422
거라서	-14423
거려서	-14424
거면서	-14425
것같냐	-14426
것들이	-14427
것보다	-14428
것좀봐	-14429
겠으면	-14430
겨야지	-14431
경찰서	-14432
관리를	-14433
교시에	-14434
구절절	-14435
그거고	-14436
그랬어	-14437
그러냐	-14438
그러운	-14439
그럽게	-14440
그리고	-14441
근차근	-14442
글쎄요	-14443
기나해	-14444
기면서	-14445
길거야	-14446
김주임	-14447
까짓게	-14448
꺼아냐	-14449
꼬마야	-14450
끄러져	-14451
나가서	-14452
나오면	-14453
냈는데	-14454
너같은	-14455
너네들	-14456
너무해	-14457
는거고	-14458
는거네	-14459
는지요	-14460
능력이	-14461
다녀오	-14462
다녀요	-14463
다는거	-14464
다는걸	-14465
다더니	-14466
다시피	-14467
다음에	-14468
달라는	-14469
닮아서	-14470
당신이	-14471
도록해	-14472
도저히	-14473
됐는데	-14474
될까요	-14475
드라고	-14476
드렸어	-14477
드리기	-14478
드세요	-14479
들끼리	-14480
들어오	-14481
땡이가	-14482
떨어져	-14483
라그래	-14484
라는게	-14485
라서요	-14486
러운거	-14487
렸는지	-14488
렸다는	-14489
롭겠다	-14490
리는거	-14491
리는지	-14492
리라고	-14493
리지도	-14494
린다는	-14495
립니까	-14496
말게나	-14497
말고는	-14498
머리로	-14499
먹으러	-14500
먹은거	-14501
민선씨	-14502
민철씨	-14503
박인턴	-14504
밖으로	-14505
반하장	-14506
받으러	-14507
버릇이	-14508
버릴줄	-14509
번에도	-14510
벌리고	-14511
병신이	-14512
병원에	-14513
보관님	-14514
보구나	-14515
보기도	-14516
보던지	-14517
보도록	-14518
보려고	-14519
보미씨	-14520
보시지	-14521
보여서	-14522
보이네	-14523
본거야	-14524
본적도	-14525
볼까요	-14526
봐야돼	-14527
부리지	-14528
부탁이	-14529
부탁해	-14530
분들이	-14531
분위기	-14532
분이나	-14533
분이면	-14534
분이야	-14535
비인데	-14536
빌려줘	-14537
빠져서	-14538
뿐인데	-14539
사건건	-14540
사람은	-14541
사오고	-14542
사원은	-14543
사원이	-14544
사이트	-14545
사진을	-14546
사항이	-14547
살이요	-14548
상이야	-14549
상하게	-14550
생각은	-14551
생각을	-14552
생활도	-14553
서비스	-14554
선생이	-14555
성격이	-14556
센티브	-14557
숟가락	-14558
스럽네	-14559
스타일	-14560
습네다	-14561
시간만	-14562
시구나	-14563
시는게	-14564
시는지	-14565
시라고	-14566
시에는	-14567
시에요	-14568
신거야	-14569
신다는	-14570
썼는데	-14571
아는데	-14572
아야죠	-14573
아이가	-14574
아직도	-14575
않으면	-14576
았자나	-14577
앞으로	-14578
어디로	-14579
억이면	-14580
억이야	-14581
얼굴에	-14582
엄마는	-14583
업체에	-14584
에게도	-14585
에서만	-14586
오는거	-14587
오든지	-14588
왔던데	-14589
운가봐	-14590
음으로	-14591
의원님	-14592
이거놔	-14593
이것좀	-14594
이겠지	-14595
이기도	-14596
이라뇨	-14597
이려고	-14598
이름이	-14599
이상해	-14600
이셔서	-14601
이야기	-14602
이제는	-14603
인이신	-14604
인지는	-14605
인지도	-14606
일안에	-14607
일이긴	-14608
일인가	-14609
일텐데	-14610
입은거	-14611
있나요	-14612
있다가	-14613
자네가	-14614
자체가	-14615
장한테	-14616
저번에	-14617
전부터	-14618
전화를	-14619
점에서	-14620
점이야	-14621
제대로	-14622
져봐야	-14623
조차도	-14624
주는거	-14625
주셔서	-14626
주시지	-14627
주엄마	-14628
죽이고	-14629
준건데	-14630
줄거면	-14631
줄거지	-14632
줄꺼면	-14633
중이라	-14634
줬던거	-14635
지겠지	-14636
지도록	-14637
지않나	-14638
지알아	-14639
지연씨	-14640
지연아	-14641
지은씨	-14642
지혜야	-14643
집니다	-14644
차인데	-14645
차하면	-14646
쳐먹고	-14647
초안에	-14648
치니까	-14649
치워도	-14650
친다고	-14651
태니까	-14652
테니가	-14653
텐데요	-14654
통수를	-14655
틀리면	-14656
팀장이	-14657
파랗게	-14658
파악이	-14659
퍼센트	-14660
페이스	-14661
하게도	-14662
하겠니	-14663
하고만	-14664
하구요	-14665
하기만	-14666
하던가	-14667
하루만	-14668
하셔도	-14669
하셔야	-14670
하신데	-14671
하자는	-14672
하지가	-14673
한거란	-14674
한다니	-14675
할거면	-14676
할테니	-14677
해버릴	-14678
해봐서	-14679
해주면	-14680
해줄수	-14681
했거든	-14682
했네요	-14683
했다가	-14684
했다간	-14685
했다는	-14686
했더라	-14687
혓바닥	-14688
혔는데	-14689
혹여나	-14690
,100	-14691
▁.!!	-14692
▁160	-14693
▁900	-14694
▁가계부	-14695
▁가기도	-14696
▁가까워	-14697
▁가끔은	-14698
▁가는게	-14699
▁가디건	-14700
▁가맹점	-14701
▁가면서	-14702
▁가야할	-14703
▁가있어	-14704
▁가정사	-14705
▁가줄래	-14706
▁가치가	-14707
▁각서에	-14708
▁간신히	-14709
▁갈건데	-14710
▁갈께요	-14711
▁갈비뼈	-14712
▁갈았어	-14713
▁감방에	-14714
▁감자가	-14715
▁감정은	-14716
▁갑이고	-14717
▁갔다가	-14718
▁강원도	-14719
▁같기도	-14720
▁같더라	-14721
▁같은거	-14722
▁같이가	-14723
▁같잖아	-14724
▁갚겠다	-14725
▁개같이	-14726
▁개념이	-14727
▁개무시	-14728
▁개밖에	-14729
▁개운해	-14730
▁개인사	-14731
▁개자식	-14732
▁개처럼	-14733
▁갸우뚱	-14734
▁거겠냐	-14735
▁거겠지	-14736
▁거기지	-14737
▁거는거	-14738
▁거슬려	-14739
▁거였네	-14740
▁거울도	-14741
▁거지같	-14742
▁거지로	-14743
▁거칠게	-14744
▁걱정은	-14745
▁건강에	-14746
▁건강이	-14747
▁건강한	-14748
▁건드릴	-14749
▁걷는거	-14750
▁걸레로	-14751
▁걸어봐	-14752
▁검은색	-14753
▁것으로	-14754
▁견과류	-14755
▁결과가	-14756
▁결과로	-14757
▁결혼은	-14758
▁경고야	-14759
▁경우가	-14760
▁경찰도	-14761
▁계시네	-14762
▁계시지	-14763
▁고개도	-14764
▁고구마	-14765
▁고기가	-14766
▁고기를	-14767
▁고모가	-14768
▁고민돼	-14769
▁고생이	-14770
▁고아인	-14771
▁고장난	-14772
▁고졸이	-14773
▁고쳐야	-14774
▁고치고	-14775
▁고통받	-14776
▁골프채	-14777
▁곳이야	-14778
▁공기가	-14779
▁공무원	-14780
▁공부나	-14781
▁공부는	-14782
▁공부못	-14783
▁공지가	-14784
▁관계가	-14785
▁관리도	-14786
▁관심이	-14787
▁괜찮게	-14788
▁괜찮네	-14789
▁괜찮다	-14790
▁괴로워	-14791
▁굉장히	-14792
▁구라를	-14793
▁구매가	-14794
▁구석이	-14795
▁구역질	-14796
▁구제불	-14797
▁구하기	-14798
▁구하면	-14799
▁구해서	-14800
▁구해요	-14801
▁군대에	-14802
▁굼벵이	-14803
▁권사님	-14804
▁권한이	-14805
▁귀찮다	-14806
▁그냥은	-14807
▁그때고	-14808
▁그래봐	-14809
▁그랬던	-14810
▁그러셔	-14811
▁그러자	-14812
▁그러죠	-14813
▁그러진	-14814
▁그런것	-14815
▁그런다	-14816
▁그런일	-14817
▁그런짓	-14818
▁그렇네	-14819
▁그말을	-14820
▁그정돈	-14821
▁근교로	-14822
▁글렀어	-14823
▁글쎄요	-14824
▁글씨가	-14825
▁금지야	-14826
▁급한거	-14827
▁기간은	-14828
▁기달려	-14829
▁기세네	-14830
▁기절놀	-14831
▁기철아	-14832
▁기회야	-14833
▁기획안	-14834
▁기획표	-14835
▁김책임	-14836
▁까불어	-14837
▁까야지	-14838
▁깔끔히	-14839
▁깝치네	-14840
▁꺼내고	-14841
▁꺼져요	-14842
▁꼬맹이	-14843
▁꼬이고	-14844
▁꾸며라	-14845
▁끄세요	-14846
▁끝나는	-14847
▁끝나지	-14848
▁끝냈어	-14849
▁나가기	-14850
▁나가지	-14851
▁나갔나	-14852
▁나같음	-14853
▁나대긴	-14854
▁나라고	-14855
▁나무가	-14856
▁나무야	-14857
▁나빠서	-14858
▁나빠요	-14859
▁나쁜건	-14860
▁나쁜놈	-14861
▁나쁜짓	-14862
▁나사가	-14863
▁나씨가	-14864
▁나아지	-14865
▁나왔나	-14866
▁나한텐	-14867
▁날씨에	-14868
▁날인거	-14869
▁낡아서	-14870
▁남길씨	-14871
▁남는거	-14872
▁남는게	-14873
▁남들은	-14874
▁남아라	-14875
▁남은거	-14876
▁남자인	-14877
▁났는데	-14878
▁낮아서	-14879
▁낮은데	-14880
▁내꺼랑	-14881
▁내껀데	-14882
▁내년에	-14883
▁내는거	-14884
▁내려라	-14885
▁내려봐	-14886
▁내볼까	-14887
▁내부고	-14888
▁내비둬	-14889
▁내알바	-14890
▁내줘라	-14891
▁내줘야	-14892
▁너뿐만	-14893
▁너한텐	-14894
▁너희들	-14895
▁넘기고	-14896
▁넣으면	-14897
▁넥타이	-14898
▁노래가	-14899
▁노력해	-14900
▁노인네	-14901
▁노처녀	-14902
▁논리가	-14903
▁놀거야	-14904
▁놀랐어	-14905
▁놀러와	-14906
▁놀아주	-14907
▁놈들은	-14908
▁놈들이	-14909
▁놈이랑	-14910
▁농담도	-14911
▁놓을게	-14912
▁놓을래	-14913
▁누르면	-14914
▁누워만	-14915
▁눈깔이	-14916
▁눈동자	-14917
▁눈치채	-14918
▁느리고	-14919
▁늘었네	-14920
▁니네형	-14921
▁니사정	-14922
▁니한테	-14923
▁다내놔	-14924
▁다다음	-14925
▁다르네	-14926
▁다른걸	-14927
▁다른게	-14928
▁다른반	-14929
▁다른팀	-14930
▁다물면	-14931
▁다물어	-14932
▁다봤어	-14933
▁다썼어	-14934
▁다알아	-14935
▁다이아	-14936
▁다치게	-14937
▁다치고	-14938
▁다행히	-14939
▁달달한	-14940
▁달렸나	-14941
▁달에도	-14942
▁담배값	-14943
▁담배도	-14944
▁담요를	-14945
▁당당한	-14946
▁당당해	-14947
▁당일로	-14948
▁당하셨	-14949
▁대단해	-14950
▁대답할	-14951
▁대리는	-14952
▁대신해	-14953
▁대회에	-14954
▁더듬는	-14955
▁덩치가	-14956
▁데려오	-14957
▁도데체	-14958
▁도맡아	-14959
▁독약이	-14960
▁돈내놔	-14961
▁돈이요	-14962
▁돈주면	-14963
▁동기가	-14964
▁동기들	-14965
▁동네를	-14966
▁동등한	-14967
▁동료랑	-14968
▁동태탕	-14969
▁돼지네	-14970
▁되겠군	-14971
▁되겠나	-14972
▁되겠냐	-14973
▁되는걸	-14974
▁되는게	-14975
▁되려나	-14976
▁되세요	-14977
▁되시죠	-14978
▁되어야	-14979
▁되지만	-14980
▁된다는	-14981
▁된다면	-14982
▁됩니까	-14983
▁두동강	-14984
▁두르고	-14985
▁두배로	-14986
▁두번도	-14987
▁두세요	-14988
▁뒤져야	-14989
▁뒤쳐지	-14990
▁뒤치다	-14991
▁뒷감당	-14992
▁드는게	-14993
▁드라이	-14994
▁듣겠다	-14995
▁들라고	-14996
▁들러서	-14997
▁들려요	-14998
▁들리면	-14999
▁들었다	-15000
▁들었을	-15001
▁들었지	-15002
▁들을래	-15003
▁들키면	-15004
▁디지게	-15005
▁따님은	-15006
▁딱이야	-15007
▁딸이랑	-15008
▁땅이야	-15009
▁때려치	-15010
▁떠들고	-15011
▁똑같냐	-15012
▁뚱떙이	-15013
▁뚱뚱해	-15014
▁뛰어놀	-15015
▁뜯어서	-15016
▁뜻이야	-15017
▁띄지마	-15018
▁라이터	-15019
▁레포트	-15020
▁리뷰를	-15021
▁리뷰에	-15022
▁리포트	-15023
▁리프트	-15024
▁마당에	-15025
▁마시러	-15026
▁막말로	-15027
▁막으면	-15028
▁만나줘	-15029
▁만났어	-15030
▁만들게	-15031
▁만들기	-15032
▁만들지	-15033
▁만원씩	-15034
▁만원은	-15035
▁만이야	-15036
▁많구만	-15037
▁많으시	-15038
▁많은걸	-15039
▁말고는	-15040
▁말귀도	-15041
▁말든가	-15042
▁말일세	-15043
▁말장난	-15044
▁말조심	-15045
▁말투가	-15046
▁말하네	-15047
▁말해줬	-15048
▁맙소사	-15049
▁맛보게	-15050
▁망가지	-15051
▁망쳤어	-15052
▁망치면	-15053
▁망하면	-15054
▁맞냐고	-15055
▁맞든가	-15056
▁맞선임	-15057
▁맞았어	-15058
▁맞았지	-15059
▁맞지만	-15060
▁맞추고	-15061
▁매일매	-15062
▁매일은	-15063
▁먹기로	-15064
▁먹다가	-15065
▁먹도록	-15066
▁먹었냐	-15067
▁먹었다	-15068
▁먹여살	-15069
▁먹으려	-15070
▁먹을거	-15071
▁먼저야	-15072
▁메일을	-15073
▁몇배로	-15074
▁몇시에	-15075
▁모두가	-15076
▁모든걸	-15077
▁모른다	-15078
▁모를줄	-15079
▁모으고	-15080
▁모조리	-15081
▁목숨값	-15082
▁목숨을	-15083
▁몰랐다	-15084
▁몰랐지	-15085
▁몸부림	-15086
▁못가져	-15087
▁못나갔	-15088
▁못들었	-15089
▁못믿어	-15090
▁못배워	-15091
▁못보게	-15092
▁못보면	-15093
▁못하긴	-15094
▁무겁다	-15095
▁무기를	-15096
▁무뚝뚝	-15097
▁무서울	-15098
▁무슨말	-15099
▁무슨소	-15100
▁무식한	-15101
▁문제를	-15102
▁뭐라는	-15103
▁뭐래니	-15104
▁뭐어때	-15105
▁뭔상관	-15106
▁미래가	-15107
▁미루면	-15108
▁미안한	-15109
▁미연씨	-15110
▁미제출	-15111
▁미쳤지	-15112
▁민규씨	-15113
▁민기씨	-15114
▁민석아	-15115
▁민수야	-15116
▁민철씨	-15117
▁믿어도	-15118
▁믿지마	-15119
▁밀리고	-15120
▁밑으로	-15121
▁바꿀래	-15122
▁바꿔봐	-15123
▁바다에	-15124
▁바람에	-15125
▁바람폈	-15126
▁바빠죽	-15127
▁바쁜가	-15128
▁바에는	-15129
▁바지가	-15130
▁박살을	-15131
▁밖에요	-15132
▁반말은	-15133
▁반말을	-15134
▁받는다	-15135
▁받는데	-15136
▁받아라	-15137
▁받아봐	-15138
▁받아줄	-15139
▁받을거	-15140
▁받을게	-15141
▁받잖아	-15142
▁발끈해	-15143
▁발악을	-15144
▁발표를	-15145
▁밝히고	-15146
▁밝히지	-15147
▁밤새서	-15148
▁밥먹고	-15149
▁방침이	-15150
▁배고파	-15151
▁배달어	-15152
▁배달이	-15153
▁배우들	-15154
▁배은망	-15155
▁버려야	-15156
▁버리면	-15157
▁버스를	-15158
▁번이나	-15159
▁번호는	-15160
▁번호만	-15161
▁범죄에	-15162
▁별로고	-15163
▁별로다	-15164
▁병신을	-15165
▁병원은	-15166
▁병인이	-15167
▁보건실	-15168
▁보구나	-15169
▁보기가	-15170
▁보내준	-15171
▁보내줄	-15172
▁보내줬	-15173
▁보낼게	-15174
▁보냈어	-15175
▁보미씨	-15176
▁보상을	-15177
▁보시고	-15178
▁보이나	-15179
▁보이니	-15180
▁보이면	-15181
▁본사에	-15182
▁볼거야	-15183
▁봐야해	-15184
▁봐주라	-15185
▁봤거든	-15186
▁봤지만	-15187
▁부딪혀	-15188
▁부럽네	-15189
▁부를까	-15190
▁부리면	-15191
▁부모나	-15192
▁부모는	-15193
▁부서는	-15194
▁부인이	-15195
▁부자네	-15196
▁부잣집	-15197
▁부탁은	-15198
▁부탁할	-15199
▁분인데	-15200
▁불고기	-15201
▁불구가	-15202
▁불나면	-15203
▁불만이	-15204
▁붕어빵	-15205
▁붙이고	-15206
▁브랜드	-15207
▁비싼건	-15208
▁비켜봐	-15209
▁비켜요	-15210
▁비타음	-15211
▁비틀어	-15212
▁비호감	-15213
▁빌리지	-15214
▁빠르다	-15215
▁빠지게	-15216
▁빵이랑	-15217
▁빼야지	-15218
▁뺏어갈	-15219
▁뽑는게	-15220
▁뽑아가	-15221
▁뿌려도	-15222
▁뿌리고	-15223
▁사고가	-15224
▁사고로	-15225
▁사고를	-15226
▁사기당	-15227
▁사기도	-15228
▁사니까	-15229
▁사드릴	-15230
▁사라진	-15231
▁사려면	-15232
▁사마귀	-15233
▁사올게	-15234
▁사와야	-15235
▁사와요	-15236
▁사용을	-15237
▁사이는	-15238
▁사이야	-15239
▁사정도	-15240
▁사주는	-15241
▁사줄까	-15242
▁사직서	-15243
▁사회가	-15244
▁산사람	-15245
▁살다가	-15246
▁살던지	-15247
▁살려는	-15248
▁살려둘	-15249
▁살만한	-15250
▁살살해	-15251
▁살아가	-15252
▁살아있	-15253
▁살았나	-15254
▁살았다	-15255
▁살았지	-15256
▁삼겹살	-15257
▁삼촌이	-15258
▁샀다며	-15259
▁샀잖아	-15260
▁상당히	-15261
▁상대해	-15262
▁상무님	-15263
▁상사의	-15264
▁상자가	-15265
▁상태가	-15266
▁상태로	-15267
▁상품이	-15268
▁상황에	-15269
▁새끼랑	-15270
▁새론씨	-15271
▁샌드백	-15272
▁생각에	-15273
▁생겨선	-15274
▁생기는	-15275
▁생리가	-15276
▁생신이	-15277
▁서둘러	-15278
▁서세요	-15279
▁서운한	-15280
▁서희야	-15281
▁섞어서	-15282
▁선물은	-15283
▁선물좀	-15284
▁선배들	-15285
▁선배를	-15286
▁선아야	-15287
▁선에서	-15288
▁선임이	-15289
▁선호야	-15290
▁설명해	-15291
▁설탕을	-15292
▁성적도	-15293
▁세상엔	-15294
▁세웠어	-15295
▁세차요	-15296
▁세치기	-15297
▁세탁소	-15298
▁소리나	-15299
▁소리도	-15300
▁소문냈	-15301
▁소문을	-15302
▁소원이	-15303
▁손님들	-15304
▁손님은	-15305
▁손들어	-15306
▁손안에	-15307
▁손찌검	-15308
▁손해야	-15309
▁수면제	-15310
▁수술을	-15311
▁수아야	-15312
▁수업에	-15313
▁수업은	-15314
▁수진씨	-15315
▁수진이	-15316
▁수포자	-15317
▁숙제는	-15318
▁술이나	-15319
▁슬프다	-15320
▁승연씨	-15321
▁승진이	-15322
▁시간좀	-15323
▁시계도	-15324
▁시계랑	-15325
▁시말서	-15326
▁시비야	-15327
▁시치미	-15328
▁시켜야	-15329
▁시켜주	-15330
▁시켰다	-15331
▁시켰어	-15332
▁시킬게	-15333
▁시험이	-15334
▁식구들	-15335
▁신경도	-15336
▁신고가	-15337
▁신고도	-15338
▁신규가	-15339
▁신나게	-15340
▁신랑이	-15341
▁신뢰도	-15342
▁신발은	-15343
▁신장은	-15344
▁신제품	-15345
▁실력도	-15346
▁실장님	-15347
▁싫구나	-15348
▁싫더라	-15349
▁싫었냐	-15350
▁십원에	-15351
▁싶구나	-15352
▁싶다면	-15353
▁싶은거	-15354
▁싶은게	-15355
▁싸오면	-15356
▁싸우면	-15357
▁싸인을	-15358
▁쌍으로	-15359
▁쌤한테	-15360
▁써보고	-15361
▁썼다며	-15362
▁쓰니까	-15363
▁쓰던거	-15364
▁쓰러져	-15365
▁쓰세요	-15366
▁쓸모가	-15367
▁쓸어담	-15368
▁아깝지	-15369
▁아끼고	-15370
▁아끼면	-15371
▁아내랑	-15372
▁아니었	-15373
▁아니오	-15374
▁아들과	-15375
▁아무런	-15376
▁아무말	-15377
▁아시나	-15378
▁아아악	-15379
▁아이도	-15380
▁아침밥	-15381
▁아침형	-15382
▁아토피	-15383
▁아파도	-15384
▁아프고	-15385
▁아프냐	-15386
▁아프네	-15387
▁아프단	-15388
▁아픈거	-15389
▁안가는	-15390
▁안갖고	-15391
▁안꺼내	-15392
▁안내면	-15393
▁안당해	-15394
▁안도와	-15395
▁안돼냐	-15396
▁안돼서	-15397
▁안되네	-15398
▁안될거	-15399
▁안될것	-15400
▁안될꺼	-15401
▁안드네	-15402
▁안드는	-15403
▁안비싸	-15404
▁안쓰고	-15405
▁안아프	-15406
▁안알려	-15407
▁안오는	-15408
▁안좋고	-15409
▁안죽여	-15410
▁안준대	-15411
▁안쪽팔	-15412
▁안쳐다	-15413
▁안해요	-15414
▁안헤어	-15415
▁앉아도	-15416
▁앉아만	-15417
▁않겠지	-15418
▁않다고	-15419
▁알기나	-15420
▁알리는	-15421
▁알바가	-15422
▁알빠야	-15423
▁알았니	-15424
▁암호를	-15425
▁앞뒤가	-15426
▁애구나	-15427
▁애미야	-15428
▁앱으로	-15429
▁야근도	-15430
▁약먹고	-15431
▁약속한	-15432
▁양다리	-15433
▁얘기할	-15434
▁어두운	-15435
▁어두워	-15436
▁어디사	-15437
▁어떡게	-15438
▁어떤일	-15439
▁어떻대	-15440
▁어렸을	-15441
▁어릴적	-15442
▁어지간	-15443
▁어째서	-15444
▁어쩌고	-15445
▁어쩌죠	-15446
▁어플로	-15447
▁언제갚	-15448
▁언제요	-15449
▁언젠간	-15450
▁얼레리	-15451
▁얼마를	-15452
▁얼마짜	-15453
▁얼버무	-15454
▁엄마야	-15455
▁엄연한	-15456
▁업무나	-15457
▁업무의	-15458
▁업체가	-15459
▁업체에	-15460
▁없나보	-15461
▁없냐고	-15462
▁없는걸	-15463
▁없는것	-15464
▁없는줄	-15465
▁없는척	-15466
▁없다구	-15467
▁없다면	-15468
▁없던데	-15469
▁없었고	-15470
▁없었지	-15471
▁없으셨	-15472
▁엉망진	-15473
▁에헤이	-15474
▁여는데	-15475
▁여자로	-15476
▁여전히	-15477
▁여행을	-15478
▁연가썼	-15479
▁연구원	-15480
▁연기가	-15481
▁연달아	-15482
▁연애도	-15483
▁연애를	-15484
▁연차도	-15485
▁연초에	-15486
▁연휴에	-15487
▁열까지	-15488
▁열받아	-15489
▁열애설	-15490
▁열정을	-15491
▁영상을	-15492
▁영지씨	-15493
▁영희씨	-15494
▁옆으로	-15495
▁예민한	-15496
▁예의상	-15497
▁옛날에	-15498
▁오도록	-15499
▁오래는	-15500
▁오려고	-15501
▁오류가	-15502
▁오백만	-15503
▁오셔서	-15504
▁오지랖	-15505
▁오해를	-15506
▁온거고	-15507
▁온거지	-15508
▁온다고	-15509
▁올라갔	-15510
▁올캐가	-15511
▁와이파	-15512
▁와중에	-15513
▁왕따당	-15514
▁왜안돼	-15515
▁왜없어	-15516
▁왜저러	-15517
▁외국에	-15518
▁요구를	-15519
▁요새는	-15520
▁요즘에	-15521
▁욕심이	-15522
▁욕하고	-15523
▁운동할	-15524
▁운동해	-15525
▁울면서	-15526
▁웃긴데	-15527
▁원래도	-15528
▁월급만	-15529
▁유도리	-15530
▁유리야	-15531
▁유부남	-15532
▁유심칩	-15533
▁유용해	-15534
▁유일한	-15535
▁유진아	-15536
▁윤경씨	-15537
▁윤아가	-15538
▁음식값	-15539
▁음식점	-15540
▁의식이	-15541
▁이거냐	-15542
▁이것은	-15543
▁이녀석	-15544
▁이라고	-15545
▁이런대	-15546
▁이럴땐	-15547
▁이보다	-15548
▁이쁜줄	-15549
▁이사장	-15550
▁이용할	-15551
▁이유나	-15552
▁이자는	-15553
▁이자도	-15554
▁이제껏	-15555
▁이참에	-15556
▁이팀장	-15557
▁인가요	-15558
▁인권침	-15559
▁인성이	-15560
▁인질을	-15561
▁일들이	-15562
▁일러라	-15563
▁일병이	-15564
▁일이냐	-15565
▁일이니	-15566
▁일이죠	-15567
▁일이지	-15568
▁일일세	-15569
▁일정을	-15570
▁일정이	-15571
▁일하게	-15572
▁일하나	-15573
▁일한거	-15574
▁일해요	-15575
▁임신한	-15576
▁임원직	-15577
▁임주임	-15578
▁입부터	-15579
▁입으면	-15580
▁입을까	-15581
▁있겠냐	-15582
▁있겠다	-15583
▁있겠지	-15584
▁있고요	-15585
▁있구나	-15586
▁있구만	-15587
▁있기는	-15588
▁있다니	-15589
▁있다며	-15590
▁있도록	-15591
▁있었지	-15592
▁있을걸	-15593
▁자격도	-15594
▁자금이	-15595
▁자기를	-15596
▁자네의	-15597
▁자라서	-15598
▁자료가	-15599
▁자료를	-15600
▁자르자	-15601
▁자세가	-15602
▁자세히	-15603
▁자존감	-15604
▁작성한	-15605
▁작심삼	-15606
▁작은데	-15607
▁잘난척	-15608
▁잘났네	-15609
▁잘났다	-15610
▁잘났어	-15611
▁잘랐어	-15612
▁잘하나	-15613
▁잘하네	-15614
▁잘하자	-15615
▁잘해서	-15616
▁잘했네	-15617
▁잡일은	-15618
▁잡쳤네	-15619
▁잡치게	-15620
▁잡치네	-15621
▁장난쳐	-15622
▁장난치	-15623
▁장사가	-15624
▁장사를	-15625
▁장애를	-15626
▁재미없	-15627
▁재미에	-15628
▁재밌냐	-15629
▁재밌네	-15630
▁재평아	-15631
▁저능아	-15632
▁저도요	-15633
▁저런게	-15634
▁저번이	-15635
▁저보고	-15636
▁저사람	-15637
▁저지를	-15638
▁저희랑	-15639
▁적당한	-15640
▁전과자	-15641
▁전자기	-15642
▁전화도	-15643
▁전화로	-15644
▁전화좀	-15645
▁점심값	-15646
▁점심에	-15647
▁정당한	-15648
▁정도도	-15649
▁정도를	-15650
▁정리가	-15651
▁정말요	-15652
▁정선생	-15653
▁정성을	-15654
▁정수기	-15655
▁정시에	-15656
▁정해진	-15657
▁제수씨	-15658
▁제스타	-15659
▁제인씨	-15660
▁제출한	-15661
▁조대리	-15662
▁조심들	-15663
▁종류가	-15664
▁좋아져	-15665
▁좋아지	-15666
▁좋아질	-15667
▁좋았던	-15668
▁좋았지	-15669
▁좋은일	-15670
▁좋은지	-15671
▁좋지만	-15672
▁죄송은	-15673
▁죄송한	-15674
▁주겠다	-15675
▁주겠어	-15676
▁주기로	-15677
▁주니까	-15678
▁주라는	-15679
▁주라면	-15680
▁주려고	-15681
▁주문을	-15682
▁주소가	-15683
▁주시는	-15684
▁주십쇼	-15685
▁죽겠다	-15686
▁죽기는	-15687
▁죽도록	-15688
▁죽어줘	-15689
▁죽여서	-15690
▁죽였지	-15691
▁죽을것	-15692
▁죽이기	-15693
▁죽이나	-15694
▁죽인거	-15695
▁죽일까	-15696
▁죽자고	-15697
▁준비가	-15698
▁줄게요	-15699
▁줄알아	-15700
▁중이고	-15701
▁중이라	-15702
▁줬더니	-15703
▁지갑은	-15704
▁지갑이	-15705
▁지내요	-15706
▁지내자	-15707
▁지냈냐	-15708
▁지루해	-15709
▁지시를	-15710
▁지옥을	-15711
▁지우게	-15712
▁직급이	-15713
▁직원분	-15714
▁직장내	-15715
▁진실을	-15716
▁집가면	-15717
▁집에가	-15718
▁집에갈	-15719
▁집주소	-15720
▁집중이	-15721
▁집착이	-15722
▁짓거리	-15723
▁짖어봐	-15724
▁쫄기는	-15725
▁쫄았냐	-15726
▁쫓아갈	-15727
▁찌질아	-15728
▁찌질이	-15729
▁찍는데	-15730
▁찍은거	-15731
▁찐따다	-15732
▁찐따로	-15733
▁찐따면	-15734
▁찔러봐	-15735
▁차렸네	-15736
▁차릴거	-15737
▁차분해	-15738
▁차에서	-15739
▁착각이	-15740
▁착해서	-15741
▁찬영이	-15742
▁참고서	-15743
▁참는다	-15744
▁참다참	-15745
▁창피한	-15746
▁창피해	-15747
▁찾으러	-15748
▁찾으면	-15749
▁책인데	-15750
▁책임을	-15751
▁처맞고	-15752
▁처음에	-15753
▁처자식	-15754
▁척이야	-15755
▁철수가	-15756
▁첨부터	-15757
▁청소기	-15758
▁청소년	-15759
▁청소를	-15760
▁쳐다볼	-15761
▁쳐먹어	-15762
▁초면에	-15763
▁최고의	-15764
▁최인턴	-15765
▁추운데	-15766
▁추워서	-15767
▁축의금	-15768
▁출근할	-15769
▁출퇴근	-15770
▁취급할	-15771
▁취미로	-15772
▁취해서	-15773
▁치료비	-15774
▁치워라	-15775
▁친구니	-15776
▁친한척	-15777
▁카드만	-15778
▁캐릭터	-15779
▁캐주얼	-15780
▁커리어	-15781
▁커플링	-15782
▁커피는	-15783
▁케이스	-15784
▁크다고	-15785
▁큰돈이	-15786
▁큰일나	-15787
▁키워준	-15788
▁타격이	-15789
▁털려서	-15790
▁털리고	-15791
▁토나오	-15792
▁통장을	-15793
▁통조림	-15794
▁통화를	-15795
▁튀려고	-15796
▁튀어와	-15797
▁틀리면	-15798
▁팀장이	-15799
▁파는데	-15800
▁파악이	-15801
▁파우치	-15802
▁팔아요	-15803
▁퍽퍽퍽	-15804
▁편들어	-15805
▁편하지	-15806
▁포기할	-15807
▁포장해	-15808
▁폭탄을	-15809
▁푸하하	-15810
▁풀렸어	-15811
▁풀어주	-15812
▁피드백	-15813
▁피드에	-15814
▁피씨방	-15815
▁피자빵	-15816
▁피해는	-15817
▁핑계고	-15818
▁하구요	-15819
▁하기는	-15820
▁하나둘	-15821
▁하나봐	-15822
▁하네요	-15823
▁하느님	-15824
▁하는걸	-15825
▁하니깐	-15826
▁하다가	-15827
▁하든지	-15828
▁하라마	-15829
▁하셨고	-15830
▁하셨죠	-15831
▁하수구	-15832
▁하시지	-15833
▁하이고	-15834
▁하지는	-15835
▁학교야	-15836
▁학력은	-15837
▁학벌도	-15838
▁한가한	-15839
▁한걸로	-15840
▁한군데	-15841
▁한눈에	-15842
▁한다며	-15843
▁한달이	-15844
▁한데요	-15845
▁한명씩	-15846
▁한심한	-15847
▁한테는	-15848
▁한푼도	-15849
▁할말은	-15850
▁할망구	-15851
▁할수있	-15852
▁할일은	-15853
▁핫스팟	-15854
▁해결될	-15855
▁해독제	-15856
▁해드렸	-15857
▁해봤자	-15858
▁해야죠	-15859
▁해오면	-15860
▁해외로	-15861
▁해주나	-15862
▁해준게	-15863
▁해줄래	-15864
▁해치지	-15865
▁했었어	-15866
▁했자나	-15867
▁행동해	-15868
▁허락을	-15869
▁험한꼴	-15870
▁헛수고	-15871
▁현금도	-15872
▁현금을	-15873
▁현실을	-15874
▁협박할	-15875
▁형기가	-15876
▁형님도	-15877
▁혜택을	-15878
▁호의를	-15879
▁혼잣말	-15880
▁화나서	-15881
▁확률이	-15882
▁확인도	-15883
▁환불안	-15884
▁환불을	-15885
▁환절기	-15886
▁황길동	-15887
▁회사야	-15888
▁회사일	-15889
▁회식에	-15890
▁회의는	-15891
▁회의록	-15892
▁후줄근	-15893
▁흐리지	-15894
▁흐흐흐	-15895
▁흑흑흑	-15896
▁히이익	-15897
▁힐링돼	-15898
▁힘드네	-15899
▁힘들다	-15900
▁힘으로	-15901
같으니까	-15902
같은년이	-15903
것같아서	-15904
고싶어요	-15905
그런가요	-15906
그런거야	-15907
기만하고	-15908
남자친구	-15909
는거니까	-15910
다는건데	-15911
달라고요	-15912
대가리가	-15913
드렸는데	-15914
드리도록	-15915
들한테도	-15916
라면서요	-15917
릴거니까	-15918
말이세요	-15919
맞고싶냐	-15920
면에서는	-15921
미안하네	-15922
버릴테니	-15923
보실래요	-15924
부모님이	-15925
뿐입니다	-15926
사람이야	-15927
사람인데	-15928
사이트에	-15929
셔야지요	-15930
셨나봐요	-15931
셨습니다	-15932
수도있어	-15933
시간인데	-15934
시켜줄게	-15935
시킬거야	-15936
아니지만	-15937
아아아악	-15938
아야겠어	-15939
야하는거	-15940
었는데요	-15941
었을거야	-15942
위바위보	-15943
이라면서	-15944
이름으로	-15945
인줄알아	-15946
있어서요	-15947
있잖아요	-15948
적으로도	-15949
주는건데	-15950
주는것도	-15951
준다는데	-15952
줄때까지	-15953
줘야겠어	-15954
초등학교	-15955
치지말고	-15956
퇴근하고	-15957
프로젝트	-15958
하겠어요	-15959
하고있어	-15960
하는거니	-15961
하더라고	-15962
하시는건	-15963
하시던데	-15964
하신다는	-15965
하신다면	-15966
하실거야	-15967
한다는게	-15968
할거아냐	-15969
할거에요	-15970
할때부터	-15971
할머니가	-15972
할아버지	-15973
해야해요	-15974
해주려고	-15975
했을텐데	-15976
▁0000	-15977
▁1500	-15978
▁가격으로	-15979
▁가는것도	-15980
▁가려는데	-15981
▁가르쳤어	-15982
▁가만보면	-15983
▁가방인데	-15984
▁가봐야지	-15985
▁가시는게	-15986
▁가져간대	-15987
▁가져올께	-15988
▁가져왔냐	-15989
▁가족같은	-15990
▁가족들을	-15991
▁가지고와	-15992
▁각오해라	-15993
▁감당해야	-15994
▁감방에서	-15995
▁강인턴이	-15996
▁갚을꺼야	-15997
▁갚을께요	-15998
▁개소리야	-15999
▁개판으로	-16000
▁거스름돈	-16001
▁거슬리면	-16002
▁거지같은	-16003
▁거지같이	-16004
▁거지라고	-16005
▁거지라서	-16006
▁거짓말이	-16007
▁걱정되네	-16008
▁건강검진	-16009
▁건드리면	-16010
▁건방지게	-16011
▁건조해서	-16012
▁걸리는거	-16013
▁걸어다녀	-16014
▁걸어다닐	-16015
▁게임이랑	-16016
▁게임하고	-16017
▁결혼반지	-16018
▁결혼식이	-16019
▁경찰부르	-16020
▁계시는데	-16021
▁계십니다	-16022
▁계약서에	-16023
▁계좌이체	-16024
▁고객님은	-16025
▁고객한테	-16026
▁고마워요	-16027
▁고마웠어	-16028
▁고민된다	-16029
▁고민이다	-16030
▁고발하고	-16031
▁고백했다	-16032
▁고소하고	-16033
▁고장나서	-16034
▁고장났어	-16035
▁고졸이라	-16036
▁고치도록	-16037
▁골때리는	-16038
▁골목에서	-16039
▁공개되면	-16040
▁공개수업	-16041
▁공부하고	-16042
▁공부하냐	-16043
▁공부하는	-16044
▁공부한다	-16045
▁괴롭혀서	-16046
▁괴롭히고	-16047
▁교육시켜	-16048
▁교통카드	-16049
▁구경하는	-16050
▁구구절절	-16051
▁구라까네	-16052
▁구라치네	-16053
▁구역에서	-16054
▁구하기가	-16055
▁귀찮아서	-16056
▁그거까지	-16057
▁그나저나	-16058
▁그때그때	-16059
▁그때부터	-16060
▁그래놓고	-16061
▁그러잖아	-16062
▁그런거고	-16063
▁그런뜻이	-16064
▁그런적이	-16065
▁그럴까요	-16066
▁그럴께요	-16067
▁그럴려고	-16068
▁그럽니다	-16069
▁그렇네요	-16070
▁그만이지	-16071
▁그만하래	-16072
▁그만하면	-16073
▁그정도면	-16074
▁극혐이다	-16075
▁근질근질	-16076
▁금방이야	-16077
▁긋는다고	-16078
▁기다려요	-16079
▁기다려주	-16080
▁기다린다	-16081
▁기다릴게	-16082
▁기대해도	-16083
▁기어오르	-16084
▁기회라고	-16085
▁길거리에	-16086
▁길동씨가	-16087
▁김과장이	-16088
▁김사원님	-16089
▁김사장님	-16090
▁까딱하면	-16091
▁까칠하게	-16092
▁깐깐하게	-16093
▁깜빡하고	-16094
▁꺼져줄래	-16095
▁꿀꿀해봐	-16096
▁꿇으라고	-16097
▁끝났는데	-16098
▁끝내야지	-16099
▁끝냈는데	-16100
▁나가던가	-16101
▁나갈거야	-16102
▁나갔는데	-16103
▁나대지마	-16104
▁나아니야	-16105
▁나아지고	-16106
▁나오기만	-16107
▁나오라해	-16108
▁나올텐데	-16109
▁나왔던데	-16110
▁나좋자고	-16111
▁나타나는	-16112
▁나한테도	-16113
▁남편한테	-16114
▁내가언제	-16115
▁내동생은	-16116
▁내려놓으	-16117
▁내리세요	-16118
▁내보내줘	-16119
▁내욕하고	-16120
▁냄새나고	-16121
▁냉장고에	-16122
▁너같은건	-16123
▁너만보면	-16124
▁너무해요	-16125
▁너였으면	-16126
▁너한테만	-16127
▁너희가족	-16128
▁너희끼리	-16129
▁넘기겠다	-16130
▁넘어가는	-16131
▁넘어가지	-16132
▁넘었는데	-16133
▁넣었는데	-16134
▁노트북을	-16135
▁노트북이	-16136
▁녹음해서	-16137
▁놀이공원	-16138
▁농담인데	-16139
▁놓으라고	-16140
▁누가봐도	-16141
▁누구처럼	-16142
▁누군지는	-16143
▁늙었다고	-16144
▁능력있는	-16145
▁니같은게	-16146
▁다가오지	-16147
▁다녀왔어	-16148
▁다니는지	-16149
▁다니니까	-16150
▁다니더라	-16151
▁다르잖아	-16152
▁다른걸로	-16153
▁다리아파	-16154
▁다시해와	-16155
▁다음으로	-16156
▁다했는데	-16157
▁닦아야지	-16158
▁단무지가	-16159
▁단정하지	-16160
▁달라는거	-16161
▁담달에는	-16162
▁담배피고	-16163
▁담배피러	-16164
▁당당하게	-16165
▁당사자가	-16166
▁당신같은	-16167
▁당신들이	-16168
▁대가리를	-16169
▁대가리에	-16170
▁대단한거	-16171
▁대들라고	-16172
▁대박이다	-16173
▁대수라고	-16174
▁대회에서	-16175
▁도둑취급	-16176
▁도와주고	-16177
▁도와주자	-16178
▁돈가져와	-16179
▁돈이에요	-16180
▁돌려받을	-16181
▁돌려줘야	-16182
▁돌렸어요	-16183
▁동그랗게	-16184
▁돼지잖아	-16185
▁되겠어요	-16186
▁되었나요	-16187
▁된다니까	-16188
▁뒹굴뒹굴	-16189
▁드렸는데	-16190
▁드셨는데	-16191
▁듣는거야	-16192
▁들렸다면	-16193
▁들어가고	-16194
▁들어가나	-16195
▁들어가니	-16196
▁들어가면	-16197
▁들어가요	-16198
▁들어간거	-16199
▁들어갔어	-16200
▁들었거든	-16201
▁들었으면	-16202
▁등록금도	-16203
▁따라가서	-16204
▁때까지만	-16205
▁뚱뚱하냐	-16206
▁마셔서요	-16207
▁마지막이	-16208
▁막아드릴	-16209
▁만나지마	-16210
▁만났는데	-16211
▁만드는데	-16212
▁만들라고	-16213
▁만원밖에	-16214
▁만원으로	-16215
▁말다했어	-16216
▁말대답을	-16217
▁말라니까	-16218
▁말로하자	-16219
▁말씀드려	-16220
▁말아주라	-16221
▁말아줄래	-16222
▁말하라고	-16223
▁말합니다	-16224
▁말해줄게	-16225
▁말해줘요	-16226
▁말했어요	-16227
▁말했었지	-16228
▁맞아맞아	-16229
▁맞아야지	-16230
▁맞으면서	-16231
▁맞춤법이	-16232
▁머리까지	-16233
▁머리라도	-16234
▁먹여주고	-16235
▁먹으니까	-16236
▁먹일거야	-16237
▁멀쩡한게	-16238
▁멀쩡한데	-16239
▁며느리가	-16240
▁명령이야	-16241
▁몇년인데	-16242
▁모레까지	-16243
▁모르면서	-16244
▁모르시나	-16245
▁모양이니	-16246
▁모양이야	-16247
▁모자라서	-16248
▁모텔에서	-16249
▁목숨으로	-16250
▁몰랐는데	-16251
▁못기다려	-16252
▁못빌려줘	-16253
▁못생겼지	-16254
▁못해주냐	-16255
▁무서운게	-16256
▁무섭네요	-16257
▁무시하네	-16258
▁무시하지	-16259
▁문열라고	-16260
▁물어봐야	-16261
▁물어봐요	-16262
▁뭐라했냐	-16263
▁뭐라했어	-16264
▁뭘했다고	-16265
▁미술학원	-16266
▁미안하단	-16267
▁미친년아	-16268
▁믹스커피	-16269
▁민주씨가	-16270
▁믿어보지	-16271
▁믿을수가	-16272
▁밀려서요	-16273
▁바꿔줘요	-16274
▁바랍니다	-16275
▁바보같아	-16276
▁바쁘다고	-16277
▁바쁘셔서	-16278
▁바쁩니다	-16279
▁박과장님	-16280
▁박사장님	-16281
▁받습니다	-16282
▁받으니까	-16283
▁받은거라	-16284
▁받은거란	-16285
▁받을게요	-16286
▁밥이라도	-16287
▁방향으로	-16288
▁배달시켰	-16289
▁배신하는	-16290
▁배우라고	-16291
▁배워보고	-16292
▁배워볼까	-16293
▁버스카드	-16294
▁범죄에요	-16295
▁법적으로	-16296
▁벙어리가	-16297
▁보고서는	-16298
▁보고서도	-16299
▁보내줘도	-16300
▁보물이야	-16301
▁보아하니	-16302
▁보여주면	-16303
▁보이시죠	-16304
▁보태주면	-16305
▁보험회사	-16306
▁복잡하게	-16307
▁봐주셔서	-16308
▁봤거든요	-16309
▁부끄러워	-16310
▁부드러워	-16311
▁부러뜨릴	-16312
▁부러지게	-16313
▁부럽기도	-16314
▁부르는데	-16315
▁부르라고	-16316
▁부인이랑	-16317
▁부족하네	-16318
▁부족한거	-16319
▁부탁하네	-16320
▁분위기가	-16321
▁분위기를	-16322
▁불러주는	-16323
▁불만있어	-16324
▁불붙이면	-16325
▁불쾌해서	-16326
▁블라우스	-16327
▁블랙박스	-16328
▁블로그에	-16329
▁비행기를	-16330
▁빌려간다	-16331
▁빌려준거	-16332
▁빌려줄께	-16333
▁빌려줄수	-16334
▁빌렸으면	-16335
▁빌린것도	-16336
▁빠듯해서	-16337
▁빡치니깐	-16338
▁빨리가서	-16339
▁뻔뻔하다	-16340
▁뿌릴거야	-16341
▁사고라도	-16342
▁사과하기	-16343
▁사과하는	-16344
▁사과하면	-16345
▁사과해도	-16346
▁사나보다	-16347
▁사다줄래	-16348
▁사람들만	-16349
▁사람이라	-16350
▁사람이면	-16351
▁사모님이	-16352
▁사물함에	-16353
▁사사건건	-16354
▁사생활을	-16355
▁사생활이	-16356
▁사와야지	-16357
▁사장이랑	-16358
▁사적으로	-16359
▁사정까지	-16360
▁사준다고	-16361
▁사회성이	-16362
▁살려주라	-16363
▁살려주면	-16364
▁살려주지	-16365
▁살아야죠	-16366
▁삼촌한테	-16367
▁상관없고	-16368
▁상관없지	-16369
▁상대방이	-16370
▁상황이야	-16371
▁새끼들이	-16372
▁생각이나	-16373
▁생각해라	-16374
▁생각해요	-16375
▁생신이라	-16376
▁서비스로	-16377
▁선물이야	-16378
▁선배님이	-16379
▁선배한테	-16380
▁선택권을	-16381
▁선택권이	-16382
▁설명해주	-16383
▁섭섭하게	-16384
▁성공하면	-16385
▁소름끼쳐	-16386
▁소리지르	-16387
▁소리지를	-16388
▁손님께서	-16389
▁손님보고	-16390
▁손대지마	-16391
▁송대리님	-16392
▁수고했어	-16393
▁수업인데	-16394
▁술마시고	-16395
▁쉬어야지	-16396
▁쉽게쉽게	-16397
▁스트레칭	-16398
▁승급하고	-16399
▁승진하고	-16400
▁시간까지	-16401
▁시작하면	-16402
▁시켜줄게	-16403
▁시키는건	-16404
▁시험기간	-16405
▁신경써서	-16406
▁신사임당	-16407
▁신어봐도	-16408
▁신었는데	-16409
▁신입들은	-16410
▁실력으로	-16411
▁실수하지	-16412
▁실수한거	-16413
▁싫다는데	-16414
▁심부름값	-16415
▁싶으세요	-16416
▁싶은거지	-16417
▁싹싹하게	-16418
▁써가면서	-16419
▁써서라도	-16420
▁써야겠다	-16421
▁썸남한테	-16422
▁쓰는거야	-16423
▁쓰는건데	-16424
▁쓰레기를	-16425
▁쓰레기통	-16426
▁쓸모없는	-16427
▁아깝잖아	-16428
▁아껴야지	-16429
▁아내한테	-16430
▁아냐아냐	-16431
▁아니냐고	-16432
▁아니니까	-16433
▁아닌거지	-16434
▁아닐텐데	-16435
▁아들한테	-16436
▁아아니야	-16437
▁아줌마네	-16438
▁아줌마는	-16439
▁아직도야	-16440
▁아티스트	-16441
▁아파트도	-16442
▁아프신데	-16443
▁안끝난다	-16444
▁안끝났어	-16445
▁안돼겠다	-16446
▁안되겠군	-16447
▁안되는건	-16448
▁안되세요	-16449
▁안될텐데	-16450
▁안드니까	-16451
▁안들려요	-16452
▁안들리는	-16453
▁안들어가	-16454
▁안보이게	-16455
▁안전하게	-16456
▁안좋잖아	-16457
▁안하세요	-16458
▁안하시면	-16459
▁안하잖아	-16460
▁안한다고	-16461
▁앉아있어	-16462
▁앉으세요	-16463
▁않겠어요	-16464
▁않는다면	-16465
▁알겠는데	-16466
▁알다시피	-16467
▁알려줄수	-16468
▁알바라도	-16469
▁알아봤어	-16470
▁앞에서도	-16471
▁애들보다	-16472
▁애미애비	-16473
▁야근하고	-16474
▁야비하게	-16475
▁약속한거	-16476
▁얘기하는	-16477
▁얘기한다	-16478
▁얘기해요	-16479
▁얘기해줘	-16480
▁얘들한테	-16481
▁어디론가	-16482
▁어디있나	-16483
▁어때서요	-16484
▁어떠세요	-16485
▁어떻게요	-16486
▁어려운거	-16487
▁어려울것	-16488
▁어린이집	-16489
▁어울리기	-16490
▁어쩌라는	-16491
▁언니한테	-16492
▁얼굴보고	-16493
▁얼굴이랑	-16494
▁얼마필요	-16495
▁얼어죽을	-16496
▁업무처리	-16497
▁없거든요	-16498
▁없다구요	-16499
▁없던걸로	-16500
▁없어지는	-16501
▁없으시죠	-16502
▁없을거야	-16503
▁없을텐데	-16504
▁엉덩이는	-16505
▁에스프레	-16506
▁여기있는	-16507
▁여러가지	-16508
▁여러모로	-16509
▁여름휴가	-16510
▁여자라고	-16511
▁여자애가	-16512
▁여친이랑	-16513
▁여편내가	-16514
▁여행이나	-16515
▁역겨워서	-16516
▁연락드렸	-16517
▁연락처좀	-16518
▁연락해서	-16519
▁열받아서	-16520
▁열심히해	-16521
▁영상으로	-16522
▁예약했어	-16523
▁예정이라	-16524
▁오늘부턴	-16525
▁오래오래	-16526
▁오빠보다	-16527
▁오셨나요	-16528
▁오해라고	-16529
▁오해에요	-16530
▁오해하지	-16531
▁오해해요	-16532
▁올라와서	-16533
▁올리브영	-16534
▁올린거야	-16535
▁올린건가	-16536
▁올바르게	-16537
▁와가지고	-16538
▁와주세요	-16539
▁왔다갔다	-16540
▁왔습니다	-16541
▁왔으니까	-16542
▁왜이래요	-16543
▁외국에서	-16544
▁외출하기	-16545
▁용돈까지	-16546
▁우리같은	-16547
▁우리때는	-16548
▁우리식구	-16549
▁우리애가	-16550
▁우울하다	-16551
▁운전면허	-16552
▁움직이지	-16553
▁원래대로	-16554
▁원하는거	-16555
▁원하는건	-16556
▁위험해질	-16557
▁윗사람이	-16558
▁유도리가	-16559
▁유전이야	-16560
▁유전자를	-16561
▁유행하는	-16562
▁윤이씨가	-16563
▁은행에서	-16564
▁이걸로는	-16565
▁이것보단	-16566
▁이기적이	-16567
▁이기적인	-16568
▁이대리도	-16569
▁이따위야	-16570
▁이랬으면	-16571
▁이러기냐	-16572
▁이러는게	-16573
▁이러는데	-16574
▁이러려고	-16575
▁이런데서	-16576
▁이런식이	-16577
▁이를꺼야	-16578
▁이물질이	-16579
▁이번년도	-16580
▁이번달엔	-16581
▁이번주는	-16582
▁이봐이봐	-16583
▁이쁘던데	-16584
▁이사님이	-16585
▁이야기가	-16586
▁이정도도	-16587
▁이주임이	-16588
▁인사하고	-16589
▁인생에서	-16590
▁인센티브	-16591
▁인심썼다	-16592
▁일루와봐	-16593
▁일어날지	-16594
▁일입니다	-16595
▁일하라고	-16596
▁입금하면	-16597
▁입금할게	-16598
▁입금해요	-16599
▁입냄새나	-16600
▁입닥치고	-16601
▁입어보자	-16602
▁입장에서	-16603
▁있나본데	-16604
▁있다는데	-16605
▁있다니까	-16606
▁있더라고	-16607
▁있던거야	-16608
▁있었다고	-16609
▁있으니깐	-16610
▁있으신가	-16611
▁있을게요	-16612
▁자기관리	-16613
▁자네보다	-16614
▁자네에게	-16615
▁자릿세를	-16616
▁자빠졌네	-16617
▁자식새끼	-16618
▁작년에도	-16619
▁작업하고	-16620
▁잘먹었다	-16621
▁잘못건들	-16622
▁잘못하면	-16623
▁잘어울려	-16624
▁잘하는데	-16625
▁잘한다고	-16626
▁잘해줄게	-16627
▁잠깐이면	-16628
▁장기자랑	-16629
▁장난같나	-16630
▁장난인데	-16631
▁장난하니	-16632
▁장난해요	-16633
▁장사하기	-16634
▁장사하는	-16635
▁장애인아	-16636
▁재미없다	-16637
▁재미있는	-16638
▁재밌어서	-16639
▁재워주고	-16640
▁저희에게	-16641
▁적반하장	-16642
▁전화하고	-16643
▁정색하고	-16644
▁정신나간	-16645
▁정신병자	-16646
▁제대로해	-16647
▁제주도로	-16648
▁제출하면	-16649
▁조금이따	-16650
▁조상님이	-16651
▁조용히해	-16652
▁조퇴하고	-16653
▁좋아서요	-16654
▁좋아졌다	-16655
▁좋아하고	-16656
▁좋아하시	-16657
▁좋아하실	-16658
▁좋아하지	-16659
▁좋았겠다	-16660
▁좋을꺼야	-16661
▁죄송하긴	-16662
▁죄송하단	-16663
▁죄송하지	-16664
▁주말까지	-16665
▁주말이라	-16666
▁주먹으로	-16667
▁주민센터	-16668
▁주신거야	-16669
▁죽고싶니	-16670
▁죽기전에	-16671
▁죽습니다	-16672
▁죽으라면	-16673
▁죽을수도	-16674
▁죽을지도	-16675
▁죽이겠다	-16676
▁죽이는건	-16677
▁죽이는게	-16678
▁죽이는데	-16679
▁죽이려고	-16680
▁죽일꺼야	-16681
▁준다는데	-16682
▁준비하는	-16683
▁줄것이지	-16684
▁중대장님	-16685
▁중요하게	-16686
▁중요하냐	-16687
▁중요하다	-16688
▁줘야겠다	-16689
▁증거사진	-16690
▁지나가다	-16691
▁지나가던	-16692
▁지나가면	-16693
▁지난달에	-16694
▁지수씨가	-16695
▁지운다고	-16696
▁지적장애	-16697
▁지켜보고	-16698
▁지켜본다	-16699
▁지켜야지	-16700
▁지켜야해	-16701
▁지하철에	-16702
▁직장동료	-16703
▁직전까지	-16704
▁진희씨는	-16705
▁집에와서	-16706
▁집합시켜	-16707
▁짜져있어	-16708
▁쪄가지고	-16709
▁쪽팔리게	-16710
▁쫓아가서	-16711
▁찌그러져	-16712
▁찍은거야	-16713
▁찢어버려	-16714
▁찢어버릴	-16715
▁차근차근	-16716
▁착각하나	-16717
▁창피해서	-16718
▁찾아간다	-16719
▁찾아보자	-16720
▁찾아오면	-16721
▁책임이야	-16722
▁챙겨갈게	-16723
▁처리하라	-16724
▁처리하면	-16725
▁처리해야	-16726
▁처음이네	-16727
▁처자식이	-16728
▁쳐맞는다	-16729
▁최악이다	-16730
▁추가해서	-16731
▁출근하는	-16732
▁출근하지	-16733
▁출발하자	-16734
▁출신이야	-16735
▁출장가서	-16736
▁치료비가	-16737
▁치료비를	-16738
▁치사하게	-16739
▁친구들도	-16740
▁친구라도	-16741
▁친구로서	-16742
▁친해지고	-16743
▁칭찬이야	-16744
▁카드라도	-16745
▁칼퇴하고	-16746
▁컴퓨터에	-16747
▁키우면서	-16748
▁키웠는데	-16749
▁토나올거	-16750
▁통금시간	-16751
▁통장으로	-16752
▁퇴근하는	-16753
▁퇴근할때	-16754
▁퇴직하고	-16755
▁팔아버릴	-16756
▁패버리고	-16757
▁퍼뜨리면	-16758
▁편하겠다	-16759
▁평상시에	-16760
▁평소보다	-16761
▁풀리는데	-16762
▁풀어주면	-16763
▁풀어줄게	-16764
▁프로그램	-16765
▁피곤하고	-16766
▁피해보상	-16767
▁필요없네	-16768
▁필요한거	-16769
▁필요할때	-16770
▁하기전에	-16771
▁하는거니	-16772
▁하는구나	-16773
▁하라고요	-16774
▁하셔야죠	-16775
▁하시는거	-16776
▁하시는게	-16777
▁하실래요	-16778
▁하청업체	-16779
▁학부모님	-16780
▁학생들이	-16781
▁학생회비	-16782
▁학원비란	-16783
▁학원에서	-16784
▁한두번도	-16785
▁한잔하고	-16786
▁한잔할래	-16787
▁할거니까	-16788
▁할거에요	-16789
▁할머니랑	-16790
▁할소리야	-16791
▁해달라면	-16792
▁해드리지	-16793
▁해보려고	-16794
▁해서라도	-16795
▁해야겠지	-16796
▁해야하고	-16797
▁해야할거	-16798
▁해오세요	-16799
▁해왔다고	-16800
▁해주라고	-16801
▁해준건데	-16802
▁핸드폰을	-16803
▁허위사실	-16804
▁헤어져서	-16805
▁헤어지잔	-16806
▁호구처럼	-16807
▁혹시라도	-16808
▁화장실로	-16809
▁화장실을	-16810
▁확실하게	-16811
▁확인되면	-16812
▁환불해주	-16813
▁회사일에	-16814
▁회식에서	-16815
▁횡단보도	-16816
▁후라이드	-16817
▁휴대폰을	-16818
▁흑인이냐	-16819
▁흘리면서	-16820
▁흥미진진	-16821
▁흥분해서	-16822
▁힘드니까	-16823
놓겠습니다	-16824
달라는거지	-16825
보낼테니까	-16826
사야되는데	-16827
시겠습니다	-16828
시는건데요	-16829
신다면서요	-16830
왜이러세요	-16831
죄송하다면	-16832
지경이에요	-16833
하는거에요	-16834
하는거잖아	-16835
하시겠어요	-16836
해줄테니까	-16837
??????	-16838
▁가고싶은데	-16839
▁가만안둔다	-16840
▁가방이라도	-16841
▁가정교육을	-16842
▁가져가시면	-16843
▁가져왔는데	-16844
▁감사하지만	-16845
▁거래처에서	-16846
▁거지같은게	-16847
▁거짓말이면	-16848
▁거짓말이야	-16849
▁거짓말이지	-16850
▁거짓말쟁이	-16851
▁걱정했는데	-16852
▁건드린다고	-16853
▁건들이지마	-16854
▁검색해볼게	-16855
▁결혼하는데	-16856
▁결혼한다고	-16857
▁경찰서에서	-16858
▁계좌번호로	-16859
▁고백했다며	-16860
▁고생시키지	-16861
▁공부안하면	-16862
▁괜찮을까요	-16863
▁괴롭히다니	-16864
▁교통사고가	-16865
▁구체적으로	-16866
▁귀찮으니까	-16867
▁그건그거고	-16868
▁그래야겠어	-16869
▁그러니깐요	-16870
▁그러시나요	-16871
▁그러지마요	-16872
▁그런거까지	-16873
▁그런식이면	-16874
▁그럴것이지	-16875
▁그렇잖아요	-16876
▁그모양이야	-16877
▁그어버린다	-16878
▁금칠이라도	-16879
▁길동샐러드	-16880
▁김치볶음밥	-16881
▁꼬리쳤다며	-16882
▁꼴보기싫어	-16883
▁끝날때까지	-16884
▁나눠주세요	-16885
▁나오는데요	-16886
▁나왔어야지	-16887
▁나중에라도	-16888
▁나타나지마	-16889
▁낙하산으로	-16890
▁남았는데요	-16891
▁남았습니다	-16892
▁남자들한테	-16893
▁내겠습니다	-16894
▁내야하는데	-16895
▁내일까지요	-16896
▁내일부터는	-16897
▁냄새난다고	-16898
▁너때문이야	-16899
▁노력이라도	-16900
▁놀러가기로	-16901
▁놀아줬더니	-16902
▁느려터져서	-16903
▁다녔어야지	-16904
▁다니는데요	-16905
▁다른남자랑	-16906
▁다른애들이	-16907
▁다했습니다	-16908
▁대출이라도	-16909
▁데리고있다	-16910
▁도와드리면	-16911
▁도와주려고	-16912
▁도와줬잖아	-16913
▁돌려줄거야	-16914
▁돌아가겠어	-16915
▁돌아가면서	-16916
▁돌아가셔서	-16917
▁동국대학교	-16918
▁되는거잖아	-16919
▁되었습니다	-16920
▁될거아니야	-16921
▁뒤뚱거리는	-16922
▁뒤지는거야	-16923
▁뒤치다꺼리	-16924
▁드렸습니다	-16925
▁드렸잖아요	-16926
▁들어가는데	-16927
▁들어갔는데	-16928
▁들어온거야	-16929
▁들어와서는	-16930
▁때리기라도	-16931
▁마무리하고	-16932
▁마무리해서	-16933
▁만들었어요	-16934
▁만족스러워	-16935
▁많아보인다	-16936
▁말로하니까	-16937
▁말씀하시는	-16938
▁말할겁니다	-16939
▁말해보라고	-16940
▁말했을텐데	-16941
▁망하는거야	-16942
▁모르겠다고	-16943
▁모르는거야	-16944
▁못봤습니다	-16945
▁못하겠다면	-16946
▁못하겠어요	-16947
▁무릎이라도	-16948
▁무슨말씀을	-16949
▁문제집이랑	-16950
▁뭐라고했어	-16951
▁뭔소리에요	-16952
▁미안하니까	-16953
▁미안하다는	-16954
▁미안하다면	-16955
▁미안하지만	-16956
▁미친새끼야	-16957
▁바꿔주세요	-16958
▁바꿔준다고	-16959
▁받아들이냐	-16960
▁받아줬더니	-16961
▁받았습니다	-16962
▁배고프다고	-16963
▁배은망덕한	-16964
▁버르장머리	-16965
▁버릴까보다	-16966
▁버릴테니까	-16967
▁보이스피싱	-16968
▁봤다니까요	-16969
▁부담스러워	-16970
▁부딪혔으면	-16971
▁부러져봐야	-16972
▁부르는거야	-16973
▁부르셨나요	-16974
▁부모님에게	-16975
▁부장님이랑	-16976
▁부탁이니까	-16977
▁부탁하잖아	-16978
▁부탁한다고	-16979
▁불가능해요	-16980
▁불가합니다	-16981
▁불어버린다	-16982
▁불쾌합니다	-16983
▁불편해서요	-16984
▁비켜주세요	-16985
▁빌려가놓고	-16986
▁빌려주라고	-16987
▁빌리겠다고	-16988
▁빠지지말고	-16989
▁사과했잖아	-16990
▁사람들에게	-16991
▁사람들이랑	-16992
▁사람이라고	-16993
▁사람입니다	-16994
▁사랑한다고	-16995
▁사야된다고	-16996
▁상관이세요	-16997
▁상관이에요	-16998
▁상식적으로	-16999
▁상황파악이	-17000
▁생각하세요	-17001
▁생각해볼게	-17002
▁생겨가지고	-17003
▁선생님들이	-17004
▁성희롱이야	-17005
▁소름끼친다	-17006
▁소문낼거야	-17007
▁소중하다고	-17008
▁소중한거야	-17009
▁손가락부터	-17010
▁쇼핑몰에서	-17011
▁수정하라고	-17012
▁쉬어야겠어	-17013
▁스타일인데	-17014
▁시간인데요	-17015
▁시끄럽다고	-17016
▁시작했어요	-17017
▁신고하거나	-17018
▁신고할게요	-17019
▁신용불량자	-17020
▁심부름이나	-17021
▁싸가지없는	-17022
▁싸가지없이	-17023
▁써봐야겠다	-17024
▁써야하는데	-17025
▁쓰레기같은	-17026
▁아니라구요	-17027
▁아니라니깐	-17028
▁아니라서요	-17029
▁아니신가요	-17030
▁아니었으면	-17031
▁아버지한테	-17032
▁안그랬어요	-17033
▁안되는데요	-17034
▁안되잖아요	-17035
▁안된다고요	-17036
▁안보이는데	-17037
▁안하겠다고	-17038
▁안하셨으면	-17039
▁안해주셔서	-17040
▁안했는데요	-17041
▁않았습니다	-17042
▁알겠다고요	-17043
▁알아보세요	-17044
▁알았습니다	-17045
▁애들한테는	-17046
▁야근하면서	-17047
▁약속했잖아	-17048
▁얘기했는데	-17049
▁어떡할건데	-17050
▁어울리는거	-17051
▁어쩔수없지	-17052
▁얼마나좋아	-17053
▁얼마한다고	-17054
▁업무적으로	-17055
▁없다니깐요	-17056
▁없단말이야	-17057
▁없으셨는데	-17058
▁엘레베이터	-17059
▁엘리베이터	-17060
▁연락하지마	-17061
▁연수받아야	-17062
▁엿먹이려고	-17063
▁예정입니다	-17064
▁오늘안으로	-17065
▁오랜만이지	-17066
▁오지마세요	-17067
▁온라인으로	-17068
▁올린겁니다	-17069
▁요즘것들은	-17070
▁요즘애들은	-17071
▁우리가족은	-17072
▁우리딸한테	-17073
▁우리아빠가	-17074
▁우리엄마가	-17075
▁웃기고있네	-17076
▁원하시나요	-17077
▁이기적이다	-17078
▁이대리한테	-17079
▁이래라저래	-17080
▁이러지말자	-17081
▁이런거라도	-17082
▁이런것까지	-17083
▁이번달까지	-17084
▁이번만이야	-17085
▁이상하더라	-17086
▁이상하잖아	-17087
▁이세상에서	-17088
▁이자리에서	-17089
▁일어나지도	-17090
▁일이라서요	-17091
▁있는거잖아	-17092
▁있는건가요	-17093
▁있었는데요	-17094
▁있었습니다	-17095
▁잘못이라도	-17096
▁잘못한것도	-17097
▁잘못했길래	-17098
▁잘해주니까	-17099
▁장난아니네	-17100
▁장애인들이	-17101
▁장애인으로	-17102
▁장애인이야	-17103
▁저리가세요	-17104
▁저번주에도	-17105
▁젊은것들은	-17106
▁정상적으로	-17107
▁정신차리고	-17108
▁정신차리냐	-17109
▁조심할게요	-17110
▁조용히하고	-17111
▁좋아하는거	-17112
▁좋아한다고	-17113
▁죄송할짓을	-17114
▁주민등록증	-17115
▁주의할게요	-17116
▁죽게될거야	-17117
▁죽고싶어서	-17118
▁죽어버리자	-17119
▁죽을거니까	-17120
▁준비할게요	-17121
▁증거있어요	-17122
▁지긋지긋해	-17123
▁지나갔잖아	-17124
▁지내셨어요	-17125
▁지워주세요	-17126
▁직원들한테	-17127
▁진짜입니다	-17128
▁짜증나는데	-17129
▁착각하지마	-17130
▁책임질거야	-17131
▁챙겨야겠다	-17132
▁체육시간에	-17133
▁커피심부름	-17134
▁탕비실에서	-17135
▁태어났으면	-17136
▁퇴근시간에	-17137
▁팀장님께서	-17138
▁팀장님한테	-17139
▁편의점가서	-17140
▁프로젝트가	-17141
▁하나입니다	-17142
▁하라마라야	-17143
▁하루아침에	-17144
▁하루이틀도	-17145
▁하시라고요	-17146
▁학원비에요	-17147
▁한국인이야	-17148
▁한대씩이다	-17149
▁해드릴까요	-17150
▁해보시던가	-17151
▁해야하는거	-17152
▁해야하는데	-17153
▁해주신다고	-17154
▁했었어야지	-17155
▁행동하는데	-17156
▁헤어지라고	-17157
▁혐오스러운	-17158
▁협박하시는	-17159
▁확인해보니	-17160
▁환불해줘요	-17161
▁환장했구나	-17162
▁힘들어서요	-17163
▁힘들었는데	-17164
기다려주세요	-17165
!!!!!!!	-17166
▁가지가지한다	-17167
▁거지새끼한테	-17168
▁계산해주세요	-17169
▁고분고분하게	-17170
▁그따위로밖에	-17171
▁근무시간으로	-17172
▁꼬라지하고는	-17173
▁끝내겠습니다	-17174
▁니새끼보다는	-17175
▁다른애들한테	-17176
▁다름이아니라	-17177
▁다음주까지는	-17178
▁다하겠습니다	-17179
▁도와드릴께요	-17180
▁들어봐야겠다	-17181
▁따라다니면서	-17182
▁마음만으로도	-17183
▁마지막입니다	-17184
▁만들어오라고	-17185
▁만만해보이냐	-17186
▁말대꾸하지마	-17187
▁말씀하시는거	-17188
▁말해주는거야	-17189
▁먹어봐야겠다	-17190
▁멍청해가지고	-17191
▁못하겠습니다	-17192
▁무슨일인가요	-17193
▁뭐하는짓이야	-17194
▁뭐하자는거야	-17195
▁미친거아니야	-17196
▁바빠죽겠는데	-17197
▁빌려달라는거	-17198
▁빌려주는거다	-17199
▁살려만주세요	-17200
▁소문내야겠다	-17201
▁수정했습니다	-17202
▁수치스러워서	-17203
▁승진이라니까	-17204
▁시키는대로만	-17205
▁신경쓰이니까	-17206
▁신체포기각서	-17207
▁아니잖습니까	-17208
▁아죄송합니다	-17209
▁야근해서라도	-17210
▁어디있습니까	-17211
▁여자친구한테	-17212
▁오해이십니다	-17213
▁왜그러시나요	-17214
▁일하겠습니다	-17215
▁잃어버렸다고	-17216
▁입사하자마자	-17217
▁잘못한거라도	-17218
▁잘못했습니까	-17219
▁장난치는걸로	-17220
▁정신못차렸네	-17221
▁정신차리겠어	-17222
▁죄송합니다만	-17223
▁죽여버린다고	-17224
▁지키겠습니다	-17225
▁진정하시구요	-17226
▁짜증나게하네	-17227
▁찌그러져있어	-17228
▁찔러버릴거야	-17229
▁축하드립니다	-17230
▁퇴근시간인데	-17231
▁필요하신데요	-17232
▁하고있습니다	-17233
▁하셨다면서요	-17234
▁하시는거에요	-17235
▁하지말라니까	-17236
해드리겠습니다	-17237
▁가져오겠습니다	-17238
▁거짓말하지말고	-17239
▁고소하겠습니다	-17240
▁그러시는거에요	-17241
▁그런거아니에요	-17242
▁기억하겠습니다	-17243
▁느려터져가지고	-17244
▁마련하겠습니다	-17245
▁말씀드렸잖아요	-17246
▁못생긴애들이랑	-17247
▁무슨상관이에요	-17248
▁부담스럽습니다	-17249
▁분발하겠습니다	-17250
▁불어버리기전에	-17251
▁불질러버릴거야	-17252
▁수고하셨습니다	-17253
▁연락드렸습니다	-17254
▁오냐오냐하니까	-17255
▁용서해주십시오	-17256
▁유포하겠습니다	-17257
▁정말죄송합니다	-17258
▁죽여버리기전에	-17259
▁죽여버릴까보다	-17260
▁해결하겠습니다	-17261
▁환불해달라는데	-17262
▁힘들것같습니다	-17263
▁마련해보겠습니다	-17264
▁말씀드리는겁니다	-17265
▁사과드리겠습니다	-17266
▁확인해보겠습니다	-17267
,.	-17268
.1	-17269
.3	-17270
.4	-17271
.5	-17272
36	-17273
37	-17274
40	-17275
50	-17276
OO	-17277
▁갓	-17278
▁겹	-17279
▁괘	-17280
▁껍	-17281
▁껏	-17282
▁꾹	-17283
▁꿍	-17284
▁꿔	-17285
▁낀	-17286
▁넓	-17287
▁눅	-17288
▁눕	-17289
▁눠	-17290
▁뉘	-17291
▁댕	-17292
▁둥	-17293
▁득	-17294
▁듬	-17295
▁뜰	-17296
▁랜	-17297
▁러	-17298
▁맬	-17299
▁몬	-17300
▁뮤	-17301
▁뱉	-17302
▁빗	-17303
▁빤	-17304
▁뻐	-17305
▁섬	-17306
▁셈	-17307
▁쇼	-17308
▁씁	-17309
▁엔	-17310
▁왁	-17311
▁욱	-17312
▁웨	-17313
▁잉	-17314
▁져	-17315
▁좔	-17316
▁쩝	-17317
▁쩨	-17318
▁쭈	-17319
▁춘	-17320
▁칸	-17321
▁컬	-17322
▁켰	-17323
▁콤	-17324
▁퀴	-17325
▁킹	-17326
▁톱	-17327
▁튼	-17328
▁팅	-17329
▁햐	-17330
▁활	-17331
가림	-17332
가만	-17333
가슴	-17334
가에	-17335
가의	-17336
간녀	-17337
간돈	-17338
갈통	-17339
감기	-17340
감염	-17341
감한	-17342
갑게	-17343
갔네	-17344
갔지	-17345
강민	-17346
강이	-17347
같고	-17348
같니	-17349
개로	-17350
개를	-17351
개발	-17352
거도	-17353
거란	-17354
거릴	-17355
거슬	-17356
거운	-17357
거울	-17358
거워	-17359
걱정	-17360
검마	-17361
것이	-17362
겄다	-17363
겄어	-17364
겟지	-17365
겠소	-17366
격모	-17367
견례	-17368
겼냐	-17369
경우	-17370
계발	-17371
계신	-17372
계약	-17373
고모	-17374
고무	-17375
고민	-17376
고편	-17377
고한	-17378
곤란	-17379
곤증	-17380
골목	-17381
골좀	-17382
공개	-17383
공손	-17384
공연	-17385
공책	-17386
공항	-17387
과는	-17388
과목	-17389
관의	-17390
구경	-17391
구녕	-17392
구리	-17393
구장	-17394
구할	-17395
국을	-17396
굴뚝	-17397
굽신	-17398
그날	-17399
그마	-17400
근우	-17401
금니	-17402
급실	-17403
급은	-17404
기기	-17405
기능	-17406
기러	-17407
기발	-17408
기사	-17409
기업	-17410
기자	-17411
기질	-17412
기획	-17413
긴다	-17414
긴데	-17415
길시	-17416
김영	-17417
김치	-17418
깔짝	-17419
깝게	-17420
깟게	-17421
깨게	-17422
깨비	-17423
꺼냐	-17424
꺼다	-17425
꺼라	-17426
꺼죠	-17427
꺼풀	-17428
껀지	-17429
껄로	-17430
께는	-17431
꼬라	-17432
꼬봉	-17433
꾼다	-17434
꿈치	-17435
끄지	-17436
끌고	-17437
끼게	-17438
끼끼	-17439
끼야	-17440
나갈	-17441
나를	-17442
나비	-17443
나쁜	-17444
나왔	-17445
날거	-17446
날로	-17447
날뻔	-17448
날엔	-17449
날이	-17450
납금	-17451
났냐	-17452
났네	-17453
낳고	-17454
내꺼	-17455
내냐	-17456
내돈	-17457
내말	-17458
내밀	-17459
내자	-17460
내지	-17461
낸거	-17462
냥하	-17463
너랑	-17464
너마	-17465
너스	-17466
넘게	-17467
넘어	-17468
네는	-17469
네에	-17470
녀냐	-17471
년대	-17472
노릇	-17473
놀리	-17474
놈들	-17475
놈에	-17476
농장	-17477
놨니	-17478
누고	-17479
눈깔	-17480
눈알	-17481
눈엔	-17482
눈을	-17483
눌해	-17484
늘이	-17485
니꺼	-17486
닐봉	-17487
다간	-17488
다구	-17489
다뇨	-17490
다매	-17491
다오	-17492
다워	-17493
다줫	-17494
다출	-17495
닥쳐	-17496
단말	-17497
단속	-17498
단짠	-17499
달까	-17500
달만	-17501
달째	-17502
담을	-17503
담화	-17504
대냐	-17505
대론	-17506
대매	-17507
대박	-17508
대서	-17509
대출	-17510
댓국	-17511
댔어	-17512
덕에	-17513
도시	-17514
도직	-17515
독아	-17516
돈좀	-17517
돌로	-17518
돌면	-17519
동기	-17520
동아	-17521
됐냐	-17522
되게	-17523
된단	-17524
두려	-17525
두셨	-17526
둬서	-17527
드등	-17528
드로	-17529
드록	-17530
득한	-17531
들만	-17532
들와	-17533
등성	-17534
디오	-17535
딩때	-17536
딩에	-17537
따고	-17538
따서	-17539
따위	-17540
딸만	-17541
때나	-17542
때릴	-17543
때일	-17544
땡이	-17545
떄문	-17546
떄서	-17547
떠서	-17548
떡해	-17549
떼지	-17550
똑똑	-17551
뜨게	-17552
뜨지	-17553
뜬금	-17554
라곤	-17555
라나	-17556
라네	-17557
라당	-17558
라떼	-17559
라라	-17560
라멜	-17561
라우	-17562
락션	-17563
란걸	-17564
랑도	-17565
랑아	-17566
래고	-17567
래머	-17568
래치	-17569
량을	-17570
럐지	-17571
러봐	-17572
러분	-17573
러스	-17574
런가	-17575
렀다	-17576
렁이	-17577
렁치	-17578
레는	-17579
레싱	-17580
렌다	-17581
렌드	-17582
력을	-17583
력해	-17584
련지	-17585
련히	-17586
렸고	-17587
렸니	-17588
령이	-17589
로커	-17590
론데	-17591
론아	-17592
론화	-17593
롸고	-17594
료도	-17595
루는	-17596
루팡	-17597
르니	-17598
른데	-17599
름에	-17600
릐고	-17601
리랑	-17602
리버	-17603
리수	-17604
리안	-17605
립이	-17606
릿한	-17607
마니	-17608
마비	-17609
마실	-17610
마을	-17611
마저	-17612
막내	-17613
만게	-17614
만삭	-17615
많네	-17616
말귀	-17617
말다	-17618
말던	-17619
말지	-17620
맛을	-17621
망한	-17622
맞게	-17623
맞네	-17624
맞았	-17625
맞을	-17626
매로	-17627
매매	-17628
매번	-17629
멈춰	-17630
메신	-17631
메일	-17632
면대	-17633
명수	-17634
명은	-17635
명한	-17636
모도	-17637
모를	-17638
못본	-17639
못살	-17640
무게	-17641
무는	-17642
무니	-17643
무들	-17644
무섭	-17645
무지	-17646
무직	-17647
문의	-17648
물상	-17649
뭐든	-17650
뭐래	-17651
뭔가	-17652
미노	-17653
미로	-17654
미를	-17655
미의	-17656
미진	-17657
미팅	-17658
민서	-17659
민을	-17660
민이	-17661
민지	-17662
민철	-17663
민트	-17664
믿어	-17665
바꿀	-17666
바빠	-17667
바쁜	-17668
바요	-17669
박아	-17670
반도	-17671
받길	-17672
발언	-17673
발유	-17674
발진	-17675
방도	-17676
방만	-17677
방울	-17678
배가	-17679
배기	-17680
배나	-17681
배야	-17682
백만	-17683
백원	-17684
버야	-17685
벅스	-17686
번을	-17687
번출	-17688
벌려	-17689
벌어	-17690
범생	-17691
벤더	-17692
벼락	-17693
병도	-17694
병에	-17695
병이	-17696
보까	-17697
보소	-17698
보일	-17699
보행	-17700
복종	-17701
복지	-17702
본거	-17703
본적	-17704
볼거	-17705
봐바	-17706
봤나	-17707
봤냐	-17708
부격	-17709
부랭	-17710
부룩	-17711
북에	-17712
분담	-17713
분에	-17714
분열	-17715
분째	-17716
분후	-17717
붙여	-17718
블거	-17719
블로	-17720
비밀	-17721
비야	-17722
비용	-17723
비켜	-17724
비타	-17725
빌린	-17726
빡이	-17727
뻔한	-17728
뿐이	-17729
쁠거	-17730
사로	-17731
사면	-17732
사수	-17733
사업	-17734
사인	-17735
사죠	-17736
사판	-17737
산이	-17738
산지	-17739
살기	-17740
살다	-17741
살어	-17742
샀냐	-17743
상복	-17744
새요	-17745
새해	-17746
색도	-17747
색을	-17748
석푸	-17749
선에	-17750
설마	-17751
설정	-17752
성년	-17753
세는	-17754
세를	-17755
세일	-17756
세코	-17757
소릴	-17758
소변	-17759
손도	-17760
손이	-17761
수나	-17762
수당	-17763
수랑	-17764
수리	-17765
수수	-17766
수의	-17767
수작	-17768
숙사	-17769
숙이	-17770
쉬브	-17771
슴할	-17772
승을	-17773
시냐	-17774
시대	-17775
시도	-17776
시려	-17777
시장	-17778
시후	-17779
식기	-17780
식행	-17781
신발	-17782
신아	-17783
신은	-17784
실갈	-17785
실거	-17786
실이	-17787
실히	-17788
싶지	-17789
쌤은	-17790
써야	-17791
쎄요	-17792
쏠해	-17793
쓰기	-17794
쓰자	-17795
씩만	-17796
씬도	-17797
씻고	-17798
아놔	-17799
아트	-17800
아프	-17801
안와	-17802
안좋	-17803
안지	-17804
안펴	-17805
안한	-17806
안할	-17807
알어	-17808
알죠	-17809
애는	-17810
애든	-17811
애야	-17812
애플	-17813
야일	-17814
약도	-17815
약에	-17816
양반	-17817
양제	-17818
얘야	-17819
어마	-17820
어빠	-17821
어쨌	-17822
어치	-17823
업계	-17824
업을	-17825
없나	-17826
었대	-17827
에그	-17828
에대	-17829
에이	-17830
여사	-17831
여시	-17832
여야	-17833
연기	-17834
열어	-17835
열한	-17836
엽아	-17837
였고	-17838
였던	-17839
영하	-17840
예보	-17841
오네	-17842
오셨	-17843
오줌	-17844
오해	-17845
온게	-17846
온지	-17847
올때	-17848
올려	-17849
올리	-17850
옷을	-17851
옷이	-17852
와도	-17853
왔고	-17854
왔죠	-17855
요리	-17856
요원	-17857
욕은	-17858
용돈	-17859
용지	-17860
우기	-17861
우니	-17862
우린	-17863
우선	-17864
우습	-17865
우식	-17866
우적	-17867
우직	-17868
운영	-17869
울까	-17870
움은	-17871
원래	-17872
원씩	-17873
원은	-17874
원할	-17875
원회	-17876
원후	-17877
웨어	-17878
위조	-17879
위해	-17880
유도	-17881
유리	-17882
유지	-17883
육이	-17884
윤아	-17885
으란	-17886
으으	-17887
은건	-17888
음악	-17889
음회	-17890
의실	-17891
의원	-17892
이겨	-17893
이군	-17894
이너	-17895
이놈	-17896
이불	-17897
이브	-17898
이블	-17899
이비	-17900
이사	-17901
이였	-17902
이커	-17903
이해	-17904
이혼	-17905
인게	-17906
인들	-17907
인인	-17908
일거	-17909
일게	-17910
일일	-17911
일정	-17912
일지	-17913
일처	-17914
일푼	-17915
임씨	-17916
임을	-17917
입만	-17918
입어	-17919
잇게	-17920
잇어	-17921
잇츠	-17922
있느	-17923
있던	-17924
있죠	-17925
자니	-17926
자르	-17927
자촌	-17928
자코	-17929
작고	-17930
잖인	-17931
잘안	-17932
잡을	-17933
잡이	-17934
장사	-17935
재도	-17936
재미	-17937
저것	-17938
저런	-17939
저로	-17940
저만	-17941
전모	-17942
전을	-17943
전자	-17944
절대	-17945
절을	-17946
점에	-17947
젓이	-17948
정기	-17949
제기	-17950
제차	-17951
제탑	-17952
제한	-17953
젠데	-17954
젠장	-17955
졌나	-17956
조각	-17957
조나	-17958
조상	-17959
조정	-17960
조할	-17961
족은	-17962
존나	-17963
좀빼	-17964
종이	-17965
좌제	-17966
죄에	-17967
주니	-17968
죽는	-17969
죽든	-17970
죽을	-17971
죽일	-17972
준수	-17973
준이	-17974
준적	-17975
줄도	-17976
줄은	-17977
줄을	-17978
줍고	-17979
중히	-17980
줬냐	-17981
줬니	-17982
줬던	-17983
줬음	-17984
지각	-17985
지라	-17986
지방	-17987
지체	-17988
지컬	-17989
지키	-17990
진정	-17991
질때	-17992
질을	-17993
질한	-17994
집안	-17995
짓고	-17996
짓도	-17997
짜라	-17998
짬뽕	-17999
짱깨	-18000
쪽이	-18001
쭈쭈	-18002
찍고	-18003
차나	-18004
차별	-18005
찬아	-18006
참석	-18007
참이	-18008
참해	-18009
채를	-18010
책상	-18011
처는	-18012
처먹	-18013
처음	-18014
천만	-18015
천을	-18016
철수	-18017
철이	-18018
청장	-18019
체도	-18020
쳐나	-18021
쳐도	-18022
쳐먹	-18023
쳐요	-18024
쳤나	-18025
쳤다	-18026
초나	-18027
초한	-18028
추어	-18029
추장	-18030
축하	-18031
출산	-18032
충전	-18033
취도	-18034
치라	-18035
치수	-18036
치에	-18037
칙칙	-18038
친건	-18039
침떼	-18040
카랑	-18041
카오	-18042
칼로	-18043
칼맞	-18044
컥컥	-18045
케팅	-18046
코패	-18047
콤한	-18048
쾅쾅	-18049
크게	-18050
크다	-18051
크크	-18052
큰거	-18053
키야	-18054
타서	-18055
타지	-18056
탕에	-18057
태도	-18058
태만	-18059
탱크	-18060
터기	-18061
터를	-18062
터져	-18063
털털	-18064
톡방	-18065
통령	-18066
퇴해	-18067
투로	-18068
투병	-18069
투브	-18070
투자	-18071
툭튀	-18072
튀김	-18073
트는	-18074
트랑	-18075
트만	-18076
트해	-18077
튼데	-18078
티커	-18079
티켓	-18080
티콘	-18081
파일	-18082
판을	-18083
판이	-18084
팔게	-18085
팔고	-18086
팔찌	-18087
팥빵	-18088
퍼짐	-18089
펜슬	-18090
펴서	-18091
편람	-18092
편에	-18093
편은	-18094
폐급	-18095
푸핫	-18096
푼이	-18097
품도	-18098
품을	-18099
풍기	-18100
플렉	-18101
피부	-18102
피식	-18103
피자	-18104
하거	-18105
하군	-18106
하길	-18107
하노	-18108
하늘	-18109
하란	-18110
하선	-18111
하쇼	-18112
하심	-18113
하씨	-18114
하차	-18115
한단	-18116
할건	-18117
할걸	-18118
할만	-18119
핫팩	-18120
해놓	-18121
해먹	-18122
해져	-18123
해진	-18124
했노	-18125
했는	-18126
했죠	-18127
행복	-18128
행을	-18129
허허	-18130
험을	-18131
헝헝	-18132
헤헤	-18133
현상	-18134
현증	-18135
협조	-18136
형님	-18137
형씨	-18138
호가	-18139
호팀	-18140
호호	-18141
활동	-18142
회장	-18143
효야	-18144
휴무	-18145
흐윽	-18146
히기	-18147
힘든	-18148
!!.	-18149
,10	-18150
789	-18151
▁1,	-18152
▁2.	-18153
▁56	-18154
▁70	-18155
▁90	-18156
▁가늘	-18157
▁가둬	-18158
▁가득	-18159
▁가루	-18160
▁가본	-18161
▁가혹	-18162
▁간거	-18163
▁간나	-18164
▁간대	-18165
▁간도	-18166
▁간에	-18167
▁간줄	-18168
▁간판	-18169
▁갇혀	-18170
▁갈때	-18171
▁감금	-18172
▁감상	-18173
▁감찰	-18174
▁갔냐	-18175
▁갔지	-18176
▁강제	-18177
▁갖는	-18178
▁같음	-18179
▁갚지	-18180
▁개길	-18181
▁개네	-18182
▁개도	-18183
▁개똥	-18184
▁개찌	-18185
▁개쳐	-18186
▁개콘	-18187
▁개통	-18188
▁거긴	-18189
▁거든	-18190
▁거로	-18191
▁거역	-18192
▁거요	-18193
▁거친	-18194
▁건네	-18195
▁걷고	-18196
▁걸면	-18197
▁걸쳐	-18198
▁검지	-18199
▁겁먹	-18200
▁겁이	-18201
▁것에	-18202
▁겠어	-18203
▁겪은	-18204
▁결석	-18205
▁경례	-18206
▁경마	-18207
▁경위	-18208
▁고깃	-18209
▁고모	-18210
▁고무	-18211
▁고문	-18212
▁고자	-18213
▁고칠	-18214
▁곤충	-18215
▁곳은	-18216
▁곳을	-18217
▁공범	-18218
▁공은	-18219
▁공을	-18220
▁공항	-18221
▁과분	-18222
▁과학	-18223
▁과해	-18224
▁관광	-18225
▁괜한	-18226
▁교감	-18227
▁교신	-18228
▁교회	-18229
▁구글	-18230
▁구나	-18231
▁구는	-18232
▁구니	-18233
▁구독	-18234
▁구려	-18235
▁구르	-18236
▁구름	-18237
▁구한	-18238
▁군고	-18239
▁군침	-18240
▁귀한	-18241
▁그곳	-18242
▁그꼴	-18243
▁그르	-18244
▁그립	-18245
▁그에	-18246
▁그짝	-18247
▁그차	-18248
▁그칠	-18249
▁근평	-18250
▁글꼴	-18251
▁글을	-18252
▁글의	-18253
▁긁어	-18254
▁긁은	-18255
▁금을	-18256
▁긋고	-18257
▁기꺼	-18258
▁기네	-18259
▁기는	-18260
▁기도	-18261
▁기재	-18262
▁기특	-18263
▁기프	-18264
▁기형	-18265
▁긴장	-18266
▁길어	-18267
▁길지	-18268
▁김뽀	-18269
▁김사	-18270
▁김쌤	-18271
▁김정	-18272
▁김포	-18273
▁김현	-18274
▁김혜	-18275
▁까마	-18276
▁까면	-18277
▁깍듯	-18278
▁깍이	-18279
▁깜지	-18280
▁깨는	-18281
▁꺼서	-18282
▁꼬매	-18283
▁꼬봉	-18284
▁꼬붕	-18285
▁꼬셨	-18286
▁꼴값	-18287
▁꼴등	-18288
▁꼴찌	-18289
▁꼴통	-18290
▁꽁꽁	-18291
▁꾸중	-18292
▁꿈은	-18293
▁꿍쳐	-18294
▁끊기	-18295
▁끊지	-18296
▁끝냅	-18297
▁끝도	-18298
▁끝을	-18299
345	-18300
▁곧이	-18301
▁국룰	-18302
▁깔래	-18303
▁끼얹	-18304
▁나다	-18305
▁나두	-18306
▁나락	-18307
▁나르	-18308
▁나쁨	-18309
▁나줘	-18310
▁낚지	-18311
▁난거	-18312
▁난동	-18313
▁난이	-18314
▁난쟁	-18315
▁날도	-18316
▁날린	-18317
▁날만	-18318
▁날에	-18319
▁날카	-18320
▁낡은	-18321
▁남게	-18322
▁남긴	-18323
▁남용	-18324
▁났나	-18325
▁낮에	-18326
▁내것	-18327
▁내겐	-18328
▁내껀	-18329
▁내껄	-18330
▁내껏	-18331
▁내둬	-18332
▁내빼	-18333
▁내숭	-18334
▁내역	-18335
▁내진	-18336
▁내탓	-18337
▁너꺼	-18338
[...]
